<unk>	0
<s>	0
</s>	0
中国	-0
发展	-1
美国	-2
经济	-3
关系	-4
问题	-5
台湾	-6
国家	-7
人民	-8
我们	-9
社会	-10
政府	-11
一个	-12
▁他	-13
两国	-14
工作	-15
合作	-16
重要	-17
▁在	-18
主义	-19
领导	-20
▁这	-21
表示	-22
建设	-23
国际	-24
进行	-25
世界	-26
代表	-27
政治	-28
地区	-29
企业	-30
政策	-31
方面	-32
加强	-33
和平	-34
历史	-35
会议	-36
我国	-37
中国的	-38
组织	-39
实现	-40
江泽	-41
江泽民	-42
指出	-43
改革	-44
日本	-45
世纪	-46
没有	-47
统一	-48
必须	-49
两岸	-50
共同	-51
认为	-52
双方	-53
00	-54
全国	-55
教育	-56
技术	-57
一步	-58
市场	-59
稳定	-60
军事	-61
战略	-62
原则	-63
支持	-64
友好	-65
民族	-66
思想	-67
进一步	-68
一些	-69
主席	-70
要求	-71
访问	-72
新的	-73
记者	-74
▁他说	-75
▁中国	-76
”。	-77
安全	-78
有关	-79
强调	-80
努力	-81
继续	-82
北京	-83
坚持	-84
解决	-85
已经	-86
领导人	-87
提出	-88
活动	-89
19	-90
委员	-91
联合	-92
不断	-93
总统	-94
这一	-95
的重要	-96
可以	-97
自己	-98
利益	-99
希望	-100
影响	-101
的发展	-102
管理	-103
▁但	-104
基础	-105
同时	-106
中美	-107
干部	-108
积极	-109
计划	-110
党的	-111
▁我们	-112
取得	-113
目前	-114
社会主义	-115
作为	-116
就是	-117
现代	-118
通过	-119
今年	-120
中央	-121
年来	-122
提高	-123
举行	-124
建立	-125
今天	-126
情况	-127
领域	-128
人权	-129
根本	-130
制度	-131
大的	-132
法轮	-133
祖国	-134
他们	-135
信息	-136
大陆	-137
法轮功	-138
”,	-139
▁要	-140
导弹	-141
现在	-142
贸易	-143
这个	-144
发展的	-145
不能	-146
成为	-147
开发	-148
推动	-149
环境	-150
三个	-151
主要	-152
香港	-153
布什	-154
西部	-155
作用	-156
实施	-157
当局	-158
武器	-159
也是	-160
增长	-161
外交	-162
科学	-163
战争	-164
部门	-165
发生	-166
研究	-167
以来	-168
维护	-169
重视	-170
美国的	-171
作出	-172
促进	-173
可能	-174
如果	-175
民主	-176
全球	-177
法律	-178
一个中国	-179
▁“	-180
不是	-181
二十	-182
基本	-183
生产	-184
的一	-185
去年	-186
文化	-187
需要	-188
形势	-189
▁据	-190
充分	-191
扩大	-192
措施	-193
精神	-194
199	-195
人民的	-196
现代化	-197
各国	-198
投资	-199
提供	-200
之间	-201
保持	-202
反对	-203
总理	-204
条件	-205
。”	-206
任务	-207
具有	-208
决定	-209
朝鲜	-210
罗斯	-211
调整	-212
部分	-213
▁美国	-214
新世纪	-215
科技	-216
系统	-217
这些	-218
俄罗斯	-219
上的	-220
▁江泽民	-221
全面	-222
因此	-223
开放	-224
▁李	-225
▁第	-226
人员	-227
任何	-228
特别	-229
群众	-230
西藏	-231
重大	-232
联合国	-233
保护	-234
的问题	-235
台湾当局	-236
▁对	-237
军队	-238
力量	-239
监督	-240
采取	-241
:“	-242
了解	-243
交流	-244
十分	-245
完全	-246
得到	-247
第一	-248
经贸	-249
两国关系	-250
中共	-251
事业	-252
事实	-253
台独	-254
开展	-255
意见	-256
能力	-257
台湾问题	-258
一定	-259
公司	-260
存在	-261
立场	-262
金融	-263
国家的	-264
人的	-265
国民	-266
实践	-267
许多	-268
责任	-269
资源	-270
——	-271
的是	-272
目标	-273
中方	-274
人大	-275
利用	-276
只有	-277
国防	-278
正在	-279
结构	-280
事件	-281
体制	-282
谈判	-283
三个代表	-284
,“	-285
分裂	-286
包括	-287
应该	-288
开始	-289
成功	-290
中国人民	-291
主权	-292
处理	-293
斗争	-294
理论	-295
行动	-296
规定	-297
自己的	-298
▁此	-299
之一	-300
人们	-301
保障	-302
共产	-303
加入	-304
当前	-305
未来	-306
进入	-307
中国政府	-308
严重	-309
中华	-310
加快	-311
发挥	-312
学习	-313
期间	-314
水平	-315
良好	-316
财政	-317
都是	-318
▁为	-319
人士	-320
出现	-321
国务	-322
讲话	-323
两岸关系	-324
▁新	-325
中的	-326
其他	-327
势力	-328
改善	-329
竞争	-330
这是	-331
这种	-332
高度	-333
10	-334
亚洲	-335
同志	-336
对话	-337
有的	-338
邪教	-339
▁因此	-340
经济发展	-341
什么	-342
关于	-343
农业	-344
变化	-345
意义	-346
机关	-347
▁一	-348
▁从	-349
不同	-350
十五	-351
各级	-352
工程	-353
才能	-354
推进	-355
机构	-356
深入	-357
表明	-358
部队	-359
▁如果	-360
不仅	-361
到了	-362
参加	-363
地位	-364
由于	-365
认识	-366
’。	-367
不会	-368
创新	-369
增加	-370
实际	-371
新闻	-372
是一	-373
有利	-374
一个中国原则	-375
人才	-376
发表	-377
国内	-378
应当	-379
有效	-380
林顿	-381
正确	-382
生活	-383
直接	-384
▁而	-385
今后	-386
会谈	-387
成果	-388
朱镕	-389
进程	-390
朱镕基	-391
’,	-392
一直	-393
创造	-394
国有	-395
大会	-396
始终	-397
官员	-398
欢迎	-399
美方	-400
这样	-401
部长	-402
随着	-403
200	-404
▁但是	-405
克林顿	-406
工作的	-407
以及	-408
农村	-409
友谊	-410
坚决	-411
带来	-412
接受	-413
落实	-414
装备	-415
和发展	-416
的合作	-417
20	-418
九九	-419
产业	-420
作战	-421
克思	-422
关键	-423
态度	-424
报告	-425
斯坦	-426
日电	-427
时代	-428
贯彻	-429
问题上	-430
马克思	-431
人类	-432
先进	-433
农民	-434
成员	-435
手段	-436
报道	-437
时间	-438
贡献	-439
长期	-440
重要的	-441
和平统一	-442
上海	-443
会见	-444
制定	-445
印度	-446
委会	-447
时期	-448
更加	-449
服务	-450
相互	-451
美军	-452
过去	-453
重点	-454
阶段	-455
中美关系	-456
中心	-457
传统	-458
内容	-459
各种	-460
因为	-461
形式	-462
方式	-463
方针	-464
条约	-465
的大	-466
经营	-467
这次	-468
陈水	-469
委员会	-470
现代化建设	-471
md	-472
▁不	-473
专家	-474
产生	-475
共识	-476
准备	-477
地方	-478
甚至	-479
负责	-480
质量	-481
资金	-482
过程	-483
部署	-484
防御	-485
领土	-486
▁目前	-487
地区的	-488
特别是	-489
陈水扁	-490
不可	-491
书记	-492
产品	-493
会晤	-494
依法	-495
协议	-496
发言	-497
受到	-498
各项	-499
完善	-500
所谓	-501
挑战	-502
符合	-503
结束	-504
而且	-505
进步	-506
▁他们	-507
方面的	-508
是中国	-509
的基础	-510
友好合作	-511
马克思主义	-512
▁(	-513
保证	-514
参与	-515
的新	-516
网络	-517
能够	-518
面临	-519
▁同时	-520
共产党	-521
出口	-522
原因	-523
平等	-524
广大	-525
打击	-526
执行	-527
深刻	-528
登辉	-529
看到	-530
经验	-531
行为	-532
认真	-533
还是	-534
nmd	-535
国务院	-536
的根本	-537
共同努力	-538
宣传	-539
对外	-540
成立	-541
承认	-542
根据	-543
美元	-544
全球化	-545
和社会	-546
经济的	-547
全国人大	-548
主张	-549
交换	-550
修改	-551
因素	-552
完成	-553
成的	-554
方向	-555
机遇	-556
系列	-557
素质	-558
行政	-559
非常	-560
中国家	-561
政府的	-562
▁我	-563
之后	-564
亚酞	-565
使用	-566
关注	-567
其中	-568
出席	-569
双边	-570
增强	-571
对于	-572
所有	-573
犯罪	-574
现实	-575
的前	-576
相信	-577
有利于	-578
江主席	-579
的国际	-580
改革开放	-581
,‘	-582
一国	-583
中东	-584
党和	-585
分子	-586
单位	-587
如何	-588
宗教	-589
年的	-590
广泛	-591
强烈	-592
性的	-593
机制	-594
正式	-595
的人	-596
知识	-597
首脑	-598
与合作	-599
取得了	-600
提出了	-601
的政治	-602
进行了	-603
▁199	-604
▁当	-605
▁有	-606
两制	-607
亿元	-608
会上	-609
共和	-610
改变	-611
李鹏	-612
的最	-613
西方	-614
集团	-615
面对	-616
革命	-617
飞机	-618
飞行	-619
代表团	-620
和平与	-621
中华民族	-622
一个中国的	-623
发展中国家	-624
交往	-625
公开	-626
力度	-627
华社	-628
城市	-629
多次	-630
好的	-631
实行	-632
建议	-633
形成	-634
感谢	-635
明确	-636
是否	-637
来自	-638
经过	-639
结合	-640
首先	-641
委员长	-642
李登辉	-643
的历史	-644
的工作	-645
的经济	-646
事务	-647
伙伴	-648
切实	-649
团结	-650
困难	-651
局势	-652
工业	-653
持续	-654
注意	-655
深化	-656
独立	-657
腐败	-658
解放	-659
起来	-660
▁这些	-661
大开发	-662
对中国	-663
一国两制	-664
西部大开发	-665
其琛	-666
威胁	-667
必要	-668
感到	-669
接触	-670
明显	-671
普京	-672
普遍	-673
核心	-674
组成	-675
规模	-676
议会	-677
适应	-678
▁事实	-679
▁此外	-680
亿美元	-681
是一个	-682
近年来	-683
钱其琛	-684
思想政治	-685
50	-686
了一	-687
体现	-688
侦察	-689
内的	-690
复杂	-691
建交	-692
快速	-693
拉克	-694
收入	-695
最终	-696
权利	-697
正常	-698
然而	-699
结果	-700
胡锦	-701
证明	-702
进展	-703
关系的	-704
是我们	-705
胡锦涛	-706
▁新华社	-707
健康	-708
具体	-709
加大	-710
召开	-711
合理	-712
如此	-713
宣布	-714
尊重	-715
年代	-716
承诺	-717
指挥	-718
是在	-719
有着	-720
来越	-721
繁荣	-722
给予	-723
英国	-724
范围	-725
访华	-726
趋势	-727
还有	-728
选择	-729
▁今年	-730
▁双方	-731
常委会	-732
的情况	-733
越来越	-734
问题的	-735
导弹防御	-736
江泽民主席	-737
▁与	-738
一切	-739
介绍	-740
分析	-741
同胞	-742
坚定	-743
将在	-744
引起	-745
愿意	-746
指导	-747
样的	-748
欧洲	-749
民众	-750
虽然	-751
高层	-752
▁去年	-753
一九九	-754
之间的	-755
和人民	-756
的要求	-757
社会的	-758
领导干部	-759
经济全球化	-760
一次	-761
不得	-762
关心	-763
大学	-764
媒体	-765
对台	-766
巨大	-767
按照	-768
文明	-769
特点	-770
电子	-771
资本	-772
难以	-773
两国在	-774
政策的	-775
祖国的	-776
世贸	-777
为了	-778
优势	-779
做好	-780
全体	-781
冷战	-782
制造	-783
半岛	-784
只要	-785
各个	-786
基层	-787
字旁	-788
对华	-789
成了	-790
海峡	-791
演习	-792
真正	-793
表现	-794
达到	-795
运用	-796
韩国	-797
预算	-798
▁李鹏	-799
▁现在	-800
▁这是	-801
世界上	-802
在国际	-803
字旁容	-804
次会议	-805
的一个	-806
领域的	-807
金字旁容	-808
友好合作关系	-809
▁以	-810
三通	-811
上述	-812
再次	-813
势头	-814
危机	-815
外资	-816
多数	-817
多的	-818
我军	-819
最近	-820
本报	-821
目的	-822
第三	-823
说明	-824
集中	-825
高兴	-826
▁然而	-827
的主要	-828
12	-829
21	-830
不少	-831
两个	-832
中日	-833
体系	-834
允许	-835
党委	-836
公安	-837
回答	-838
培养	-839
基地	-840
大量	-841
意识	-842
政协	-843
比较	-844
洪志	-845
海军	-846
澳门	-847
理解	-848
道路	-849
限制	-850
顺利	-851
举行的	-852
世贸组织	-853
to	-854
个人	-855
力的	-856
及其	-857
发达	-858
周年	-859
外国	-860
对此	-861
少数	-862
尽管	-863
干涉	-864
很多	-865
投入	-866
标准	-867
状况	-868
现象	-869
的事	-870
破坏	-871
程度	-872
突出	-873
舆论	-874
论坛	-875
调查	-876
重申	-877
银行	-878
wto	-879
▁台湾	-880
的国家	-881
的基本	-882
过程中	-883
▁他表示	-884
人民群众	-885
友好关系	-886
市场经济	-887
经贸合作	-888
▁中国政府	-889
▁‘	-890
两会	-891
决策	-892
只是	-893
对抗	-894
将会	-895
履行	-896
帮助	-897
必然	-898
批评	-899
欧盟	-900
空间	-901
综合	-902
考虑	-903
至今	-904
规划	-905
讨论	-906
训练	-907
走向	-908
逐步	-909
邀请	-910
集体	-911
项目	-912
———	-913
与中国	-914
外交部	-915
总书记	-916
的影响	-917
的精神	-918
2000	-919
组成部分	-920
经济增长	-921
▁新华社北京	-922
%,	-923
▁朱	-924
一种	-925
下去	-926
入世	-927
分别	-928
增进	-929
外长	-930
安理	-931
巴勒	-932
愿望	-933
战斗	-934
推行	-935
整体	-936
是对	-937
来说	-938
矛盾	-939
经历	-940
自由	-941
评价	-942
造成	-943
阿拉	-944
霸权	-945
世界的	-946
中两国	-947
他们的	-948
作出了	-949
安理会	-950
巴勒斯坦	-951
西部地区	-952
%。	-953
▁二	-954
三讲	-955
也有	-956
价值	-957
作了	-958
南北	-959
唐家	-960
大力	-961
小平	-962
就业	-963
所以	-964
抓好	-965
最高	-966
消费	-967
王伟	-968
生命	-969
百分	-970
相关	-971
相当	-972
看法	-973
秩序	-974
第二	-975
粮食	-976
▁作为	-977
一系列	-978
了中国	-979
伊拉克	-980
唐家璇	-981
国民党	-982
提供了	-983
提出的	-984
是我国	-985
月二十	-986
计划的	-987
邓小平	-988
国民经济	-989
有关部门	-990
▁其	-991
一贯	-992
下午	-993
中俄	-994
也不	-995
人口	-996
从事	-997
以后	-998
侵略	-999
内政	-1000
冲突	-1001
减少	-1002
前进	-1003
办法	-1004
动力	-1005
反华	-1006
只能	-1007
多种	-1008
审议	-1009
并不	-1010
成就	-1011
无法	-1012
来看	-1013
检查	-1014
法院	-1015
空军	-1016
而是	-1017
色列	-1018
议员	-1019
需求	-1020
▁尽管	-1021
共和国	-1022
在北京	-1023
多年来	-1024
李洪志	-1025
的社会	-1026
▁朱镕基	-1027
武器装备	-1028
祖国大陆	-1029
结构调整	-1030
高度重视	-1031
解决台湾问题	-1032
一年	-1033
上午	-1034
九五	-1035
互利	-1036
五十	-1037
五国	-1038
五年	-1039
他的	-1040
信任	-1041
做法	-1042
充满	-1043
出了	-1044
古巴	-1045
同意	-1046
国会	-1047
在于	-1048
威尔	-1049
巩固	-1050
座谈	-1051
恢复	-1052
成效	-1053
损害	-1054
整个	-1055
文章	-1056
有所	-1057
此次	-1058
热烈	-1059
统计	-1060
自主	-1061
要在	-1062
规范	-1063
速度	-1064
▁不过	-1065
▁为此	-1066
一定要	-1067
发言人	-1068
将继续	-1069
形势下	-1070
高技术	-1071
两国人民	-1072
坚决反对	-1073
中国共产党	-1074
全国人大常委会	-1075
40	-1076
▁三	-1077
▁另	-1078
严格	-1079
予以	-1080
几年	-1081
化的	-1082
区域	-1083
发现	-1084
大使	-1085
尤其	-1086
探索	-1087
改进	-1088
改造	-1089
新疆	-1090
有些	-1091
民进	-1092
满意	-1093
热情	-1094
特色	-1095
签署	-1096
紧迫	-1097
经常	-1098
绝对	-1099
缺乏	-1100
获得	-1101
设施	-1102
赞赏	-1103
超过	-1104
达成	-1105
选举	-1106
采访	-1107
首相	-1108
100	-1109
▁日本	-1110
▁随着	-1111
人民币	-1112
企业的	-1113
发生了	-1114
台湾的	-1115
在内的	-1116
生产力	-1117
的关系	-1118
鲍威尔	-1119
▁他指出	-1120
朝鲜半岛	-1121
▁江泽民说	-1122
两国人民的	-1123
经济发展的	-1124
进一步加强	-1125
一个中国的原则	-1126
16	-1127
一样	-1128
主题	-1129
亲切	-1130
仍然	-1131
伟大	-1132
你们	-1133
保险	-1134
分歧	-1135
北约	-1136
协调	-1137
厦门	-1138
各界	-1139
在这	-1140
声明	-1141
大国	-1142
失败	-1143
安排	-1144
完整	-1145
批准	-1146
抓住	-1147
放弃	-1148
效益	-1149
方法	-1150
日益	-1151
更好	-1152
更是	-1153
正是	-1154
此间	-1155
电视	-1156
确保	-1157
突破	-1158
考察	-1159
联系	-1160
自身	-1161
路线	-1162
透露	-1163
遵守	-1164
重新	-1165
针对	-1166
问候	-1167
首次	-1168
▁今天	-1169
▁可以	-1170
▁由于	-1171
党中央	-1172
农产品	-1173
的变化	-1174
的同时	-1175
记者问	-1176
负责人	-1177
▁他认为	-1178
▁钱其琛	-1179
中共中央	-1180
台湾同胞	-1181
在新世纪	-1182
根本利益	-1183
美国政府	-1184
11	-1185
15	-1186
▁中	-1187
▁各	-1188
▁四	-1189
一再	-1190
一条	-1191
一致	-1192
下了	-1193
丰富	-1194
以上	-1195
以下	-1196
伊朗	-1197
作风	-1198
依靠	-1199
军售	-1200
前景	-1201
华人	-1202
卫星	-1203
历来	-1204
反映	-1205
发射	-1206
各自	-1207
后的	-1208
告诉	-1209
呼吁	-1210
奋斗	-1211
官兵	-1212
定了	-1213
宪法	-1214
密切	-1215
小组	-1216
少年	-1217
差距	-1218
执政	-1219
拥有	-1220
控制	-1221
提案	-1222
最大	-1223
本质	-1224
机会	-1225
法制	-1226
演练	-1227
爱国	-1228
特殊	-1229
立即	-1230
职能	-1231
职责	-1232
自治	-1233
行业	-1234
观念	-1235
诚意	-1236
资产	-1237
转变	-1238
迅速	-1239
还要	-1240
都要	-1241
队伍	-1242
防空	-1243
风险	-1244
▁与此	-1245
▁会议	-1246
▁据悉	-1247
▁第二	-1248
以色列	-1249
双方的	-1250
合作的	-1251
在中国	-1252
存在的	-1253
已成为	-1254
的作用	-1255
的努力	-1256
的基础上	-1257
霸权主义	-1258
交流与合作	-1259
李鹏委员长	-1260
的重要组成部分	-1261
:‘	-1262
》。	-1263
一是	-1264
三十	-1265
不满	-1266
不要	-1267
也将	-1268
也要	-1269
令人	-1270
党员	-1271
公布	-1272
出来	-1273
制裁	-1274
力和	-1275
办公	-1276
危险	-1277
即将	-1278
反应	-1279
司法	-1280
圆满	-1281
培训	-1282
定的	-1283
客观	-1284
局面	-1285
层次	-1286
很大	-1287
怎样	-1288
性和	-1289
性质	-1290
搞好	-1291
政党	-1292
无论	-1293
机场	-1294
权力	-1295
海外	-1296
潜艇	-1297
生态	-1298
相应	-1299
课题	-1300
贫困	-1301
追求	-1302
避免	-1303
阶级	-1304
高的	-1305
▁19	-1306
▁两国	-1307
▁中方	-1308
▁只有	-1309
▁各级	-1310
主权和	-1311
举行了	-1312
和地区	-1313
我们党	-1314
我们的	-1315
组织的	-1316
统一的	-1317
世界各国	-1318
体制改革	-1319
海峡两岸	-1320
重要思想	-1321
领导人的	-1322
进一步发展	-1323
..	-1324
上台	-1325
不了	-1326
两年	-1327
主动	-1328
义务	-1329
亚欧	-1330
人心	-1331
侵犯	-1332
值得	-1333
决议	-1334
几乎	-1335
劳动	-1336
协商	-1337
压力	-1338
商业	-1339
回归	-1340
处于	-1341
大业	-1342
大战	-1343
实质	-1344
导致	-1345
将来	-1346
尽快	-1347
展开	-1348
属于	-1349
岚清	-1350
当今	-1351
德国	-1352
攻击	-1353
政权	-1354
无疑	-1355
显示	-1356
月十	-1357
有人	-1358
标志	-1359
案件	-1360
消息	-1361
消除	-1362
涉及	-1363
清醒	-1364
研讨	-1365
草案	-1366
行的	-1367
谈到	-1368
转达	-1369
违反	-1370
违法	-1371
酞平	-1372
防止	-1373
青年	-1374
▁为了	-1375
▁布什	-1376
▁我国	-1377
▁这次	-1378
▁面对	-1379
中国在	-1380
副总理	-1381
加强对	-1382
国务卿	-1383
实现了	-1384
巨大的	-1385
建设的	-1386
成员国	-1387
核武器	-1388
民进党	-1389
百分之	-1390
的中国	-1391
的信息	-1392
的原则	-1393
▁事实上	-1394
▁他强调	-1395
▁胡锦涛	-1396
▁近年来	-1397
中国加入	-1398
发达国家	-1399
新的发展	-1400
▁与此同时	-1401
思想政治工作	-1402
▁《	-1403
▁如	-1404
▁总	-1405
▁至	-1406
一批	-1407
一点	-1408
不容	-1409
不懈	-1410
举措	-1411
九届	-1412
事情	-1413
会计	-1414
全军	-1415
全部	-1416
冲击	-1417
决心	-1418
几个	-1419
出的	-1420
力于	-1421
动员	-1422
千年	-1423
半年	-1424
反导	-1425
取消	-1426
各族	-1427
向前	-1428
商务	-1429
国外	-1430
多个	-1431
大中	-1432
妥善	-1433
学校	-1434
工资	-1435
已有	-1436
年轻	-1437
应对	-1438
强化	-1439
所在	-1440
拒绝	-1441
撞机	-1442
日至	-1443
时候	-1444
法规	-1445
激烈	-1446
的话	-1447
知道	-1448
确实	-1449
磋商	-1450
祝贺	-1451
科研	-1452
紧张	-1453
纪念	-1454
肯定	-1455
背景	-1456
能源	-1457
裁军	-1458
要把	-1459
规则	-1460
说法	-1461
财产	-1462
赢得	-1463
途径	-1464
那么	-1465
都有	-1466
酞空	-1467
长的	-1468
非洲	-1469
高级	-1470
▁只要	-1471
▁国家	-1472
▁经过	-1473
▁这一	-1474
▁这个	-1475
▁这位	-1476
主义的	-1477
事务中	-1478
交换了	-1479
副主席	-1480
历史上	-1481
取得的	-1482
和中国	-1483
并没有	-1484
教育的	-1485
是一种	-1486
更好地	-1487
条件下	-1488
正确的	-1489
第一次	-1490
结束后	-1491
资源的	-1492
青少年	-1493
世界贸易	-1494
伙伴关系	-1495
国有企业	-1496
布什政府	-1497
新领导人	-1498
贯彻落实	-1499
▁台湾当局	-1500
江泽民同志	-1501
导弹防御系统	-1502
24	-1503
30	-1504
▁【	-1505
▁张	-1506
▁自	-1507
▁近	-1508
▁阿	-1509
一道	-1510
一项	-1511
业务	-1512
企图	-1513
依照	-1514
元首	-1515
党派	-1516
八国	-1517
具备	-1518
刚刚	-1519
初步	-1520
利亚	-1521
制约	-1522
华侨	-1523
参观	-1524
国的	-1525
土地	-1526
多年	-1527
大家	-1528
奥运	-1529
宏观	-1530
将是	-1531
就会	-1532
岛内	-1533
工商	-1534
平均	-1535
开拓	-1536
当地	-1537
当然	-1538
招待	-1539
振兴	-1540
方的	-1541
最后	-1542
有力	-1543
朋友	-1544
某些	-1545
武装	-1546
痴迷	-1547
禁止	-1548
秀莲	-1549
种种	-1550
联盟	-1551
能否	-1552
自然	-1553
航天	-1554
观察	-1555
规律	-1556
计算	-1557
谋求	-1558
购买	-1559
转向	-1560
那些	-1561
除了	-1562
高雄	-1563
500	-1564
▁一些	-1565
▁对于	-1566
▁当前	-1567
严重的	-1568
体现了	-1569
历史的	-1570
地看到	-1571
对美国	-1572
建设和	-1573
情况下	-1574
战争的	-1575
新技术	-1576
新政府	-1577
更多的	-1578
的任务	-1579
的军事	-1580
的思想	-1581
的政策	-1582
的规定	-1583
美国在	-1584
致力于	-1585
这一点	-1586
阿拉伯	-1587
飞行员	-1588
党和国家	-1589
具有重要	-1590
国际社会	-1591
领土完整	-1592
和平与发展	-1593
领域的合作	-1594
18	-1595
26	-1596
▁她	-1597
▁它	-1598
不到	-1599
不足	-1600
专利	-1601
主导	-1602
举办	-1603
事故	-1604
互联	-1605
健行	-1606
先生	-1607
八十	-1608
内地	-1609
内部	-1610
出发	-1611
出售	-1612
危害	-1613
右翼	-1614
同样	-1615
学生	-1616
将为	-1617
居民	-1618
巴基	-1619
平衡	-1620
当选	-1621
彼此	-1622
怎么	-1623
思维	-1624
总体	-1625
意味	-1626
成绩	-1627
战线	-1628
承担	-1629
抵达	-1630
担心	-1631
推向	-1632
新一	-1633
旅游	-1634
日前	-1635
明年	-1636
是有	-1637
更大	-1638
朝韩	-1639
期待	-1640
来到	-1641
模式	-1642
步伐	-1643
武力	-1644
每年	-1645
沿海	-1646
清楚	-1647
物质	-1648
睦邻	-1649
研制	-1650
福建	-1651
立法	-1652
竞选	-1653
第四	-1654
纲领	-1655
者的	-1656
胜利	-1657
行径	-1658
衷心	-1659
观点	-1660
角度	-1661
警惕	-1662
议长	-1663
负担	-1664
还将	-1665
邦造	-1666
错误	-1667
长远	-1668
非法	-1669
面向	-1670
▁中央	-1671
▁全国	-1672
▁最近	-1673
▁第四	-1674
▁通过	-1675
不可能	-1676
会见了	-1677
参加了	-1678
发展和	-1679
吕秀莲	-1680
和其他	-1681
国防部	-1682
在台湾	-1683
基础上	-1684
尉健行	-1685
尤其是	-1686
的关键	-1687
的各项	-1688
的立场	-1689
的结果	-1690
的访问	-1691
的重大	-1692
计算机	-1693
通过了	-1694
酞平洋	-1695
面临着	-1696
1999	-1697
上海五国	-1698
世界和平	-1699
传统友谊	-1700
台湾人民	-1701
完全统一	-1702
巴基斯坦	-1703
撞机事件	-1704
祖国统一	-1705
科学技术	-1706
金融危机	-1707
改革开放和	-1708
▁4	-1709
▁本	-1710
一旦	-1711
一行	-1712
万元	-1713
与会	-1714
严峻	-1715
中亚	-1716
中外	-1717
主持	-1718
互访	-1719
交通	-1720
传媒	-1721
信心	-1722
做到	-1723
停止	-1724
健全	-1725
全会	-1726
公报	-1727
公正	-1728
公里	-1729
军区	-1730
前提	-1731
加剧	-1732
华盛	-1733
协会	-1734
协定	-1735
及时	-1736
发布	-1737
发行	-1738
唯一	-1739
国债	-1740
图谋	-1741
基金	-1742
夫人	-1743
奉行	-1744
官方	-1745
家庭	-1746
尔布	-1747
尚未	-1748
并非	-1749
广东	-1750
引导	-1751
必将	-1752
思路	-1753
情报	-1754
感情	-1755
成本	-1756
或者	-1757
把握	-1758
拦截	-1759
掌握	-1760
支付	-1761
教训	-1762
早日	-1763
昨天	-1764
是要	-1765
显然	-1766
更为	-1767
有了	-1768
权威	-1769
条例	-1770
来的	-1771
毛泽	-1772
治理	-1773
浩田	-1774
海南	-1775
特区	-1776
牺牲	-1777
理事	-1778
生存	-1779
的好	-1780
的高	-1781
相对	-1782
省委	-1783
示威	-1784
程序	-1785
空袭	-1786
紧密	-1787
维持	-1788
自焚	-1789
表达	-1790
解释	-1791
设备	-1792
说的	-1793
谈话	-1794
贷款	-1795
走私	-1796
运行	-1797
近日	-1798
这项	-1799
选拔	-1800
通信	-1801
道德	-1802
▁一个	-1803
▁中美	-1804
▁他还	-1805
▁因为	-1806
▁所以	-1807
▁第三	-1808
▁至于	-1809
▁记者	-1810
▁这种	-1811
一世纪	-1812
一方面	-1813
与台湾	-1814
两国的	-1815
互联网	-1816
会议的	-1817
侦察机	-1818
先进性	-1819
势力的	-1820
华盛顿	-1821
反腐败	-1822
发表了	-1823
各方面	-1824
大多数	-1825
大规模	-1826
就是要	-1827
战略性	-1828
是美国	-1829
未来的	-1830
毛泽东	-1831
的态度	-1832
的斗争	-1833
的活动	-1834
的积极	-1835
等方面	-1836
自治区	-1837
范围内	-1838
达成的	-1839
迟浩田	-1840
领导下	-1841
2001	-1842
▁他希望	-1843
▁唐家璇	-1844
▁特别是	-1845
不断提高	-1846
中华人民	-1847
中国内政	-1848
中国特色	-1849
交换意见	-1850
健康发展	-1851
党的建设	-1852
共产党的	-1853
反导条约	-1854
国家安全	-1855
对台军售	-1856
少数民族	-1857
工作报告	-1858
教育活动	-1859
经贸关系	-1860
结合起来	-1861
交换了意见	-1862
邓小平理论	-1863
世界贸易组织	-1864
中华人民共和国	-1865
23	-1866
▁吴	-1867
▁随	-1868
一百	-1869
一起	-1870
万人	-1871
上了	-1872
上市	-1873
专项	-1874
东南	-1875
两位	-1876
严打	-1877
严肃	-1878
中非	-1879
为主	-1880
乃至	-1881
之际	-1882
争取	-1883
代价	-1884
价格	-1885
优惠	-1886
优秀	-1887
但是	-1888
依然	-1889
保卫	-1890
信念	-1891
克服	-1892
公民	-1893
公约	-1894
分配	-1895
前往	-1896
十二	-1897
十年	-1898
协作	-1899
发扬	-1900
受益	-1901
台北	-1902
台商	-1903
台海	-1904
各地	-1905
合法	-1906
启月	-1907
呈现	-1908
和对	-1909
品种	-1910
城镇	-1911
多样	-1912
大选	-1913
失业	-1914
学者	-1915
实力	-1916
审计	-1917
将于	-1918
就职	-1919
工人	-1920
左右	-1921
布希	-1922
干扰	-1923
广阔	-1924
应用	-1925
开了	-1926
引发	-1927
总结	-1928
意志	-1929
愿与	-1930
战术	-1931
抗议	-1932
报导	-1933
提升	-1934
文件	-1935
斯特	-1936
暴力	-1937
权益	-1938
来访	-1939
检察	-1940
毒品	-1941
消极	-1942
满足	-1943
理想	-1944
瑞环	-1945
由此	-1946
电信	-1947
税收	-1948
究竟	-1949
空中	-1950
美中	-1951
耶夫	-1952
职工	-1953
艰苦	-1954
若干	-1955
议案	-1956
议院	-1957
议题	-1958
评论	-1959
资料	-1960
跨越	-1961
达赖	-1962
运作	-1963
运动	-1964
连续	-1965
通讯	-1966
遏制	-1967
那样	-1968
采用	-1969
院校	-1970
障碍	-1971
零零	-1972
面前	-1973
领空	-1974
▁在此	-1975
▁文章	-1976
一定会	-1977
不同的	-1978
为实现	-1979
主要是	-1980
也可以	-1981
介绍了	-1982
会议上	-1983
发挥了	-1984
和国际	-1985
和民族	-1986
奠定了	-1987
带来的	-1988
座谈会	-1989
必要的	-1990
改革的	-1991
是一项	-1992
最大的	-1993
条件的	-1994
痴迷者	-1995
的伟大	-1996
的决定	-1997
的前提	-1998
的最大	-1999
的有关	-2000
的管理	-2001
章启月	-2002
等问题	-2003
美国人	-2004
西藏的	-2005
要加强	-2006
讲话中	-2007
这样的	-2008
进行的	-2009
采取了	-2010
▁据报道	-2011
人权问题	-2012
公安机关	-2013
双边关系	-2014
国家统一	-2015
国防部长	-2016
外交政策	-2017
日本政府	-2018
本报记者	-2019
正式访问	-2020
社会稳定	-2021
继续保持	-2022
重视发展	-2023
首脑会晤	-2024
▁社会主义	-2025
和平与稳定	-2026
有中国特色	-2027
一个中国的政策	-2028
27	-2029
70	-2030
──	-2031
▁3	-2032
▁五	-2033
▁王	-2034
▁该	-2035
》,	-2036
一场	-2037
七年	-2038
专业	-2039
东西	-2040
两党	-2041
之中	-2042
之前	-2043
九年	-2044
人道	-2045
从来	-2046
仪式	-2047
众所	-2048
似乎	-2049
信仰	-2050
典型	-2051
军备	-2052
凝聚	-2053
出版	-2054
分割	-2055
前所	-2056
十一	-2057
十七	-2058
协助	-2059
原来	-2060
变革	-2061
围绕	-2062
多人	-2063
大局	-2064
大幅	-2065
姆斯	-2066
委托	-2067
实验	-2068
富裕	-2069
对方	-2070
将对	-2071
就要	-2072
尼亚	-2073
岁的	-2074
巴以	-2075
常委	-2076
引进	-2077
强硬	-2078
彻底	-2079
往往	-2080
恐怖	-2081
悠久	-2082
才是	-2083
扎实	-2084
投票	-2085
拉夫	-2086
指标	-2087
损失	-2088
斯科	-2089
方案	-2090
时刻	-2091
是以	-2092
显着	-2093
暴露	-2094
更高	-2095
曾经	-2096
有限	-2097
本月	-2098
民间	-2099
污染	-2100
深圳	-2101
留下	-2102
祝愿	-2103
离开	-2104
编制	-2105
联邦	-2106
至关	-2107
航空	-2108
要有	-2109
视为	-2110
设立	-2111
访日	-2112
试验	-2113
负有	-2114
还在	-2115
进口	-2116
遭到	-2117
遭受	-2118
都不	-2119
配合	-2120
阁下	-2121
防范	-2122
隆重	-2123
高等	-2124
▁其中	-2125
▁根据	-2126
亚酞经	-2127
今天在	-2128
代表说	-2129
作出的	-2130
出现了	-2131
利益的	-2132
友好的	-2133
同中国	-2134
在全国	-2135
地支持	-2136
大陆的	-2137
奥运会	-2138
委员们	-2139
完全是	-2140
实际上	-2141
对日本	-2142
就必须	-2143
工作中	-2144
市场的	-2145
意味着	-2146
我国的	-2147
战略的	-2148
新时期	-2149
是实现	-2150
有效地	-2151
李瑞环	-2152
核心的	-2153
民主党	-2154
注意到	-2155
生产总	-2156
界人士	-2157
的共同	-2158
的方针	-2159
的法律	-2160
的现象	-2161
的美国	-2162
的邀请	-2163
研究和	-2164
研讨会	-2165
竞争力	-2166
群众的	-2167
香港的	-2168
▁可以说	-2169
▁在谈到	-2170
▁据了解	-2171
▁江主席	-2172
▁陈水扁	-2173
与中国的	-2174
亚酞地区	-2175
代表大会	-2176
共同关心	-2177
各级党委	-2178
工作人员	-2179
工作会议	-2180
建交以来	-2181
快速发展	-2182
现代化的	-2183
社会发展	-2184
社会科学	-2185
美国总统	-2186
表示感谢	-2187
记者招待	-2188
邪教组织	-2189
▁有记者问	-2190
中国人民的	-2191
二十一世纪	-2192
的社会主义	-2193
西部地区的	-2194
进一步扩大	-2195
社会主义现代化建设	-2196
,《	-2197
80	-2198
▁同	-2199
▁大	-2200
▁美	-2201
▁赵	-2202
▁连	-2203
▁问	-2204
▁陈	-2205
一般	-2206
七一	-2207
三年	-2208
上下	-2209
上升	-2210
下降	-2211
不久	-2212
不利	-2213
东盟	-2214
两军	-2215
两次	-2216
主任	-2217
主教	-2218
亏损	-2219
享受	-2220
今日	-2221
伤亡	-2222
体育	-2223
使命	-2224
八年	-2225
内需	-2226
到底	-2227
加坡	-2228
加深	-2229
动摇	-2230
印尼	-2231
印象	-2232
台阶	-2233
后果	-2234
周知	-2235
和解	-2236
哪些	-2237
回应	-2238
回避	-2239
场的	-2240
垄断	-2241
培育	-2242
外来	-2243
外贸	-2244
大事	-2245
失去	-2246
妇女	-2247
婚姻	-2248
孙玉	-2249
它的	-2250
宝贵	-2251
对其	-2252
就能	-2253
峰会	-2254
市长	-2255
强大	-2256
当年	-2257
很好	-2258
思考	-2259
战机	-2260
战的	-2261
打破	-2262
担任	-2263
拖延	-2264
接待	-2265
摆脱	-2266
敏感	-2267
教师	-2268
教科	-2269
数字	-2270
无限	-2271
是应	-2272
智利	-2273
未能	-2274
本人	-2275
本国	-2276
来了	-2277
框架	-2278
每个	-2279
民事	-2280
永图	-2281
法国	-2282
活力	-2283
演说	-2284
潜力	-2285
潮流	-2286
父母	-2287
状态	-2288
现状	-2289
用于	-2290
电话	-2291
白皮	-2292
的对	-2293
相反	-2294
真实	-2295
石油	-2296
神圣	-2297
站在	-2298
纷纷	-2299
股票	-2300
自动	-2301
舰队	-2302
言论	-2303
设计	-2304
调控	-2305
谢长	-2306
谴责	-2307
财务	-2308
赖特	-2309
越南	-2310
跨国	-2311
轰炸	-2312
辉煌	-2313
边界	-2314
迎接	-2315
通报	-2316
霸道	-2317
领袖	-2318
频繁	-2319
▁其次	-2320
▁加强	-2321
▁希望	-2322
▁美军	-2323
▁首先	-2324
一部分	-2325
两国论	-2326
中全会	-2327
为我们	-2328
今天的	-2329
公司的	-2330
军队的	-2331
利益和	-2332
制度的	-2333
前所未	-2334
办公室	-2335
合理的	-2336
合组织	-2337
向中方	-2338
和实践	-2339
和改进	-2340
在这里	-2341
奥尔布	-2342
孙玉玺	-2343
对台湾	-2344
小布什	-2345
就可以	-2346
应有的	-2347
建立了	-2348
建立起	-2349
提供的	-2350
政策和	-2351
教科书	-2352
新一轮	-2353
时代的	-2354
是国家	-2355
更大的	-2356
有可能	-2357
有许多	-2358
李岚清	-2359
极大的	-2360
白皮书	-2361
的做法	-2362
的友好	-2363
的和平	-2364
的安全	-2365
的核心	-2366
的监督	-2367
的经验	-2368
的讲话	-2369
的责任	-2370
的问候	-2371
稳定的	-2372
第一个	-2373
而不是	-2374
要继续	-2375
解放军	-2376
谢长廷	-2377
造成的	-2378
都可以	-2379
问题时	-2380
高科技	-2381
龙永图	-2382
▁俄罗斯	-2383
▁克林顿	-2384
▁在这种	-2385
▁第二十	-2386
▁迟浩田	-2387
一些国家	-2388
专家指出	-2389
世界经济	-2390
中国经济	-2391
人大代表	-2392
人民法院	-2393
众所周知	-2394
充分发挥	-2395
充分说明	-2396
全国政协	-2397
军事战略	-2398
农村基层	-2399
发展经济	-2400
台湾民众	-2401
各族人民	-2402
商业银行	-2403
在讲话中	-2404
总统普京	-2405
新形势下	-2406
新的世纪	-2407
没有任何	-2408
生产总值	-2409
生活水平	-2410
的情况下	-2411
贸易关系	-2412
违法犯罪	-2413
高度评价	-2414
▁1999	-2415
▁另一方面	-2416
主席江泽民	-2417
共同努力下	-2418
奥尔布赖特	-2419
市场经济的	-2420
亚洲金融危机	-2421
亚酞经合组织	-2422
具有重要意义	-2423
加入世贸组织	-2424
发展中国家的	-2425
江泽民总书记	-2426
经济全球化的	-2427
坚持一个中国原则	-2428
承认一个中国原则	-2429
社会主义市场经济	-2430
!”	-2431
13	-2432
17	-2433
22	-2434
65	-2435
90	-2436
nt	-2437
▁’	-2438
▁海	-2439
▁胡	-2440
一辈	-2441
上任	-2442
不安	-2443
不管	-2444
不过	-2445
两大	-2446
中印	-2447
中小	-2448
主流	-2449
主管	-2450
之交	-2451
也在	-2452
互信	-2453
人事	-2454
仍有	-2455
从而	-2456
优先	-2457
优良	-2458
位置	-2459
依据	-2460
修正	-2461
做了	-2462
做出	-2463
儿子	-2464
党政	-2465
六月	-2466
军国	-2467
刺激	-2468
办理	-2469
加紧	-2470
务实	-2471
十月	-2472
南海	-2473
历程	-2474
参拜	-2475
反复	-2476
发动	-2477
司令	-2478
名义	-2479
否认	-2480
回到	-2481
国力	-2482
地下	-2483
外商	-2484
多极	-2485
大批	-2486
审批	-2487
客人	-2488
家宝	-2489
对付	-2490
对新	-2491
封建	-2492
尊严	-2493
小康	-2494
巡航	-2495
干预	-2496
年度	-2497
并对	-2498
开幕	-2499
形态	-2500
形象	-2501
待遇	-2502
很难	-2503
律师	-2504
恐怕	-2505
愤慨	-2506
成熟	-2507
执法	-2508
扶贫	-2509
报纸	-2510
担忧	-2511
收支	-2512
放在	-2513
效率	-2514
敌人	-2515
数十	-2516
整治	-2517
新型	-2518
明白	-2519
是不	-2520
极端	-2521
构想	-2522
标题	-2523
检验	-2524
模拟	-2525
正日	-2526
民营	-2527
气氛	-2528
永远	-2529
汇率	-2530
派出	-2531
浙江	-2532
特征	-2533
电脑	-2534
百姓	-2535
的老	-2536
看待	-2537
破产	-2538
神社	-2539
科索	-2540
突然	-2541
竞赛	-2542
第十	-2543
练习	-2544
组建	-2545
继承	-2546
缓解	-2547
网上	-2548
网站	-2549
考验	-2550
脱困	-2551
艺术	-2552
莱尔	-2553
行使	-2554
表述	-2555
见面	-2556
证券	-2557
说是	-2558
负面	-2559
货币	-2560
赞成	-2561
赤字	-2562
迄今	-2563
还不	-2564
还就	-2565
远远	-2566
逐渐	-2567
通货	-2568
遇到	-2569
道理	-2570
间的	-2571
阐述	-2572
防护	-2573
难度	-2574
预料	-2575
高于	-2576
高原	-2577
鼓励	-2578
鼓吹	-2579
,19	-2580
▁北京	-2581
▁另外	-2582
▁当时	-2583
▁当然	-2584
▁政府	-2585
▁由此	-2586
▁虽然	-2587
▁这样	-2588
一些人	-2589
上半年	-2590
不能不	-2591
两国和	-2592
中国与	-2593
产生了	-2594
价值观	-2595
共和党	-2596
农业和	-2597
出席了	-2598
创新的	-2599
创造了	-2600
到中国	-2601
双方都	-2602
可持续	-2603
和建议	-2604
和支持	-2605
和政策	-2606
和管理	-2607
国家和	-2608
基总理	-2609
多年的	-2610
对话与	-2611
就没有	-2612
工业化	-2613
工作者	-2614
带来了	-2615
干部的	-2616
最广大	-2617
正常化	-2618
温家宝	-2619
的企业	-2620
的前途	-2621
的实际	-2622
的局面	-2623
的民族	-2624
的能力	-2625
的行动	-2626
相结合	-2627
科索沃	-2628
积极的	-2629
组织和	-2630
美国军	-2631
莫斯科	-2632
认识到	-2633
部长级	-2634
重大的	-2635
金正日	-2636
高素质	-2637
▁在这个	-2638
▁李鹏说	-2639
一个国家	-2640
不断扩大	-2641
世界大战	-2642
世纪之交	-2643
中日关系	-2644
人权状况	-2645
人道主义	-2646
今天上午	-2647
农村经济	-2648
加强合作	-2649
台湾海峡	-2650
圆满成功	-2651
大陆方面	-2652
始终坚持	-2653
巡航导弹	-2654
已经成为	-2655
建立健全	-2656
战略目标	-2657
抓住机遇	-2658
新世纪的	-2659
普京总统	-2660
有关方面	-2661
正确认识	-2662
法制建设	-2663
热烈欢迎	-2664
生态环境	-2665
电子商务	-2666
的重要性	-2667
相互了解	-2668
省委书记	-2669
社会保障	-2670
表示欢迎	-2671
表示赞赏	-2672
资本主义	-2673
这个问题	-2674
重要作用	-2675
重要的是	-2676
金融机构	-2677
长期以来	-2678
首脑会议	-2679
高新技术	-2680
▁1997	-2681
▁我们必须	-2682
人民群众的	-2683
前所未有的	-2684
加强和改进	-2685
十分重要的	-2686
国际社会的	-2687
朱镕基总理	-2688
的一个重要	-2689
的重要思想	-2690
进一步推动	-2691
人民代表大会	-2692
干涉中国内政	-2693
联合国安理会	-2694
实施西部大开发	-2695
祖国的完全统一	-2696
有中国特色社会主义	-2697
14	-2698
60	-2699
’、	-2700
▁俄	-2701
▁全	-2702
▁到	-2703
▁前	-2704
▁后	-2705
▁周	-2706
▁就	-2707
▁曾	-2708
▁正	-2709
▁西	-2710
一中	-2711
三点	-2712
下来	-2713
不变	-2714
不开	-2715
不惜	-2716
不移	-2717
专门	-2718
东亚	-2719
东山	-2720
两种	-2721
严厉	-2722
中巴	-2723
为此	-2724
主体	-2725
九八	-2726
也会	-2727
争端	-2728
五百	-2729
从中	-2730
他在	-2731
他对	-2732
任命	-2733
会有	-2734
使得	-2735
信托	-2736
儿童	-2737
党校	-2738
全党	-2739
全局	-2740
全民	-2741
公示	-2742
共有	-2743
内涵	-2744
减轻	-2745
出于	-2746
别国	-2747
加以	-2748
动向	-2749
北戴	-2750
十八	-2751
半个	-2752
南方	-2753
即使	-2754
参谋	-2755
双重	-2756
发出	-2757
各类	-2758
合同	-2759
合资	-2760
同盟	-2761
吸引	-2762
命令	-2763
命运	-2764
商品	-2765
商谈	-2766
团体	-2767
团的	-2768
国土	-2769
场所	-2770
坚信	-2771
坚强	-2772
境外	-2773
声称	-2774
复兴	-2775
外的	-2776
多边	-2777
大约	-2778
学科	-2779
它们	-2780
实事	-2781
实地	-2782
实效	-2783
审理	-2784
宣言	-2785
容易	-2786
导航	-2787
小时	-2788
小泉	-2789
山东	-2790
工会	-2791
常任	-2792
年前	-2793
年底	-2794
庆祝	-2795
弹道	-2796
强权	-2797
当天	-2798
当时	-2799
忘记	-2800
战时	-2801
战法	-2802
手续	-2803
才有	-2804
找到	-2805
承受	-2806
拥护	-2807
指示	-2808
探讨	-2809
接近	-2810
提前	-2811
援助	-2812
效果	-2813
教授	-2814
文学	-2815
无不	-2816
日在	-2817
日方	-2818
时机	-2819
是为	-2820
是最	-2821
显得	-2822
普及	-2823
智慧	-2824
更多	-2825
材料	-2826
极大	-2827
正义	-2828
此行	-2829
步骤	-2830
比上	-2831
毕业	-2832
民意	-2833
治国	-2834
法案	-2835
法治	-2836
注重	-2837
活跃	-2838
海关	-2839
深远	-2840
渠道	-2841
火力	-2842
灾害	-2843
白宫	-2844
的三	-2845
相比	-2846
相继	-2847
着重	-2848
确定	-2849
等于	-2850
策划	-2851
策略	-2852
签订	-2853
精力	-2854
纪律	-2855
纲要	-2856
纳入	-2857
纽约	-2858
经费	-2859
维和	-2860
缓和	-2861
老挝	-2862
职务	-2863
脱离	-2864
自律	-2865
自觉	-2866
节目	-2867
虚拟	-2868
补充	-2869
角色	-2870
言行	-2871
警示	-2872
认同	-2873
论述	-2874
评估	-2875
赋予	-2876
距离	-2877
身上	-2878
达姆	-2879
过的	-2880
近来	-2881
还向	-2882
退耕	-2883
适当	-2884
邻邦	-2885
都在	-2886
采购	-2887
防务	-2888
防卫	-2889
陆军	-2890
随时	-2891
震惊	-2892
靖国	-2893
面积	-2894
预计	-2895
首要	-2896
驱逐	-2897
高达	-2898
ntr	-2899
▁两岸	-2900
▁人们	-2901
▁会谈	-2902
▁但在	-2903
▁关于	-2904
▁军事	-2905
▁坚持	-2906
▁她说	-2907
▁总之	-2908
▁有关	-2909
▁朝鲜	-2910
▁美方	-2911
▁要把	-2912
▁访问	-2913
▁随后	-2914
▁香港	-2915
不仅是	-2916
不完全	-2917
与稳定	-2918
与繁荣	-2919
世界观	-2920
中国人	-2921
中国和	-2922
中国对	-2923
中国是	-2924
了一个	-2925
产业的	-2926
件大事	-2927
传统的	-2928
信息化	-2929
修正案	-2930
先进的	-2931
农民的	-2932
出现的	-2933
分析家	-2934
创造性	-2935
别人的	-2936
北京市	-2937
北戴河	-2938
历史和	-2939
参议院	-2940
双方在	-2941
反映了	-2942
发生的	-2943
发言中	-2944
叙利亚	-2945
和国家	-2946
和法律	-2947
国家在	-2948
国际法	-2949
在人权	-2950
在会见	-2951
在各个	-2952
在香港	-2953
处理好	-2954
多极化	-2955
天主教	-2956
峡工程	-2957
巴拉克	-2958
布莱尔	-2959
年以来	-2960
并表示	-2961
建立在	-2962
形势和	-2963
得到了	-2964
战争中	-2965
所谓的	-2966
改革和	-2967
政治局	-2968
斗争的	-2969
斯特罗	-2970
新中国	-2971
新加坡	-2972
日上午	-2973
是完全	-2974
是当前	-2975
有效的	-2976
期待着	-2977
朱邦造	-2978
标志着	-2979
活动的	-2980
深入地	-2981
深刻的	-2982
的一种	-2983
的事实	-2984
的事情	-2985
的亲切	-2986
的力量	-2987
的危险	-2988
的可能	-2989
的成果	-2990
的条件	-2991
的目标	-2992
的看法	-2993
目前的	-2994
目的是	-2995
确定的	-2996
管理和	-2997
老一辈	-2998
表现在	-2999
访问的	-3000
转达了	-3001
部部长	-3002
pntr	-3003
▁中国的	-3004
▁文章说	-3005
▁美国的	-3006
▁鲍威尔	-3007
三个联合	-3008
不断发展	-3009
两军关系	-3010
两国议会	-3011
中东和平	-3012
中央政府	-3013
为核心的	-3014
互利合作	-3015
人民民主	-3016
今天下午	-3017
信息技术	-3018
全球战略	-3019
全面发展	-3020
农民收入	-3021
华侨华人	-3022
反华提案	-3023
台北报导	-3024
各界人士	-3025
国家主权	-3026
国防教育	-3027
国际安全	-3028
坚定不移	-3029
妥善处理	-3030
对中国的	-3031
对美国的	-3032
干部队伍	-3033
扩大内需	-3034
技术合作	-3035
新闻发布	-3036
明确表示	-3037
是中国的	-3038
李登辉的	-3039
民族团结	-3040
消极影响	-3041
特别强调	-3042
理想信念	-3043
的一部分	-3044
相互尊重	-3045
精神文明	-3046
经济合作	-3047
至关重要	-3048
西部开发	-3049
要进一步	-3050
认真贯彻	-3051
这些国家	-3052
这些问题	-3053
靖国神社	-3054
▁中国人民	-3055
▁事实证明	-3056
▁众所周知	-3057
一个国家的	-3058
介绍了中国	-3059
党和国家的	-3060
意见和建议	-3061
政府和人民	-3062
是中华民族	-3063
此间举行的	-3064
的根本利益	-3065
高兴地看到	-3066
三个联合公报	-3067
国内生产总值	-3068
导弹防御计划	-3069
建设社会主义	-3070
新的发展阶段	-3071
正常贸易关系	-3072
江泽民主席和	-3073
两国关系的发展	-3074
中国政府和人民	-3075
人民的根本利益	-3076
党和国家领导人	-3077
国家主席江泽民	-3078
在一个中国原则	-3079
中美三个联合公报	-3080
),	-3081
.8	-3082
31	-3083
▁6	-3084
▁沈	-3085
▁田	-3086
▁罗	-3087
一下	-3088
一家	-3089
一段	-3090
万年	-3091
三国	-3092
上来	-3093
不但	-3094
不再	-3095
世人	-3096
东京	-3097
严正	-3098
个月	-3099
中新	-3100
中韩	-3101
中马	-3102
为期	-3103
之行	-3104
乡镇	-3105
事关	-3106
二日	-3107
互相	-3108
互补	-3109
亚美	-3110
亚衍	-3111
交涉	-3112
享有	-3113
人在	-3114
从未	-3115
付出	-3116
以此	-3117
优化	-3118
住了	-3119
依赖	-3120
俄中	-3121
保守	-3122
信赖	-3123
修订	-3124
借鉴	-3125
先后	-3126
党对	-3127
公共	-3128
公平	-3129
六日	-3130
共处	-3131
其它	-3132
内阁	-3133
军委	-3134
军控	-3135
军方	-3136
决不	-3137
减税	-3138
出去	-3139
出访	-3140
列宁	-3141
则是	-3142
到达	-3143
办事	-3144
助于	-3145
又是	-3146
双赢	-3147
变得	-3148
可见	-3149
史上	-3150
周边	-3151
和谈	-3152
哲学	-3153
善意	-3154
四年	-3155
团伙	-3156
团长	-3157
国情	-3158
在野	-3159
地说	-3160
坚实	-3161
埔寨	-3162
基督	-3163
处在	-3164
大利	-3165
大大	-3166
大胆	-3167
天安	-3168
好处	-3169
妥协	-3170
妻子	-3171
娱乐	-3172
学员	-3173
宏伟	-3174
定位	-3175
实在	-3176
宣称	-3177
室里	-3178
富汗	-3179
对待	-3180
寻求	-3181
将就	-3182
尔德	-3183
尝试	-3184
就越	-3185
局部	-3186
展览	-3187
工具	-3188
带动	-3189
常规	-3190
平时	-3191
并在	-3192
并将	-3193
广州	-3194
广播	-3195
廉洁	-3196
开辟	-3197
当代	-3198
往来	-3199
得以	-3200
心理	-3201
态势	-3202
总是	-3203
总额	-3204
恶化	-3205
悲剧	-3206
成年	-3207
战场	-3208
所作	-3209
打赢	-3210
拉圭	-3211
持久	-3212
指责	-3213
捍卫	-3214
控股	-3215
推广	-3216
搜寻	-3217
摆在	-3218
支柱	-3219
效应	-3220
无赖	-3221
日来	-3222
日的	-3223
日起	-3224
早就	-3225
时事	-3226
时报	-3227
明了	-3228
昨日	-3229
是从	-3230
是指	-3231
是由	-3232
月份	-3233
有机	-3234
有益	-3235
本来	-3236
机动	-3237
极为	-3238
构成	-3239
模范	-3240
此举	-3241
此事	-3242
歪曲	-3243
比例	-3244
汇报	-3245
汽车	-3246
法特	-3247
波折	-3248
泰国	-3249
流长	-3250
淘汰	-3251
深感	-3252
湖北	-3253
源远	-3254
演讲	-3255
灾难	-3256
煤矿	-3257
熟悉	-3258
现场	-3259
理由	-3260
瑞士	-3261
用水	-3262
的先	-3263
的军	-3264
的心	-3265
的罪	-3266
监察	-3267
相连	-3268
看看	-3269
眼睛	-3270
短期	-3271
矿产	-3272
确立	-3273
私营	-3274
移民	-3275
答应	-3276
类似	-3277
紧缩	-3278
纠正	-3279
终于	-3280
而不	-3281
而言	-3282
至少	-3283
航母	-3284
舰艇	-3285
艰巨	-3286
落后	-3287
虽有	-3288
补贴	-3289
被告	-3290
让步	-3291
许可	-3292
说过	-3293
请求	-3294
诺夫	-3295
读者	-3296
赞同	-3297
走上	-3298
起码	-3299
足够	-3300
轨道	-3301
软件	-3302
辩证	-3303
边境	-3304
近期	-3305
这位	-3306
迫切	-3307
退出	-3308
遵循	-3309
那里	-3310
邦国	-3311
配置	-3312
间谍	-3313
阻挠	-3314
陵水	-3315
难得	-3316
雷达	-3317
首位	-3318
首都	-3319
鲜明	-3320
000	-3321
198	-3322
600	-3323
▁20	-3324
▁三是	-3325
▁二是	-3326
▁今后	-3327
▁他对	-3328
▁党的	-3329
▁如今	-3330
▁实践	-3331
▁必须	-3332
▁所谓	-3333
▁无论	-3334
▁来自	-3335
▁经济	-3336
▁这项	-3337
上台后	-3338
不平等	-3339
不得不	-3340
不符合	-3341
与发展	-3342
与社会	-3343
世纪的	-3344
中国将	-3345
中新社	-3346
之所以	-3347
也没有	-3348
人才的	-3349
人权的	-3350
代表了	-3351
企业和	-3352
企业家	-3353
全世界	-3354
全社会	-3355
关系到	-3356
分之一	-3357
制造业	-3358
副部长	-3359
发展是	-3360
可能会	-3361
各自的	-3362
和完善	-3363
和有关	-3364
和深化	-3365
和要求	-3366
国际上	-3367
在今年	-3368
在美国	-3369
大会上	-3370
大部分	-3371
天安门	-3372
威胁论	-3373
实践中	-3374
对国家	-3375
小标题	-3376
广阔的	-3377
应该是	-3378
强大的	-3379
形式的	-3380
思想的	-3381
所说的	-3382
推动了	-3383
支持和	-3384
政府要	-3385
政治家	-3386
文明的	-3387
斗争中	-3388
旅游业	-3389
日本和	-3390
时间的	-3391
暴露了	-3392
有一个	-3393
未成年	-3394
本地区	-3395
朱亚衍	-3396
朱总理	-3397
柬埔寨	-3398
理事国	-3399
留下了	-3400
的一切	-3401
的一贯	-3402
的义务	-3403
的意见	-3404
的技术	-3405
的正确	-3406
的科学	-3407
的趋势	-3408
的重点	-3409
的限制	-3410
第一位	-3411
签署了	-3412
精神的	-3413
系统的	-3414
经历了	-3415
结构的	-3416
美关系	-3417
而不能	-3418
良好的	-3419
表现出	-3420
要注意	-3421
访问团	-3422
赢得了	-3423
达到了	-3424
达成了	-3425
进步的	-3426
通讯社	-3427
部门和	-3428
金大中	-3429
阿富汗	-3430
项原则	-3431
驱逐舰	-3432
1995	-3433
▁尉健行	-3434
▁新中国	-3435
▁李岚清	-3436
一定能够	-3437
三峡工程	-3438
上的立场	-3439
不同程度	-3440
不懈努力	-3441
两岸直接	-3442
中美双方	-3443
亚美尼亚	-3444
人才培养	-3445
人权事业	-3446
什么样的	-3447
保护主义	-3448
共同发展	-3449
共同愿望	-3450
关系发展	-3451
其他国家	-3452
军事力量	-3453
加快推进	-3454
十分重视	-3455
原则立场	-3456
友好交往	-3457
发射成功	-3458
合作关系	-3459
向前发展	-3460
回归祖国	-3461
国际市场	-3462
在双方的	-3463
在国际上	-3464
实现祖国	-3465
对伊拉克	-3466
对外开放	-3467
小康社会	-3468
工人阶级	-3469
工资协议	-3470
平等互利	-3471
弹道导弹	-3472
当今世界	-3473
快速增长	-3474
我们必须	-3475
我国经济	-3476
支持力度	-3477
政治稳定	-3478
日本经济	-3479
本次会议	-3480
李岚清等	-3481
武装力量	-3482
源远流长	-3483
现代企业	-3484
积极作用	-3485
绝大多数	-3486
统一战线	-3487
继续进行	-3488
综合国力	-3489
衷心感谢	-3490
贸易伙伴	-3491
这次访问	-3492
重要讲话	-3493
阿拉法特	-3494
非常重视	-3495
领导同志	-3496
香港中国	-3497
高层互访	-3498
▁1998	-3499
▁中共中央	-3500
▁朱镕基说	-3501
世界上只有	-3502
今天在北京	-3503
发达国家的	-3504
在内的全体	-3505
在台湾问题	-3506
存在的问题	-3507
巩固和发展	-3508
常任理事国	-3509
应有的贡献	-3510
是中国领土	-3511
的重要力量	-3512
社会科学院	-3513
祖国大陆的	-3514
经济的发展	-3515
达成的共识	-3516
部长级会议	-3517
▁李鹏委员长	-3518
▁江泽民同志	-3519
▁江泽民指出	-3520
在国际事务中	-3521
外交部发言人	-3522
▁在这种情况下	-3523
主权和领土完整	-3524
共同关心的国际	-3525
农业和农村经济	-3526
台湾当局领导人	-3527
香港中国通讯社	-3528
坚持一个中国的原则	-3529
)。	-3530
.6	-3531
0.	-3532
25	-3533
49	-3534
52	-3535
63	-3536
?”	-3537
”、	-3538
▁2	-3539
▁5	-3540
▁8	-3541
▁七	-3542
▁于	-3543
▁傅	-3544
▁把	-3545
▁既	-3546
▁林	-3547
▁答	-3548
一体	-3549
一千	-3550
一天	-3551
一方	-3552
上说	-3553
不大	-3554
不愿	-3555
不知	-3556
不良	-3557
东部	-3558
丧失	-3559
中最	-3560
中朝	-3561
中欧	-3562
为何	-3563
主办	-3564
之不	-3565
之路	-3566
乐观	-3567
九月	-3568
九次	-3569
也都	-3570
了对	-3571
事项	-3572
二年	-3573
二百	-3574
互动	-3575
互惠	-3576
交替	-3577
产物	-3578
亲自	-3579
人均	-3580
人物	-3581
他将	-3582
他说	-3583
以为	-3584
仪说	-3585
任期	-3586
位于	-3587
作品	-3588
使馆	-3589
供应	-3590
俄方	-3591
倡议	-3592
债务	-3593
充实	-3594
光荣	-3595
克兰	-3596
克杰	-3597
全力	-3598
全省	-3599
公然	-3600
六十	-3601
关岛	-3602
关闭	-3603
兴趣	-3604
军官	-3605
军费	-3606
准则	-3607
出路	-3608
刑事	-3609
初期	-3610
判处	-3611
到来	-3612
削弱	-3613
前夕	-3614
前途	-3615
加拿	-3616
加速	-3617
动用	-3618
化学	-3619
区的	-3620
医院	-3621
十六	-3622
千万	-3623
南亚	-3624
南斯	-3625
南非	-3626
反而	-3627
发放	-3628
台的	-3629
各方	-3630
名的	-3631
后期	-3632
启动	-3633
吸收	-3634
咨询	-3635
喜欢	-3636
四十	-3637
回升	-3638
固定	-3639
国企	-3640
国放	-3641
地理	-3642
基会	-3643
塔尔	-3644
境内	-3645
墨西	-3646
备受	-3647
多了	-3648
多名	-3649
多少	-3650
大多	-3651
契机	-3652
威慑	-3653
子孙	-3654
学院	-3655
安置	-3656
宗旨	-3657
定书	-3658
审查	-3659
宪章	-3660
富有	-3661
对中	-3662
对美	-3663
届时	-3664
山水	-3665
岗位	-3666
差异	-3667
市民	-3668
帕伊	-3669
帝国	-3670
年初	-3671
并未	-3672
广场	-3673
庆红	-3674
廉政	-3675
开支	-3676
强劲	-3677
很不	-3678
很有	-3679
律宾	-3680
得益	-3681
循环	-3682
忽视	-3683
怀诚	-3684
性能	-3685
总部	-3686
情绪	-3687
意愿	-3688
成长	-3689
战区	-3690
所为	-3691
所需	-3692
扮演	-3693
把它	-3694
抓获	-3695
抵御	-3696
拓展	-3697
拜登	-3698
授予	-3699
排除	-3700
探测	-3701
提倡	-3702
提问	-3703
携手	-3704
撒冷	-3705
收到	-3706
收费	-3707
故意	-3708
救助	-3709
敬意	-3710
数据	-3711
数量	-3712
新党	-3713
方位	-3714
旗帜	-3715
无产	-3716
既是	-3717
日趋	-3718
早在	-3719
星球	-3720
是个	-3721
是大	-3722
晚间	-3723
普通	-3724
有制	-3725
有序	-3726
期望	-3727
权和	-3728
格局	-3729
模糊	-3730
正当	-3731
比重	-3732
毫无	-3733
求是	-3734
沙特	-3735
沟通	-3736
法的	-3737
流通	-3738
测试	-3739
海域	-3740
消失	-3741
深思	-3742
深深	-3743
混乱	-3744
清晰	-3745
港口	-3746
游行	-3747
湖南	-3748
激励	-3749
炮兵	-3750
牢牢	-3751
特大	-3752
独特	-3753
率领	-3754
环保	-3755
环节	-3756
班子	-3757
瓦杰	-3758
生的	-3759
由衷	-3760
申奥	-3761
申请	-3762
电力	-3763
疑虑	-3764
的中	-3765
监管	-3766
监视	-3767
盟国	-3768
直到	-3769
相似	-3770
看来	-3771
真诚	-3772
短暂	-3773
福州	-3774
积累	-3775
税费	-3776
稳步	-3777
立足	-3778
等国	-3779
简单	-3780
细致	-3781
结论	-3782
统治	-3783
缺水	-3784
者和	-3785
耳他	-3786
耶路	-3787
职业	-3788
职位	-3789
股东	-3790
自我	-3791
自杀	-3792
自行	-3793
致使	-3794
色的	-3795
荣幸	-3796
蓬勃	-3797
行之	-3798
要为	-3799
要素	-3800
解除	-3801
警告	-3802
警察	-3803
计委	-3804
议程	-3805
访美	-3806
诞生	-3807
请问	-3808
诸多	-3809
调节	-3810
财富	-3811
财经	-3812
贩毒	-3813
起草	-3814
身份	-3815
身边	-3816
转让	-3817
较为	-3818
边防	-3819
这场	-3820
这段	-3821
远哲	-3822
退税	-3823
逐年	-3824
造福	-3825
道歉	-3826
遗憾	-3827
释放	-3828
里程	-3829
铁路	-3830
闹剧	-3831
阵地	-3832
陕西	-3833
除恶	-3834
陪同	-3835
非但	-3836
面貌	-3837
顽固	-3838
预见	-3839
预警	-3840
预防	-3841
驻华	-3842
骨干	-3843
高校	-3844
▁一位	-3845
▁不管	-3846
▁与会	-3847
▁他在	-3848
▁加快	-3849
▁参加	-3850
▁各国	-3851
▁我军	-3852
▁按照	-3853
▁昨天	-3854
▁本报	-3855
▁正在	-3856
▁正是	-3857
▁此次	-3858
▁这对	-3859
▁进入	-3860
▁针对	-3861
下半年	-3862
不希望	-3863
不承认	-3864
与交流	-3865
两国是	-3866
中国驻	-3867
中央的	-3868
为世界	-3869
为中心	-3870
为什么	-3871
为促进	-3872
为维护	-3873
乌拉圭	-3874
也必须	-3875
也是对	-3876
二零零	-3877
产品的	-3878
人们的	-3879
从中国	-3880
从根本	-3881
代表着	-3882
以上的	-3883
们认为	-3884
任何人	-3885
会谈中	-3886
使他们	-3887
使美国	-3888
促进了	-3889
共同点	-3890
共同的	-3891
再一次	-3892
凝聚力	-3893
则认为	-3894
制度和	-3895
加拿大	-3896
劳动力	-3897
单位的	-3898
参议员	-3899
参谋长	-3900
发展中	-3901
发展同	-3902
只能是	-3903
召开的	-3904
可行的	-3905
各党派	-3906
同时也	-3907
呈现出	-3908
和主权	-3909
和全国	-3910
和军队	-3911
和地方	-3912
和建设	-3913
和科技	-3914
回答了	-3915
在世界	-3916
在历史	-3917
在日本	-3918
在这个	-3919
地进行	-3920
基本法	-3921
墨西哥	-3922
复杂的	-3923
大中型	-3924
大使馆	-3925
姆斯菲	-3926
婚姻法	-3927
对世界	-3928
对我国	-3929
对香港	-3930
将成为	-3931
小城镇	-3932
届亚欧	-3933
已进入	-3934
建设性	-3935
当前的	-3936
形成了	-3937
很多人	-3938
必须有	-3939
意义的	-3940
意大利	-3941
成克杰	-3942
成立了	-3943
成立后	-3944
我们对	-3945
我们要	-3946
战斗机	-3947
所有的	-3948
技术和	-3949
技术的	-3950
投资者	-3951
政府和	-3952
政府在	-3953
政府对	-3954
政权的	-3955
新秩序	-3956
新问题	-3957
无限期	-3958
日抵达	-3959
时表示	-3960
是不是	-3961
是什么	-3962
是因为	-3963
是好的	-3964
有助于	-3965
根本的	-3966
比上年	-3967
民族的	-3968
水平和	-3969
法律的	-3970
生活中	-3971
用飞机	-3972
百分点	-3973
的一年	-3974
的一项	-3975
的世纪	-3976
的产物	-3977
的人员	-3978
的内容	-3979
的办法	-3980
的势头	-3981
的各种	-3982
的图谋	-3983
的增长	-3984
的实现	-3985
的干部	-3986
的强烈	-3987
的意义	-3988
的战略	-3989
的时候	-3990
的最高	-3991
的未来	-3992
的权利	-3993
的消息	-3994
的直接	-3995
的竞争	-3996
的计划	-3997
的认识	-3998
的过程	-3999
的这一	-4000
的需要	-4001
福建省	-4002
第一年	-4003
管理的	-4004
紧迫感	-4005
练习者	-4006
给予了	-4007
给台湾	-4008
维护和	-4009
美两国	-4010
自动化	-4011
菲律宾	-4012
萨达姆	-4013
落后的	-4014
要加快	-4015
议定书	-4016
记者的	-4017
记者说	-4018
访问了	-4019
该公司	-4020
起到了	-4021
足够的	-4022
遇到了	-4023
都不能	-4024
项怀诚	-4025
马耳他	-4026
....	-4027
1998	-4028
▁198	-4029
▁一九九	-4030
▁但由于	-4031
▁国务院	-4032
▁我们党	-4033
▁我们有	-4034
▁朱邦造	-4035
▁李登辉	-4036
▁沈国放	-4037
▁章启月	-4038
一个时期	-4039
两岸之间	-4040
中俄关系	-4041
中国统一	-4042
中非合作	-4043
举行会谈	-4044
从根本上	-4045
优惠政策	-4046
优良传统	-4047
会议期间	-4048
使用武力	-4049
俄罗斯的	-4050
信托财产	-4051
充分肯定	-4052
充分认识	-4053
共同利益	-4054
军事同盟	-4055
军事演习	-4056
军事行动	-4057
军国主义	-4058
军备竞赛	-4059
农民负担	-4060
分裂主义	-4061
分裂势力	-4062
分裂祖国	-4063
南北双方	-4064
南斯拉夫	-4065
卡斯特罗	-4066
双重标准	-4067
发表讲话	-4068
右翼势力	-4069
各方面的	-4070
各级领导	-4071
各项工作	-4072
合法权益	-4073
和发展的	-4074
和平共处	-4075
国有控股	-4076
国际形势	-4077
在发言中	-4078
基础上的	-4079
增进了解	-4080
外商投资	-4081
如果美国	-4082
妥善解决	-4083
宏观调控	-4084
实事求是	-4085
实际行动	-4086
就职演说	-4087
布什总统	-4088
强权政治	-4089
强烈不满	-4090
强调指出	-4091
形式主义	-4092
总统阁下	-4093
战略协作	-4094
技术创新	-4095
拉姆斯菲	-4096
改善关系	-4097
政协委员	-4098
教育事业	-4099
无产阶级	-4100
无赖国家	-4101
时事政治	-4102
李洪志的	-4103
水资源的	-4104
特别行政	-4105
瓦杰帕伊	-4106
的一系列	-4107
的历史性	-4108
的可能性	-4109
监督检查	-4110
科学研究	-4111
科技进步	-4112
积极参与	-4113
积极推动	-4114
稳定发展	-4115
经济建设	-4116
经济效益	-4117
继续坚持	-4118
维和行动	-4119
耶路撒冷	-4120
联合声明	-4121
腐败现象	-4122
表示满意	-4123
访问中国	-4124
证券市场	-4125
进入中国	-4126
邪教本质	-4127
重大国际	-4128
重大问题	-4129
重要进展	-4130
领导人就	-4131
▁中美两国	-4132
▁台湾问题	-4133
▁我们希望	-4134
一九九九年	-4135
两国在各个	-4136
两国领导人	-4137
交往与合作	-4138
反腐败斗争	-4139
和中国人民	-4140
和社会发展	-4141
对话与谈判	-4142
战略性调整	-4143
改革和发展	-4144
步战略目标	-4145
深刻的变化	-4146
清醒地看到	-4147
的亲切问候	-4148
的发展势头	-4149
的基本方针	-4150
的根本保证	-4151
经济增长的	-4152
联合国人权	-4153
越来越多的	-4154
进一步深化	-4155
▁他表示相信	-4156
▁这位发言人	-4157
中东和平进程	-4158
中国共产党的	-4159
中非合作论坛	-4160
人民生活水平	-4161
发展友好关系	-4162
取得圆满成功	-4163
和平与发展的	-4164
国务院副总理	-4165
完成祖国统一	-4166
拉姆斯菲尔德	-4167
新闻发布会上	-4168
朝鲜半岛局势	-4169
现代企业制度	-4170
等领域的合作	-4171
维护世界和平	-4172
记者招待会上	-4173
马克思主义的	-4174
两国人民之间的	-4175
中国的和平统一	-4176
发挥了重要作用	-4177
的友好合作关系	-4178
中国加入世贸组织	-4179
加入世界贸易组织	-4180
战略协作伙伴关系	-4181
世界上只有一个中国	-4182
实现祖国的完全统一	-4183
江泽民同志为核心的	-4184
改革开放和现代化建设	-4185
最广大人民的根本利益	-4186
建设有中国特色社会主义	-4187
-3	-4188
.0	-4189
29	-4190
45	-4191
79	-4192
8·	-4193
95	-4194
II	-4195
ec	-4196
▁丁	-4197
▁党	-4198
▁再	-4199
▁刘	-4200
▁叶	-4201
▁应	-4202
▁无	-4203
▁最	-4204
▁贾	-4205
▁马	-4206
○○	-4207
》、	-4208
一代	-4209
一刻	-4210
一声	-4211
一如	-4212
一层	-4213
一把	-4214
一日	-4215
一级	-4216
三代	-4217
三千	-4218
三大	-4219
三日	-4220
三条	-4221
上不	-4222
上去	-4223
上讲	-4224
下岗	-4225
下旬	-4226
不上	-4227
不在	-4228
不搞	-4229
不然	-4230
与否	-4231
专政	-4232
专题	-4233
世代	-4234
业绩	-4235
东北	-4236
两院	-4237
个别	-4238
中旬	-4239
中阿	-4240
为其	-4241
主观	-4242
之下	-4243
之处	-4244
之外	-4245
也使	-4246
也很	-4247
了其	-4248
争议	-4249
争论	-4250
事物	-4251
二月	-4252
五月	-4253
交易	-4254
产量	-4255
亲密	-4256
人人	-4257
人防	-4258
亿多	-4259
仅仅	-4260
代替	-4261
代理	-4262
以往	-4263
会和	-4264
会对	-4265
传播	-4266
传输	-4267
但对	-4268
使其	-4269
保留	-4270
信号	-4271
信用	-4272
修炼	-4273
借口	-4274
倡导	-4275
倾向	-4276
偷渡	-4277
储蓄	-4278
兄弟	-4279
光大	-4280
光辉	-4281
党内	-4282
公众	-4283
公务	-4284
公斤	-4285
公路	-4286
六国	-4287
六年	-4288
六百	-4289
共享	-4290
共管	-4291
关头	-4292
关税	-4293
兵力	-4294
兵种	-4295
典礼	-4296
典范	-4297
兼并	-4298
再度	-4299
军人	-4300
军的	-4301
冲绳	-4302
冷静	-4303
准入	-4304
几十	-4305
几次	-4306
出任	-4307
出动	-4308
分工	-4309
判断	-4310
前的	-4311
剥削	-4312
副总	-4313
办好	-4314
功夫	-4315
加工	-4316
势所	-4317
勾结	-4318
化解	-4319
北方	-4320
区别	-4321
十四	-4322
升级	-4323
华说	-4324
单极	-4325
单边	-4326
参选	-4327
又一	-4328
取缔	-4329
变更	-4330
句话	-4331
可望	-4332
各位	-4333
合力	-4334
合成	-4335
同期	-4336
向上	-4337
否则	-4338
听取	-4339
告别	-4340
周围	-4341
和人	-4342
四个	-4343
四川	-4344
国王	-4345
国界	-4346
国统	-4347
在京	-4348
在其	-4349
在华	-4350
在此	-4351
地亚	-4352
地球	-4353
坦克	-4354
埃及	-4355
城乡	-4356
基于	-4357
增发	-4358
声音	-4359
处分	-4360
处罚	-4361
外相	-4362
多万	-4363
多么	-4364
多项	-4365
大连	-4366
大门	-4367
天覆	-4368
头上	-4369
头目	-4370
妄图	-4371
姿态	-4372
嫌疑	-4373
子女	-4374
存款	-4375
季度	-4376
学术	-4377
安南	-4378
官僚	-4379
定期	-4380
实兵	-4381
审判	-4382
家的	-4383
富强	-4384
对伊	-4385
对俄	-4386
对我	-4387
对手	-4388
对象	-4389
封锁	-4390
小麦	-4391
就任	-4392
就有	-4393
尼泊	-4394
展现	-4395
左派	-4396
巨额	-4397
已成	-4398
已被	-4399
巴嫩	-4400
巴西	-4401
布局	-4402
常务	-4403
平息	-4404
平民	-4405
平静	-4406
广生	-4407
应在	-4408
度地	-4409
开端	-4410
引向	-4411
弘扬	-4412
当事	-4413
得逞	-4414
德拉	-4415
心的	-4416
总量	-4417
愉快	-4418
意在	-4419
意外	-4420
愿同	-4421
戈尔	-4422
所做	-4423
所向	-4424
所属	-4425
打开	-4426
打黑	-4427
扩张	-4428
扩散	-4429
扬言	-4430
抉择	-4431
拿出	-4432
推出	-4433
提法	-4434
提请	-4435
操作	-4436
支出	-4437
支援	-4438
放松	-4439
散布	-4440
文和	-4441
施政	-4442
无可	-4443
无所	-4444
既往	-4445
日中	-4446
日报	-4447
早已	-4448
曲折	-4449
更新	-4450
替代	-4451
最新	-4452
有何	-4453
本着	-4454
机械	-4455
杀伤	-4456
来华	-4457
杨洁	-4458
极力	-4459
查处	-4460
树立	-4461
样式	-4462
案的	-4463
桥梁	-4464
检阅	-4465
概括	-4466
歧视	-4467
歪理	-4468
死亡	-4469
毁灭	-4470
水利	-4471
水的	-4472
永久	-4473
沿着	-4474
法定	-4475
注定	-4476
派遣	-4477
流亡	-4478
海协	-4479
海湾	-4480
海空	-4481
深厚	-4482
深表	-4483
渗透	-4484
游戏	-4485
游说	-4486
潜在	-4487
火箭	-4488
灵活	-4489
灾区	-4490
爆炸	-4491
率先	-4492
现有	-4493
珍视	-4494
生育	-4495
用人	-4496
申办	-4497
登陆	-4498
的外	-4499
的热	-4500
直升	-4501
直至	-4502
相同	-4503
相辅	-4504
看好	-4505
真的	-4506
眼光	-4507
知的	-4508
破获	-4509
确切	-4510
确有	-4511
私人	-4512
秘书	-4513
秘密	-4514
等的	-4515
筹集	-4516
精心	-4517
紧急	-4518
累计	-4519
约束	-4520
纪委	-4521
纳税	-4522
给了	-4523
绝不	-4524
综述	-4525
缩小	-4526
美机	-4527
考量	-4528
聪明	-4529
肇星	-4530
股市	-4531
膨胀	-4532
良性	-4533
节水	-4534
节约	-4535
英雄	-4536
营造	-4537
董建	-4538
衡量	-4539
表彰	-4540
表态	-4541
袭击	-4542
要从	-4543
觉得	-4544
警方	-4545
认证	-4546
记录	-4547
试点	-4548
话题	-4549
该报	-4550
说了	-4551
说服	-4552
调动	-4553
质疑	-4554
费用	-4555
赞扬	-4556
起到	-4557
起点	-4558
趋于	-4559
身为	-4560
身体	-4561
转化	-4562
转移	-4563
轿车	-4564
辛格	-4565
过来	-4566
还对	-4567
这里	-4568
进攻	-4569
远程	-4570
逆转	-4571
选平	-4572
透明	-4573
透过	-4574
通道	-4575
逮捕	-4576
逻辑	-4577
邪说	-4578
邻国	-4579
都会	-4580
重重	-4581
金额	-4582
鉴于	-4583
阻挡	-4584
阻碍	-4585
阿尔	-4586
降低	-4587
院士	-4588
陷入	-4589
难道	-4590
难题	-4591
顾问	-4592
预言	-4593
飞弹	-4594
飞抵	-4595
驻军	-4596
高官	-4597
高效	-4598
黑龙	-4599
300	-4600
’、‘	-4601
▁10	-4602
▁一切	-4603
▁一是	-4604
▁上海	-4605
▁上述	-4606
▁不久	-4607
▁冷战	-4608
▁各地	-4609
▁广大	-4610
▁改革	-4611
▁新疆	-4612
▁日前	-4613
▁显然	-4614
▁普京	-4615
▁欧盟	-4616
▁正如	-4617
▁此间	-4618
▁深入	-4619
▁澳门	-4620
▁网络	-4621
▁而且	-4622
▁英国	-4623
▁西方	-4624
▁西藏	-4625
▁过去	-4626
▁除了	-4627
一九八	-4628
一定能	-4629
三个月	-4630
不久前	-4631
不会有	-4632
不断地	-4633
与欧盟	-4634
业经营	-4635
两年来	-4636
个五年	-4637
个国家	-4638
为中国	-4639
乌克兰	-4640
也不会	-4641
也不是	-4642
也不能	-4643
了一批	-4644
五十七	-4645
产生的	-4646
人认为	-4647
今年的	-4648
他本人	-4649
他认为	-4650
以提高	-4651
任务的	-4652
企业在	-4653
作相应	-4654
保持了	-4655
做出了	-4656
克斯坦	-4657
全方位	-4658
公务员	-4659
公有制	-4660
再就业	-4661
几年来	-4662
出发点	-4663
出来的	-4664
创新是	-4665
前提下	-4666
加大对	-4667
务公开	-4668
势所趋	-4669
参观了	-4670
又一次	-4671
反卫星	-4672
可能是	-4673
司令部	-4674
合作战	-4675
同志们	-4676
向中国	-4677
和保护	-4678
和历史	-4679
和友谊	-4680
和台湾	-4681
和处理	-4682
和夫人	-4683
和安全	-4684
和文化	-4685
和方法	-4686
和欧洲	-4687
和问题	-4688
国有及	-4689
在加强	-4690
在地区	-4691
在竞选	-4692
地开展	-4693
地方和	-4694
基指出	-4695
基本上	-4696
基督教	-4697
基金会	-4698
增加了	-4699
多亿元	-4700
大量的	-4701
天覆地	-4702
始终是	-4703
嫌疑人	-4704
存在着	-4705
学习和	-4706
宗教界	-4707
对我们	-4708
将进入	-4709
就开始	-4710
尼泊尔	-4711
届政府	-4712
崇高的	-4713
工作上	-4714
工商界	-4715
市政府	-4716
年开始	-4717
并不是	-4718
应加强	-4719
庞大的	-4720
开发和	-4721
强烈的	-4722
强调要	-4723
很大的	-4724
得不到	-4725
得益于	-4726
总统府	-4727
恶势力	-4728
所有制	-4729
打电话	-4730
损害了	-4731
接受了	-4732
提高了	-4733
提高到	-4734
教育和	-4735
教育是	-4736
新台阶	-4737
新阶段	-4738
日下午	-4739
明确的	-4740
是不可	-4741
是人类	-4742
是全国	-4743
是可以	-4744
是台湾	-4745
是否会	-4746
是推动	-4747
是经济	-4748
是难以	-4749
本报驻	-4750
李远哲	-4751
来到了	-4752
来访的	-4753
杨洁篪	-4754
核裁军	-4755
根据本	-4756
框架内	-4757
比去年	-4758
民主化	-4759
民主和	-4760
水污染	-4761
海基会	-4762
的制裁	-4763
的反应	-4764
的地位	-4765
的威胁	-4766
的战争	-4767
的挑战	-4768
的方向	-4769
的最后	-4770
的本质	-4771
的武器	-4772
的水平	-4773
的目的	-4774
的稳定	-4775
的第二	-4776
的良好	-4777
的行为	-4778
的角度	-4779
的说法	-4780
的资源	-4781
的道路	-4782
相辅相	-4783
看到了	-4784
瞩目的	-4785
石广生	-4786
研究员	-4787
研究所	-4788
破坏了	-4789
硬道理	-4790
社记者	-4791
离不开	-4792
科学家	-4793
程度上	-4794
稳定和	-4795
第九次	-4796
第二十	-4797
第四届	-4798
绝不会	-4799
美国和	-4800
美国驻	-4801
老百姓	-4802
自己在	-4803
自身的	-4804
英国的	-4805
表明了	-4806
表示的	-4807
装备的	-4808
要按照	-4809
规定的	-4810
规律的	-4811
解决好	-4812
访华时	-4813
贸易额	-4814
资企业	-4815
跨越式	-4816
较高的	-4817
还表示	-4818
退耕还	-4819
部门要	-4820
都必须	-4821
采访时	-4822
里程碑	-4823
重申了	-4824
防空兵	-4825
防范和	-4826
面临的	-4827
革命家	-4828
领导的	-4829
黎巴嫩	-4830
黑龙江	-4831
▁———	-4832
▁吴仪说	-4833
▁在经济	-4834
▁如果说	-4835
▁孙玉玺	-4836
▁张万年	-4837
▁李洪志	-4838
▁温家宝	-4839
▁美国在	-4840
▁联合国	-4841
一个重要	-4842
一些地方	-4843
一些问题	-4844
一如既往	-4845
一致认为	-4846
不断取得	-4847
不能接受	-4848
世界军事	-4849
两岸同胞	-4850
中外合资	-4851
中心任务	-4852
中方对此	-4853
事务中的	-4854
二十世纪	-4855
五项原则	-4856
产品质量	-4857
人心所向	-4858
人民日报	-4859
今年以来	-4860
依法治国	-4861
信息产业	-4862
做了大量	-4863
充分利用	-4864
党和政府	-4865
全球经济	-4866
全面建设	-4867
全面推进	-4868
八十周年	-4869
八国集团	-4870
公开选拔	-4871
共产党员	-4872
关键在于	-4873
农产品的	-4874
冷战思维	-4875
出售武器	-4876
创造条件	-4877
加以解决	-4878
加强基层	-4879
努力谋求	-4880
区域自治	-4881
十分关注	-4882
半个世纪	-4883
南北关系	-4884
参与国际	-4885
反华势力	-4886
反对美国	-4887
发扬光大	-4888
各个方面	-4889
合作组织	-4890
合作领域	-4891
告诉我们	-4892
告诉记者	-4893
周年之际	-4894
国内形势	-4895
在美国的	-4896
在这方面	-4897
基础设施	-4898
外交关系	-4899
外贸出口	-4900
大力发展	-4901
安全生产	-4902
官僚主义	-4903
官员指出	-4904
实现统一	-4905
对华政策	-4906
对华永久	-4907
就是一个	-4908
山水相连	-4909
市场机制	-4910
座谈会上	-4911
廉洁自律	-4912
建设情况	-4913
引进外资	-4914
必然要求	-4915
恐怖主义	-4916
意识形态	-4917
我们国家	-4918
我们应当	-4919
所取得的	-4920
打黑除恶	-4921
承诺放弃	-4922
技术改造	-4923
持续增长	-4924
推动作用	-4925
整体素质	-4926
整治斗争	-4927
星球大战	-4928
是严重的	-4929
是我们的	-4930
普遍关注	-4931
检察机关	-4932
正在进行	-4933
正确处理	-4934
民族独立	-4935
江主席的	-4936
消息人士	-4937
深入开展	-4938
独立自主	-4939
环境保护	-4940
的新阶段	-4941
的问题是	-4942
研究中心	-4943
研究制定	-4944
私营企业	-4945
积极财政	-4946
稳定增长	-4947
系统工程	-4948
素质教育	-4949
经济贸易	-4950
经营管理	-4951
给予中国	-4952
绝对领导	-4953
维护国家	-4954
网络安全	-4955
美中关系	-4956
翻天覆地	-4957
联合作战	-4958
自焚事件	-4959
解决这一	-4960
解放思想	-4961
认真履行	-4962
负面影响	-4963
财务会计	-4964
财政收入	-4965
财政赤字	-4966
贫困地区	-4967
越来越大	-4968
转达他对	-4969
达成协议	-4970
这一事件	-4971
这次会议	-4972
进行检查	-4973
通货紧缩	-4974
重要贡献	-4975
问题上的	-4976
问题进行	-4977
集中精力	-4978
非常高兴	-4979
非洲国家	-4980
首脑会谈	-4981
,2000	-4982
▁1996	-4983
▁2000	-4984
▁今年以来	-4985
▁只有这样	-4986
▁改革开放	-4987
▁朱邦造说	-4988
▁要进一步	-4989
▁钱其琛说	-4990
与台湾问题	-4991
两位领导人	-4992
两国关系在	-4993
两岸关系的	-4994
中东地区的	-4995
中国的发展	-4996
中西部地区	-4997
充分体现了	-4998
克林顿总统	-4999
党的先进性	-5000
可持续发展	-5001
台湾问题的	-5002
台湾领导人	-5003
和两岸关系	-5004
在新的世纪	-5005
布什政府的	-5006
政治和社会	-5007
次世界大战	-5008
毛泽东思想	-5009
沙特阿拉伯	-5010
特别行政区	-5011
的主要任务	-5012
的友好邻邦	-5013
经济和社会	-5014
美国的利益	-5015
自己的力量	-5016
记者招待会	-5017
重视发展同	-5018
中国全国人大	-5019
包括台湾同胞	-5020
千年首脑会议	-5021
发挥积极作用	-5022
台湾新领导人	-5023
各级领导干部	-5024
国民经济发展	-5025
学习教育活动	-5026
思想政治建设	-5027
留下了深刻的	-5028
社会保障体系	-5029
表示热烈欢迎	-5030
进行正式访问	-5031
违法犯罪活动	-5032
▁江泽民总书记	-5033
中华民族的伟大	-5034
今天在北京举行	-5035
国有及国有控股	-5036
常委会工作报告	-5037
广大发展中国家	-5038
独立自主的和平	-5039
翻天覆地的变化	-5040
两国关系在新世纪	-5041
人民代表大会制度	-5042
全面建设小康社会	-5043
国务卿奥尔布赖特	-5044
接受一个中国原则	-5045
此间举行的外交部	-5046
深入地交换了意见	-5047
社会主义精神文明	-5048
领域的交流与合作	-5049
两国人民的根本利益	-5050
九届全国人大常委会	-5051
在双方的共同努力下	-5052
坚持一个中国的政策	-5053
外交部发言人朱邦造	-5054
奉行一个中国的政策	-5055
山水相连的友好邻邦	-5056
中国加入世界贸易组织	-5057
独立自主的和平外交政策	-5058
改革开放和社会主义现代化建设	-5059
(8	-5060
--	-5061
.2	-5062
44	-5063
99	-5064
ab	-5065
ap	-5066
”?	-5067
▁也	-5068
▁例	-5069
▁六	-5070
▁凡	-5071
▁十	-5072
▁卡	-5073
▁受	-5074
▁回	-5075
▁外	-5076
▁截	-5077
▁更	-5078
▁曹	-5079
▁比	-5080
▁穆	-5081
▁若	-5082
▁蒋	-5083
▁许	-5084
▁金	-5085
▁钱	-5086
▁除	-5087
▁韩	-5088
▁高	-5089
▁黄	-5090
一事	-5091
一份	-5092
一位	-5093
一半	-5094
一名	-5095
一向	-5096
一味	-5097
一套	-5098
一度	-5099
一支	-5100
一月	-5101
三月	-5102
三百	-5103
三项	-5104
上加	-5105
上岗	-5106
下台	-5107
下场	-5108
下跌	-5109
不分	-5110
不合	-5111
不多	-5112
不够	-5113
不对	-5114
不幸	-5115
不正	-5116
不禁	-5117
不起	-5118
不通	-5119
专讯	-5120
业已	-5121
丝毫	-5122
两名	-5123
两天	-5124
两百	-5125
中叙	-5126
中塔	-5127
中有	-5128
中白	-5129
为止	-5130
为由	-5131
主力	-5132
举动	-5133
久安	-5134
之内	-5135
之地	-5136
之士	-5137
之急	-5138
之时	-5139
之策	-5140
乌兹	-5141
九二	-5142
九日	-5143
习惯	-5144
书面	-5145
买提	-5146
了大	-5147
争夺	-5148
事态	-5149
二是	-5150
云南	-5151
五千	-5152
五次	-5153
五角	-5154
交给	-5155
产值	-5156
京都	-5157
人和	-5158
人对	-5159
人生	-5160
今晚	-5161
今次	-5162
仍在	-5163
他也	-5164
他人	-5165
他国	-5166
以待	-5167
以武	-5168
以求	-5169
以防	-5170
件事	-5171
份额	-5172
伊斯	-5173
众多	-5174
优质	-5175
会员	-5176
传出	-5177
伪装	-5178
伯杰	-5179
估计	-5180
但也	-5181
低于	-5182
作业	-5183
作好	-5184
作者	-5185
供给	-5186
侦查	-5187
信函	-5188
倒退	-5189
借助	-5190
倾注	-5191
假如	-5192
做的	-5193
偶然	-5194
储备	-5195
储量	-5196
僵局	-5197
克罗	-5198
兑换	-5199
兑现	-5200
党建	-5201
党风	-5202
入主	-5203
全区	-5204
全心	-5205
全意	-5206
全有	-5207
八日	-5208
八月	-5209
公园	-5210
公认	-5211
六点	-5212
关切	-5213
关怀	-5214
兴衰	-5215
兵的	-5216
其实	-5217
再上	-5218
军火	-5219
军舰	-5220
军转	-5221
决于	-5222
准确	-5223
凌晨	-5224
减速	-5225
几天	-5226
凭借	-5227
分之	-5228
分离	-5229
分组	-5230
分钟	-5231
划分	-5232
刚川	-5233
初级	-5234
判决	-5235
利率	-5236
到位	-5237
刻意	-5238
前来	-5239
力求	-5240
加上	-5241
动作	-5242
动武	-5243
助理	-5244
努克	-5245
劳工	-5246
劳模	-5247
包装	-5248
北南	-5249
匹克	-5250
医学	-5251
十天	-5252
千方	-5253
半数	-5254
卓有	-5255
南京	-5256
卫生	-5257
印刷	-5258
历经	-5259
压迫	-5260
参院	-5261
又有	-5262
反击	-5263
反面	-5264
取代	-5265
变成	-5266
只会	-5267
可漂	-5268
可谓	-5269
合并	-5270
吉斯	-5271
同等	-5272
后又	-5273
听到	-5274
命中	-5275
和各	-5276
和武	-5277
和自	-5278
和谐	-5279
唯物	-5280
商机	-5281
善于	-5282
喜朗	-5283
嚣张	-5284
四月	-5285
四次	-5286
回事	-5287
回国	-5288
国旗	-5289
国歌	-5290
土耳	-5291
在即	-5292
在后	-5293
在港	-5294
在美	-5295
地域	-5296
地的	-5297
地缘	-5298
基石	-5299
增值	-5300
增多	-5301
壮的	-5302
声势	-5303
处级	-5304
外债	-5305
多件	-5306
多元	-5307
大厦	-5308
大叔	-5309
大肆	-5310
大都	-5311
天津	-5312
天然	-5313
央行	-5314
失望	-5315
头来	-5316
头脑	-5317
奥林	-5318
存亡	-5319
学说	-5320
安宁	-5321
安定	-5322
实业	-5323
实干	-5324
宣告	-5325
宣部	-5326
宴会	-5327
对朝	-5328
对策	-5329
寻找	-5330
射击	-5331
射程	-5332
将以	-5333
将其	-5334
将军	-5335
将给	-5336
少民	-5337
就与	-5338
就此	-5339
就谈	-5340
就达	-5341
尼特	-5342
局长	-5343
山姆	-5344
巡逻	-5345
已为	-5346
已久	-5347
已于	-5348
已使	-5349
巴斯	-5350
巴方	-5351
带入	-5352
带有	-5353
平壤	-5354
平稳	-5355
年内	-5356
并与	-5357
并且	-5358
并以	-5359
幸福	-5360
广告	-5361
广西	-5362
应有	-5363
座的	-5364
建造	-5365
开创	-5366
引渡	-5367
弱点	-5368
强的	-5369
当作	-5370
往年	-5371
很快	-5372
徒刑	-5373
得很	-5374
得更	-5375
德才	-5376
德良	-5377
心愿	-5378
心血	-5379
必由	-5380
志愿	-5381
忠于	-5382
忠实	-5383
忽略	-5384
怀有	-5385
怀疑	-5386
思潮	-5387
总数	-5388
总的	-5389
总计	-5390
想要	-5391
愈来	-5392
慎重	-5393
懂得	-5394
我的	-5395
我要	-5396
战士	-5397
战备	-5398
所得	-5399
手中	-5400
扶持	-5401
投放	-5402
抗美	-5403
抛出	-5404
抨击	-5405
披露	-5406
拒统	-5407
拭目	-5408
指南	-5409
按时	-5410
挑衅	-5411
挫折	-5412
掌声	-5413
推翻	-5414
推荐	-5415
提拔	-5416
提醒	-5417
援朝	-5418
搬迁	-5419
摧毁	-5420
摩洛	-5421
撤军	-5422
擅自	-5423
支队	-5424
攻关	-5425
攻坚	-5426
政局	-5427
整顿	-5428
文字	-5429
文本	-5430
斯基	-5431
新兴	-5432
施罗	-5433
无人	-5434
无权	-5435
既有	-5436
日内	-5437
日美	-5438
时不	-5439
时有	-5440
明伟	-5441
明报	-5442
春节	-5443
是与	-5444
是两	-5445
是同	-5446
是很	-5447
景气	-5448
暂行	-5449
更换	-5450
曾对	-5451
有多	-5452
有权	-5453
有识	-5454
朝着	-5455
朝美	-5456
期刊	-5457
期盼	-5458
未经	-5459
本次	-5460
机密	-5461
机组	-5462
杉矶	-5463
来抓	-5464
来源	-5465
杭州	-5466
极其	-5467
果断	-5468
校长	-5469
格的	-5470
梦想	-5471
梵蒂	-5472
森林	-5473
概念	-5474
欢庆	-5475
欧美	-5476
正值	-5477
正气	-5478
正面	-5479
殖民	-5480
母舰	-5481
每次	-5482
比在	-5483
民党	-5484
民用	-5485
民警	-5486
民调	-5487
气候	-5488
气愤	-5489
氛围	-5490
江苏	-5491
河野	-5492
油价	-5493
治本	-5494
泄露	-5495
法人	-5496
波兰	-5497
注册	-5498
洽谈	-5499
流域	-5500
海上	-5501
海口	-5502
海洋	-5503
深受	-5504
清理	-5505
渐渐	-5506
滋事	-5507
演变	-5508
火车	-5509
炸药	-5510
烈火	-5511
焦点	-5512
煤炭	-5513
爆发	-5514
爱好	-5515
片面	-5516
牵涉	-5517
猛进	-5518
王乐	-5519
生意	-5520
用心	-5521
界定	-5522
疑问	-5523
登记	-5524
百计	-5525
的出	-5526
的另	-5527
的手	-5528
的有	-5529
的深	-5530
的王	-5531
的美	-5532
的风	-5533
监控	-5534
监狱	-5535
目睹	-5536
相处	-5537
相撞	-5538
省区	-5539
省长	-5540
看不	-5541
看出	-5542
真理	-5543
着眼	-5544
着陆	-5545
知情	-5546
研发	-5547
硝烟	-5548
确认	-5549
示范	-5550
社论	-5551
神盾	-5552
私利	-5553
称为	-5554
穷国	-5555
突袭	-5556
突飞	-5557
立于	-5558
立委	-5559
竟然	-5560
签字	-5561
签证	-5562
篇章	-5563
繁重	-5564
约定	-5565
纯属	-5566
纺织	-5567
练兵	-5568
经受	-5569
经理	-5570
维奇	-5571
缔造	-5572
缺少	-5573
罚款	-5574
罪犯	-5575
美洲	-5576
美英	-5577
考核	-5578
联勤	-5579
联络	-5580
聚集	-5581
肆意	-5582
股份	-5583
肩负	-5584
背后	-5585
胜的	-5586
自信	-5587
自卫	-5588
自强	-5589
致以	-5590
致函	-5591
艰难	-5592
花园	-5593
苏丹	-5594
苏联	-5595
荒谬	-5596
荣誉	-5597
莫夫	-5598
萨德	-5599
融入	-5600
表决	-5601
表演	-5602
被捕	-5603
被迫	-5604
裁判	-5605
西北	-5606
西斯	-5607
要以	-5608
要将	-5609
要看	-5610
要让	-5611
覆盖	-5612
观光	-5613
规章	-5614
视野	-5615
认定	-5616
记忆	-5617
设置	-5618
访朝	-5619
诉讼	-5620
试图	-5621
话的	-5622
误解	-5623
课堂	-5624
调度	-5625
调解	-5626
谈得	-5627
谋划	-5628
谢尔	-5629
谨慎	-5630
贫富	-5631
贵国	-5632
资格	-5633
赫尔	-5634
越共	-5635
足以	-5636
跨入	-5637
践踏	-5638
转业	-5639
转折	-5640
载人	-5641
较低	-5642
较快	-5643
较高	-5644
辞职	-5645
辽宁	-5646
过了	-5647
过早	-5648
过渡	-5649
迎来	-5650
近海	-5651
近邻	-5652
还会	-5653
这么	-5654
这也	-5655
这名	-5656
这条	-5657
这番	-5658
远华	-5659
追究	-5660
选票	-5661
递交	-5662
通知	-5663
通航	-5664
邦联	-5665
部份	-5666
都将	-5667
都能	-5668
配套	-5669
酞大	-5670
重复	-5671
重开	-5672
重演	-5673
野战	-5674
金龙	-5675
销售	-5676
长治	-5677
长足	-5678
闹事	-5679
防治	-5680
降落	-5681
院长	-5682
随意	-5683
隐含	-5684
雄辩	-5685
青睐	-5686
鞍钢	-5687
顺应	-5688
预测	-5689
领会	-5690
颇为	-5691
题目	-5692
风云	-5693
风俗	-5694
风暴	-5695
首席	-5696
麻烦	-5697
鼓舞	-5698
齐抓	-5699
(8)	-5700
-16	-5701
400	-5702
’。”	-5703
▁6、	-5704
▁——	-5705
▁中共	-5706
▁中日	-5707
▁于是	-5708
▁亚洲	-5709
▁人类	-5710
▁他并	-5711
▁例如	-5712
▁信息	-5713
▁做好	-5714
▁全军	-5715
▁其实	-5716
▁农业	-5717
▁各方	-5718
▁培养	-5719
▁实现	-5720
▁应该	-5721
▁德国	-5722
▁教育	-5723
▁最高	-5724
▁有些	-5725
▁有人	-5726
▁此后	-5727
▁没有	-5728
▁法律	-5729
▁海协	-5730
▁现代	-5731
▁田中	-5732
▁相反	-5733
▁罗干	-5734
▁而在	-5735
▁要在	-5736
▁这也	-5737
▁这就	-5738
▁连战	-5739
▁鉴于	-5740
》、《	-5741
一定的	-5742
一年来	-5743
一样的	-5744
一直在	-5745
七月十	-5746
上海市	-5747
下决心	-5748
不允许	-5749
不同于	-5750
不容辞	-5751
不要再	-5752
不过是	-5753
与大陆	-5754
与日本	-5755
与美方	-5756
与裁军	-5757
业务的	-5758
东南亚	-5759
个人的	-5760
中关系	-5761
中南海	-5762
中取得	-5763
中国也	-5764
为人民	-5765
为加强	-5766
为国家	-5767
为基础	-5768
为契机	-5769
为推动	-5770
为美国	-5771
主动权	-5772
举办的	-5773
之上的	-5774
之不易	-5775
乌兹别	-5776
九十七	-5777
也必然	-5778
也符合	-5779
了一些	-5780
了我国	-5781
了新的	-5782
了有关	-5783
互补性	-5784
人民对	-5785
他们是	-5786
付出了	-5787
代表们	-5788
企业法	-5789
伊斯兰	-5790
众议院	-5791
伟大的	-5792
伴随着	-5793
体制的	-5794
体现在	-5795
作战的	-5796
保持着	-5797
信息战	-5798
信息的	-5799
修改的	-5800
偶然的	-5801
充满了	-5802
克服了	-5803
党员的	-5804
党组织	-5805
八日电	-5806
公安部	-5807
关键是	-5808
其中有	-5809
典型的	-5810
决定的	-5811
决定着	-5812
减少了	-5813
几个月	-5814
创造出	-5815
到去年	-5816
制定了	-5817
制度上	-5818
副主任	-5819
办公厅	-5820
务之急	-5821
努力的	-5822
十一月	-5823
十七条	-5824
十分钟	-5825
单位和	-5826
历史性	-5827
原因是	-5828
及其他	-5829
双方已	-5830
双方应	-5831
反空袭	-5832
发动机	-5833
发展为	-5834
发生后	-5835
发表的	-5836
取决于	-5837
叶选平	-5838
各样的	-5839
各民族	-5840
各领域	-5841
同样的	-5842
向台湾	-5843
向社会	-5844
向美国	-5845
向美方	-5846
吴邦国	-5847
和世界	-5848
和义务	-5849
和作用	-5850
和保障	-5851
和先进	-5852
和农民	-5853
和平的	-5854
和执行	-5855
和扩大	-5856
和把握	-5857
和挑战	-5858
和未来	-5859
和武警	-5860
和澳门	-5861
和特点	-5862
和群众	-5863
哈努克	-5864
回答说	-5865
国家对	-5866
土耳其	-5867
在一起	-5868
在上海	-5869
在今天	-5870
在会上	-5871
在思想	-5872
在我国	-5873
在政治	-5874
在新的	-5875
在许多	-5876
在这一	-5877
在部队	-5878
地抓好	-5879
地指出	-5880
坚定地	-5881
坚持以	-5882
城市的	-5883
基本的	-5884
境内的	-5885
增加到	-5886
复杂性	-5887
外经贸	-5888
多层次	-5889
多样性	-5890
大幅度	-5891
失去了	-5892
完善了	-5893
完成了	-5894
实施了	-5895
实现的	-5896
实质上	-5897
对双方	-5898
对古巴	-5899
对整个	-5900
对朝鲜	-5901
对话和	-5902
将会使	-5903
将会有	-5904
将更加	-5905
将达到	-5906
将面临	-5907
小三通	-5908
就是说	-5909
岁以下	-5910
岛内的	-5911
已经是	-5912
已经有	-5913
年来的	-5914
并希望	-5915
开发区	-5916
开始了	-5917
开始对	-5918
开始的	-5919
引起了	-5920
强调了	-5921
当事人	-5922
很好的	-5923
必要性	-5924
必须是	-5925
必须要	-5926
性问题	-5927
愈来愈	-5928
成立的	-5929
我们在	-5930
我们将	-5931
我们有	-5932
战斗力	-5933
扎扎实	-5934
打下了	-5935
扩大的	-5936
批评和	-5937
把中国	-5938
抓落实	-5939
报告中	-5940
报道说	-5941
持反对	-5942
指挥员	-5943
指挥所	-5944
指明了	-5945
接触和	-5946
措施的	-5947
摩洛哥	-5948
支重要	-5949
改变了	-5950
改革中	-5951
政府间	-5952
文化的	-5953
新一代	-5954
新情况	-5955
新闻界	-5956
施罗德	-5957
无疑是	-5958
日结束	-5959
明显的	-5960
是一场	-5961
是一次	-5962
是两国	-5963
是为了	-5964
是邪教	-5965
普遍性	-5966
更多地	-5967
曾多次	-5968
有些人	-5969
有力地	-5970
有必要	-5971
有益的	-5972
有组织	-5973
服务于	-5974
期徒刑	-5975
本月初	-5976
李少民	-5977
李文和	-5978
架飞机	-5979
梵蒂冈	-5980
检察院	-5981
检阅了	-5982
森喜朗	-5983
毕业生	-5984
水资源	-5985
沙拉夫	-5986
洛杉矶	-5987
洽谈会	-5988
海南岛	-5989
消费品	-5990
深入的	-5991
源头上	-5992
漫长的	-5993
特尼特	-5994
现在的	-5995
理事会	-5996
生活的	-5997
由衷的	-5998
电视台	-5999
的了解	-6000
的会谈	-6001
的侦察	-6002
的修改	-6003
的具体	-6004
的前景	-6005
的前进	-6006
的力度	-6007
的发生	-6008
的唯一	-6009
的困难	-6010
的地方	-6011
的大事	-6012
的大局	-6013
的大量	-6014
的学习	-6015
的实践	-6016
的宣传	-6017
的对朝	-6018
的对话	-6019
的建立	-6020
的支持	-6021
的新闻	-6022
的方式	-6023
的时期	-6024
的时间	-6025
的机遇	-6026
的权力	-6027
的权威	-6028
的热情	-6029
的特点	-6030
的现代	-6031
的考验	-6032
的还有	-6033
的选择	-6034
目标而	-6035
直升机	-6036
示威者	-6037
社会上	-6038
社会化	-6039
秘书长	-6040
立场是	-6041
第二个	-6042
等措施	-6043
签署的	-6044
管理局	-6045
紧迫性	-6046
级以上	-6047
组成的	-6048
经常性	-6049
结束时	-6050
给我们	-6051
绝不是	-6052
考虑到	-6053
而且是	-6054
职务的	-6055
职能的	-6056
背景下	-6057
能不能	-6058
能力和	-6059
董建华	-6060
行为和	-6061
表现了	-6062
表示他	-6063
表述是	-6064
要适应	-6065
要重视	-6066
观察员	-6067
观察家	-6068
讲政治	-6069
说到底	-6070
负责任	-6071
质量和	-6072
轰炸机	-6073
较大的	-6074
迎来了	-6075
还没有	-6076
还需要	-6077
这一天	-6078
这两个	-6079
这表明	-6080
进程中	-6081
进程的	-6082
通过的	-6083
都无法	-6084
采取的	-6085
里莫夫	-6086
门话题	-6087
问题是	-6088
阐述了	-6089
阿尔及	-6090
雄壮的	-6091
黎可漂	-6092
)———	-6093
1997	-6094
6599	-6095
apec	-6096
▁195	-6097
▁不久前	-6098
▁与会者	-6099
▁中国驻	-6100
▁为什么	-6101
▁今天的	-6102
▁从目前	-6103
▁从这个	-6104
▁他呼吁	-6105
▁以色列	-6106
▁傅全有	-6107
▁分析家	-6108
▁双方就	-6109
▁吕秀莲	-6110
▁周明伟	-6111
▁在今年	-6112
▁成克杰	-6113
▁本报讯	-6114
▁朱总理	-6115
▁胡鞍钢	-6116
▁要加强	-6117
▁要坚持	-6118
▁这不仅	-6119
▁这也是	-6120
▁这些都	-6121
▁这样的	-6122
▁进一步	-6123
▁连日来	-6124
▁阿拉伯	-6125
▁项怀诚	-6126
一个新的	-6127
一个民族	-6128
三次会议	-6129
不可替代	-6130
不得人心	-6131
不得擅自	-6132
不断完善	-6133
不断改善	-6134
不断深化	-6135
不能依靠	-6136
与中国在	-6137
与俄罗斯	-6138
专家学者	-6139
世界上有	-6140
东南沿海	-6141
两岸经贸	-6142
严格执行	-6143
严正交涉	-6144
个国家的	-6145
中东问题	-6146
中国大陆	-6147
中国时报	-6148
中外记者	-6149
中央关于	-6150
中央军委	-6151
中日友好	-6152
中的地位	-6153
中美两国	-6154
中美之间	-6155
主管部门	-6156
义不容辞	-6157
之一就是	-6158
也取得了	-6159
也有利于	-6160
乡镇企业	-6161
了一系列	-6162
亏损企业	-6163
亚欧会议	-6164
人民币的	-6165
人民政府	-6166
今日新闻	-6167
从来没有	-6168
令人满意	-6169
以武拒统	-6170
作了说明	-6171
作战能力	-6172
侵略战争	-6173
保持下去	-6174
信息安全	-6175
信息服务	-6176
值得注意	-6177
充分证明	-6178
克罗地亚	-6179
党委书记	-6180
党的事业	-6181
党的领导	-6182
全体会议	-6183
全球性的	-6184
全社会的	-6185
全面进步	-6186
八十年代	-6187
八国峰会	-6188
八国首脑	-6189
共同宣言	-6190
共同打击	-6191
共和两党	-6192
军事斗争	-6193
军事领域	-6194
准备工作	-6195
出口退税	-6196
分组审议	-6197
分裂活动	-6198
切实履行	-6199
切实维护	-6200
副委员长	-6201
加快发展	-6202
十分重要	-6203
千方百计	-6204
卓有成效	-6205
单边主义	-6206
占百分之	-6207
历史性的	-6208
历史悠久	-6209
历史时期	-6210
反对任何	-6211
发展双边	-6212
发展战略	-6213
发展顺利	-6214
发挥作用	-6215
发表声明	-6216
台湾地区	-6217
各项事业	-6218
同中国的	-6219
同俄罗斯	-6220
和平宪法	-6221
和平解决	-6222
和平解放	-6223
国企改革	-6224
国土资源	-6225
国家有关	-6226
国家机关	-6227
国家计委	-6228
国家财政	-6229
国际军控	-6230
国际地位	-6231
国际组织	-6232
国际经济	-6233
在会谈中	-6234
在大陆的	-6235
地区安全	-6236
地方政府	-6237
坚决拥护	-6238
基础教育	-6239
增发国债	-6240
增长速度	-6241
多次强调	-6242
多种形式	-6243
大陆投资	-6244
失业人员	-6245
失业保险	-6246
奥林匹克	-6247
学习贯彻	-6248
宗教领袖	-6249
实质性的	-6250
实践证明	-6251
客观要求	-6252
密切相关	-6253
对外政策	-6254
对外贸易	-6255
导弹部队	-6256
局部战争	-6257
山姆大叔	-6258
工业企业	-6259
工作作风	-6260
巨大成就	-6261
已经证明	-6262
干部群众	-6263
并发表了	-6264
建立一个	-6265
强大动力	-6266
强烈反对	-6267
当代中国	-6268
必由之路	-6269
必须坚持	-6270
快速反应	-6271
思想道德	-6272
感到满意	-6273
感到高兴	-6274
成功经验	-6275
所作出的	-6276
所有国家	-6277
执政期间	-6278
投资环境	-6279
投资贸易	-6280
抗美援朝	-6281
拭目以待	-6282
指导原则	-6283
指导思想	-6284
推向前进	-6285
支持美国	-6286
收入分配	-6287
政党制度	-6288
政治体制	-6289
政治制度	-6290
政治经济	-6291
文化交流	-6292
新的贡献	-6293
方针政策	-6294
日本国内	-6295
时有发生	-6296
明报专讯	-6297
是世界上	-6298
是中国人	-6299
是建立在	-6300
暂行办法	-6301
最重要的	-6302
月二十日	-6303
有效途径	-6304
有着深刻	-6305
有着深厚	-6306
有识之士	-6307
有限公司	-6308
未成年人	-6309
机组人员	-6310
欢迎仪式	-6311
正在发生	-6312
此次访问	-6313
武器系统	-6314
歪理邪说	-6315
民主主义	-6316
民进党的	-6317
没有改变	-6318
法律制度	-6319
法律法规	-6320
深化改革	-6321
火力战的	-6322
犯罪分子	-6323
犯罪活动	-6324
犯罪行为	-6325
生产力的	-6326
白俄罗斯	-6327
的关键是	-6328
的国际法	-6329
的问题上	-6330
相互支持	-6331
睦邻友好	-6332
知识分子	-6333
社会进步	-6334
神圣职责	-6335
积极推进	-6336
积极支持	-6337
积极贡献	-6338
税费改革	-6339
突飞猛进	-6340
竞争上岗	-6341
竞争力的	-6342
等方面的	-6343
管理公司	-6344
经济形势	-6345
绝对不能	-6346
继续努力	-6347
美国经济	-6348
耶夫总统	-6349
联合采访	-6350
腐败分子	-6351
航空母舰	-6352
良好祝愿	-6353
艰苦奋斗	-6354
行政管理	-6355
表示祝贺	-6356
西藏文化	-6357
解决边界	-6358
警示教育	-6359
计划纲要	-6360
计划经济	-6361
认真研究	-6362
许多国家	-6363
访问高雄	-6364
负有重要	-6365
财政政策	-6366
质量管理	-6367
资源环境	-6368
赫尔姆斯	-6369
起新一轮	-6370
近几年来	-6371
还向客人	-6372
这些年来	-6373
这是我们	-6374
这样一个	-6375
进行为期	-6376
违法行为	-6377
通货膨胀	-6378
通过对话	-6379
造成损害	-6380
都可以谈	-6381
重大变化	-6382
金融服务	-6383
金融风险	-6384
长治久安	-6385
长远来看	-6386
问题广泛	-6387
队伍建设	-6388
陵水机场	-6389
集中力量	-6390
非公有制	-6391
面向未来	-6392
顺利实施	-6393
顺利进行	-6394
预算执行	-6395
领域进行	-6396
驻华大使	-6397
黑龙江省	-6398
齐抓共管	-6399
▁中国愿与	-6400
▁他还表示	-6401
▁可以预见	-6402
▁各级党委	-6403
▁我们坚信	-6404
▁我们真诚	-6405
▁我们认为	-6406
▁据不完全	-6407
▁由此可见	-6408
▁访问期间	-6409
▁这次会议	-6410
▁迟浩田说	-6411
▁长期以来	-6412
一九九六年	-6413
不是偶然的	-6414
中国威胁论	-6415
中国政府对	-6416
中国的利益	-6417
中国的领土	-6418
中国领导人	-6419
中新社北京	-6420
举行了会谈	-6421
亚酞地区的	-6422
京都议定书	-6423
人权问题上	-6424
人民检察院	-6425
人民的利益	-6426
今天上午在	-6427
作出了巨大	-6428
促进和保护	-6429
修正案草案	-6430
充分说明了	-6431
克林顿政府	-6432
全中国人民	-6433
全国委员会	-6434
冷战结束后	-6435
分裂祖国的	-6436
反卫星武器	-6437
反弹道导弹	-6438
发展的要求	-6439
台湾从中国	-6440
台湾当局的	-6441
各级党委和	-6442
各项工作的	-6443
合理的国际	-6444
和平统一的	-6445
和强权政治	-6446
和武警部队	-6447
唐家璇外长	-6448
在亚酞地区	-6449
地方和部门	-6450
坚定地支持	-6451
外交政策的	-6452
天安门广场	-6453
奠定了坚实	-6454
审议通过了	-6455
宪法和法律	-6456
对外政策的	-6457
对话与合作	-6458
崇高的敬意	-6459
常务委员会	-6460
平等的原则	-6461
恶势力团伙	-6462
指挥自动化	-6463
支持和帮助	-6464
支重要力量	-6465
新世纪开始	-6466
是中国人民	-6467
是我们党的	-6468
是社会主义	-6469
更大的发展	-6470
有关部门的	-6471
李洪志及其	-6472
李瑞环主席	-6473
武器装备的	-6474
海峡两岸都	-6475
爱国主义的	-6476
犯罪嫌疑人	-6477
的一件大事	-6478
的一贯立场	-6479
的合作关系	-6480
的政治基础	-6481
的根本原因	-6482
的经济发展	-6483
的邪教本质	-6484
的重大问题	-6485
的重要保证	-6486
的重要讲话	-6487
社会生产力	-6488
社会的稳定	-6489
社会科学界	-6490
稳定发展的	-6491
第十个五年	-6492
结构的调整	-6493
美国侦察机	-6494
美国和中国	-6495
美国国务院	-6496
美国国防部	-6497
美国新政府	-6498
美国的敌人	-6499
解放和发展	-6500
进一步加快	-6501
重要的作用	-6502
金融机构的	-6503
问题的严重	-6504
青少年学生	-6505
飞行员王伟	-6506
首相布莱尔	-6507
▁他强调指出	-6508
▁朱镕基总理	-6509
▁江泽民主席	-6510
▁江泽民强调	-6511
▁美国新政府	-6512
▁马克思主义	-6513
与中国的关系	-6514
世贸组织成员	-6515
中国统一大业	-6516
中外合资经营	-6517
中美撞机事件	-6518
人民民主专政	-6519
今后一个时期	-6520
促进经济发展	-6521
做了大量工作	-6522
农村基层干部	-6523
减轻农民负担	-6524
利用人权问题	-6525
参拜靖国神社	-6526
发展是硬道理	-6527
国务卿鲍威尔	-6528
国家导弹防御	-6529
国有商业银行	-6530
在西部大开发	-6531
坚决反对美国	-6532
增加农民收入	-6533
外交部副部长	-6534
委员会委员长	-6535
对江泽民主席	-6536
对经济发展的	-6537
年部长级会议	-6538
得到新的发展	-6539
战略伙伴关系	-6540
政府工作报告	-6541
政治体制改革	-6542
新的合作领域	-6543
是中华民族的	-6544
是完全正确的	-6545
民族区域自治	-6546
法制建设方面	-6547
现代化建设的	-6548
纯属中国内政	-6549
经济社会发展	-6550
维护社会稳定	-6551
解决这些问题	-6552
负有重要责任	-6553
财务会计报告	-6554
贸易保护主义	-6555
▁只要台湾当局	-6556
▁据不完全统计	-6557
▁新中国成立后	-6558
两岸对话与谈判	-6559
中共中央政治局	-6560
中美关系的发展	-6561
互联网信息服务	-6562
作出了重要贡献	-6563
具有十分重要的	-6564
军队现代化建设	-6565
反弹道导弹条约	-6566
台湾是中国领土	-6567
哲学社会科学界	-6568
实现祖国统一的	-6569
思想政治工作的	-6570
无产阶级革命家	-6571
的一支重要力量	-6572
社会主义现代化	-6573
积极财政政策的	-6574
第三步战略目标	-6575
经济发展和社会	-6576
美国总统克林顿	-6577
良好的发展势头	-6578
亚酞经合组织会议	-6579
努力谋求国家统一	-6580
台湾当局新领导人	-6581
和平共处五项原则	-6582
国家导弹防御系统	-6583
在一个中国原则下	-6584
完成祖国统一大业	-6585
承诺放弃使用武力	-6586
留下了深刻的印象	-6587
领导干部廉洁自律	-6588
▁台湾当局新领导人	-6589
中华民族的伟大复兴	-6590
中国国家主席江泽民	-6591
国务院副总理钱其琛	-6592
国民经济和社会发展	-6593
霸权主义和强权政治	-6594
中国政府解决台湾问题	-6595
共同关心的国际和地区	-6596
对华永久正常贸易关系	-6597
现代化的新的发展阶段	-6598
包括台湾同胞在内的全体	-6599
李岚清等党和国家领导人	-6600
联合国安理会常任理事国	-6601
江泽民同志为核心的党中央	-6602
海峡两岸都坚持一个中国的原则	-6603
中国政府解决台湾问题的基本方针	-6604
)“	-6605
,5	-6606
.7	-6607
.9	-6608
1.	-6609
1/	-6610
33	-6611
34	-6612
42	-6613
53	-6614
67	-6615
72	-6616
75	-6617
78	-6618
dp	-6619
in	-6620
·5	-6621
·9	-6622
’?	-6623
”(	-6624
▁7	-6625
▁●	-6626
▁上	-6627
▁事	-6628
▁仅	-6629
▁军	-6630
▁农	-6631
▁博	-6632
▁可	-6633
▁姚	-6634
▁布	-6635
▁并	-6636
▁戴	-6637
▁拉	-6638
▁换	-6639
▁接	-6640
▁文	-6641
▁是	-6642
▁洪	-6643
▁然	-6644
▁看	-6645
▁短	-6646
▁经	-6647
▁蔡	-6648
▁虽	-6649
▁被	-6650
▁请	-6651
▁谈	-6652
▁谢	-6653
▁赖	-6654
▁车	-6655
▁追	-6656
▁铁	-6657
▁霍	-6658
▁题	-6659
▁鲍	-6660
一万	-6661
一伙	-6662
一双	-6663
一台	-6664
一带	-6665
一张	-6666
一时	-6667
一番	-6668
一词	-6669
七月	-6670
七条	-6671
七百	-6672
万名	-6673
三军	-6674
三种	-6675
上月	-6676
上演	-6677
上看	-6678
上网	-6679
下个	-6680
下月	-6681
下的	-6682
不予	-6683
不住	-6684
不及	-6685
不好	-6686
不如	-6687
不想	-6688
不战	-6689
不提	-6690
不敢	-6691
不法	-6692
不见	-6693
不顾	-6694
与之	-6695
与他	-6696
与其	-6697
专用	-6698
专访	-6699
业内	-6700
东方	-6701
东海	-6702
两条	-6703
两极	-6704
个体	-6705
中乌	-6706
中南	-6707
中古	-6708
中学	-6709
中尼	-6710
中德	-6711
中断	-6712
中智	-6713
中泰	-6714
中澳	-6715
中越	-6716
丰硕	-6717
临时	-6718
为之	-6719
为他	-6720
为例	-6721
主政	-6722
主线	-6723
举世	-6724
义愤	-6725
之初	-6726
之名	-6727
之子	-6728
之所	-6729
之源	-6730
之风	-6731
乌干	-6732
乐队	-6733
乔木	-6734
九十	-6735
九四	-6736
九大	-6737
也与	-6738
也以	-6739
也就	-6740
也称	-6741
了以	-6742
了我	-6743
争朝	-6744
事会	-6745
事长	-6746
二条	-6747
于一	-6748
于人	-6749
五大	-6750
五种	-6751
井水	-6752
亚市	-6753
交接	-6754
交织	-6755
交谈	-6756
交道	-6757
亲属	-6758
人一	-6759
人命	-6760
人家	-6761
人所	-6762
人数	-6763
人是	-6764
人机	-6765
亿万	-6766
亿吨	-6767
仇恨	-6768
介入	-6769
仍将	-6770
从谈	-6771
他有	-6772
仗队	-6773
代代	-6774
以便	-6775
以免	-6776
以前	-6777
以图	-6778
任重	-6779
伊万	-6780
优异	-6781
优越	-6782
会同	-6783
会的	-6784
会面	-6785
传达	-6786
伦敦	-6787
但从	-6788
但愿	-6789
低廉	-6790
低空	-6791
何方	-6792
何种	-6793
余人	-6794
作家	-6795
作此	-6796
使之	-6797
依托	-6798
便捷	-6799
便是	-6800
促使	-6801
俄国	-6802
修宪	-6803
倍感	-6804
倒了	-6805
候选	-6806
假冒	-6807
假的	-6808
假等	-6809
偏见	-6810
做为	-6811
停火	-6812
儿女	-6813
充当	-6814
克雷	-6815
党纪	-6816
入党	-6817
入境	-6818
全文	-6819
八个	-6820
六千	-6821
六章	-6822
兰卡	-6823
关根	-6824
关照	-6825
关联	-6826
兴建	-6827
兴起	-6828
兵某	-6829
其在	-6830
其有	-6831
其行	-6832
其言	-6833
养老	-6834
兼备	-6835
内在	-6836
内战	-6837
军机	-6838
军民	-6839
军用	-6840
冰岛	-6841
准绳	-6842
减产	-6843
减弱	-6844
凭证	-6845
出国	-6846
出境	-6847
出生	-6848
分化	-6849
分部	-6850
则以	-6851
初次	-6852
利润	-6853
到访	-6854
制订	-6855
前列	-6856
前启	-6857
剥夺	-6858
力争	-6859
办了	-6860
功能	-6861
务必	-6862
动态	-6863
动荡	-6864
劲松	-6865
勃勃	-6866
勇敢	-6867
勉励	-6868
勤劳	-6869
包含	-6870
匈牙	-6871
医疗	-6872
十三	-6873
午宴	-6874
午餐	-6875
华夏	-6876
单一	-6877
博士	-6878
卜杜	-6879
占有	-6880
占领	-6881
危及	-6882
却是	-6883
原子	-6884
原本	-6885
原理	-6886
又何	-6887
又要	-6888
双向	-6889
反响	-6890
反潜	-6891
发问	-6892
取向	-6893
取的	-6894
受过	-6895
变动	-6896
口号	-6897
只好	-6898
只字	-6899
可在	-6900
可耻	-6901
可言	-6902
可达	-6903
可靠	-6904
台办	-6905
台胞	-6906
司长	-6907
司马	-6908
合的	-6909
吉尔	-6910
吉林	-6911
同学	-6912
同属	-6913
名列	-6914
后代	-6915
后将	-6916
后所	-6917
后来	-6918
后者	-6919
向台	-6920
否决	-6921
启正	-6922
员工	-6923
员的	-6924
呼声	-6925
和尚	-6926
和政	-6927
和新	-6928
和睦	-6929
唆使	-6930
唐飞	-6931
商会	-6932
商定	-6933
善良	-6934
嘉手	-6935
嘴脸	-6936
器和	-6937
四处	-6938
四日	-6939
四百	-6940
回忆	-6941
回访	-6942
因应	-6943
因而	-6944
困境	-6945
困扰	-6946
围堵	-6947
固然	-6948
国事	-6949
国庆	-6950
土壤	-6951
土库	-6952
在他	-6953
在做	-6954
在希	-6955
在省	-6956
地为	-6957
地产	-6958
地图	-6959
地处	-6960
地步	-6961
地点	-6962
地盘	-6963
地质	-6964
地震	-6965
均为	-6966
坦诚	-6967
培炎	-6968
基说	-6969
堂皇	-6970
塞尔	-6971
塞拜	-6972
填膺	-6973
境界	-6974
增幅	-6975
增至	-6976
增速	-6977
壁垒	-6978
士兵	-6979
壮大	-6980
声浪	-6981
外部	-6982
多位	-6983
多彩	-6984
多来	-6985
多起	-6986
大为	-6987
大型	-6988
大好	-6989
大小	-6990
大有	-6991
大概	-6992
大法	-6993
大而	-6994
天下	-6995
奇迹	-6996
奋发	-6997
奏响	-6998
如期	-6999
妈妈	-7000
姐妹	-7001
姜春	-7002
威武	-7003
宁夏	-7004
宙斯	-7005
定局	-7006
实战	-7007
实时	-7008
审视	-7009
宣示	-7010
害人	-7011
害怕	-7012
家园	-7013
家里	-7014
寄予	-7015
射线	-7016
将与	-7017
将使	-7018
将把	-7019
小渊	-7020
尔干	-7021
尖锐	-7022
尤为	-7023
就不	-7024
就将	-7025
就更	-7026
就连	-7027
尼奥	-7028
尽早	-7029
届三	-7030
展望	-7031
展示	-7032
属的	-7033
山西	-7034
岛屿	-7035
崛起	-7036
工厂	-7037
工艺	-7038
已从	-7039
已将	-7040
已达	-7041
巴中	-7042
巴希	-7043
市的	-7044
带头	-7045
带着	-7046
幌子	-7047
干不	-7048
干出	-7049
平台	-7050
平措	-7051
平说	-7052
年他	-7053
年均	-7054
年间	-7055
并同	-7056
并存	-7057
并有	-7058
幻影	-7059
庆林	-7060
库区	-7061
库存	-7062
应邀	-7063
废止	-7064
废除	-7065
延续	-7066
延长	-7067
建党	-7068
建国	-7069
开启	-7070
开局	-7071
开庭	-7072
开采	-7073
弊端	-7074
式的	-7075
引诱	-7076
强力	-7077
强加	-7078
强势	-7079
强国	-7080
强度	-7081
强有	-7082
强盛	-7083
强行	-7084
归功	-7085
归纳	-7086
归还	-7087
当初	-7088
录的	-7089
形容	-7090
彩电	-7091
往开	-7092
征收	-7093
征求	-7094
征税	-7095
得起	-7096
微妙	-7097
心态	-7098
心思	-7099
心情	-7100
志杰	-7101
忠诚	-7102
忧虑	-7103
急于	-7104
急需	-7105
总和	-7106
恩格	-7107
恪守	-7108
悄然	-7109
悉尼	-7110
惩处	-7111
想到	-7112
想把	-7113
想法	-7114
想象	-7115
愈加	-7116
愈演	-7117
愈烈	-7118
意向	-7119
意料	-7120
感染	-7121
感觉	-7122
愤怒	-7123
慰问	-7124
憎恨	-7125
成分	-7126
成是	-7127
成行	-7128
成都	-7129
我对	-7130
我就	-7131
我想	-7132
或许	-7133
战云	-7134
战后	-7135
所言	-7136
所长	-7137
打假	-7138
打掉	-7139
打着	-7140
扩展	-7141
扭曲	-7142
扰乱	-7143
扶养	-7144
承包	-7145
抑制	-7146
抓紧	-7147
投身	-7148
抛弃	-7149
抬头	-7150
抱怨	-7151
拉动	-7152
拉萨	-7153
招生	-7154
招致	-7155
拯救	-7156
持有	-7157
指数	-7158
挽救	-7159
授权	-7160
接班	-7161
推迟	-7162
提交	-7163
提名	-7164
提起	-7165
揭示	-7166
揭露	-7167
搁置	-7168
搜救	-7169
撤回	-7170
撤销	-7171
收益	-7172
改组	-7173
放心	-7174
放的	-7175
放过	-7176
政体	-7177
政制	-7178
政客	-7179
政界	-7180
效能	-7181
敌对	-7182
敌视	-7183
救捞	-7184
教学	-7185
教材	-7186
敢于	-7187
散去	-7188
数百	-7189
文中	-7190
斯潘	-7191
斯里	-7192
新任	-7193
新增	-7194
新生	-7195
方便	-7196
方米	-7197
旁贷	-7198
无辜	-7199
既然	-7200
日元	-7201
日夜	-7202
日子	-7203
日程	-7204
早晚	-7205
时将	-7206
时许	-7207
星座	-7208
星期	-7209
晚上	-7210
晚宴	-7211
暂时	-7212
暗中	-7213
暗示	-7214
更上	-7215
更趋	-7216
更迭	-7217
最初	-7218
最快	-7219
月至	-7220
有其	-7221
有时	-7222
服从	-7223
期的	-7224
未见	-7225
本土	-7226
本届	-7227
本期	-7228
本领	-7229
权法	-7230
权限	-7231
条文	-7232
来京	-7233
来台	-7234
来得	-7235
来讲	-7236
枢纽	-7237
某国	-7238
查获	-7239
标语	-7240
校外	-7241
样子	-7242
核实	-7243
核查	-7244
根廷	-7245
横加	-7246
横幅	-7247
欺骗	-7248
款待	-7249
歌曲	-7250
正华	-7251
正好	-7252
正统	-7253
正视	-7254
此一	-7255
此访	-7256
步入	-7257
死刑	-7258
残害	-7259
残忍	-7260
残酷	-7261
毒贩	-7262
比亚	-7263
比赛	-7264
气焰	-7265
气象	-7266
水面	-7267
永康	-7268
江西	-7269
汪道	-7270
沉重	-7271
沦为	-7272
河北	-7273
治安	-7274
泄密	-7275
泅渡	-7276
泉州	-7277
法理	-7278
泡沫	-7279
波普	-7280
波罗	-7281
注入	-7282
泰方	-7283
洋平	-7284
洛斯	-7285
活生	-7286
派团	-7287
派系	-7288
流失	-7289
济南	-7290
消灭	-7291
涉案	-7292
淡化	-7293
清华	-7294
清单	-7295
清算	-7296
渡海	-7297
滋生	-7298
滞后	-7299
滨逊	-7300
漏洞	-7301
激光	-7302
激荡	-7303
激起	-7304
火炮	-7305
灿烂	-7306
炒作	-7307
点是	-7308
烟草	-7309
热爱	-7310
煽动	-7311
父亲	-7312
物价	-7313
物的	-7314
特性	-7315
犹新	-7316
独资	-7317
猖獗	-7318
献身	-7319
率的	-7320
王牌	-7321
珍惜	-7322
理念	-7323
生前	-7324
生动	-7325
生效	-7326
生物	-7327
用好	-7328
由他	-7329
由来	-7330
留学	-7331
留给	-7332
疏导	-7333
的不	-7334
的丑	-7335
的两	-7336
的女	-7337
的成	-7338
的核	-7339
的每	-7340
的海	-7341
的火	-7342
的病	-7343
的确	-7344
的福	-7345
的精	-7346
的苦	-7347
的那	-7348
盛会	-7349
目击	-7350
盲目	-7351
直航	-7352
直辖	-7353
省的	-7354
看望	-7355
看清	-7356
真抓	-7357
真相	-7358
眼泪	-7359
着作	-7360
瞬间	-7361
知名	-7362
短缺	-7363
磨难	-7364
社评	-7365
祗是	-7366
祗有	-7367
祗能	-7368
祗要	-7369
福祥	-7370
离境	-7371
秋天	-7372
秋季	-7373
种植	-7374
科恩	-7375
称号	-7376
称的	-7377
稍后	-7378
税的	-7379
稳固	-7380
穿于	-7381
突击	-7382
立刻	-7383
端倪	-7384
笔者	-7385
第七	-7386
等到	-7387
答案	-7388
简要	-7389
管制	-7390
篇幅	-7391
素养	-7392
紧跟	-7393
纠纷	-7394
纠风	-7395
红军	-7396
约为	-7397
约占	-7398
约有	-7399
约翰	-7400
级别	-7401
纽带	-7402
终止	-7403
给我	-7404
绝于	-7405
统筹	-7406
维的	-7407
维系	-7408
缔约	-7409
编辑	-7410
编队	-7411
缴纳	-7412
网吧	-7413
网民	-7414
美日	-7415
美朝	-7416
美的	-7417
群体	-7418
老人	-7419
考试	-7420
者称	-7421
耕地	-7422
耗资	-7423
联席	-7424
联署	-7425
联谊	-7426
股权	-7427
能有	-7428
脑筋	-7429
腾飞	-7430
自立	-7431
致富	-7432
致电	-7433
舞台	-7434
艰辛	-7435
色彩	-7436
花了	-7437
花圈	-7438
英文	-7439
荷兰	-7440
获悉	-7441
获益	-7442
营业	-7443
葡萄	-7444
蒙古	-7445
蓝军	-7446
蔓延	-7447
蔬菜	-7448
藉此	-7449
藏着	-7450
藏语	-7451
蛮横	-7452
行情	-7453
被动	-7454
裁减	-7455
装甲	-7456
装箱	-7457
要好	-7458
要点	-7459
要由	-7460
要靠	-7461
观的	-7462
言之	-7463
警觉	-7464
认清	-7465
认知	-7466
讲了	-7467
论文	-7468
论断	-7469
论证	-7470
论调	-7471
设有	-7472
访俄	-7473
证监	-7474
试射	-7475
话说	-7476
该是	-7477
语言	-7478
诸如	-7479
贝尔	-7480
责无	-7481
贬值	-7482
赖以	-7483
赠送	-7484
走势	-7485
赴美	-7486
起伏	-7487
超越	-7488
越战	-7489
趋向	-7490
跑到	-7491
跟踪	-7492
路子	-7493
车辆	-7494
转换	-7495
转机	-7496
载体	-7497
辩护	-7498
边疆	-7499
过于	-7500
过分	-7501
过境	-7502
过重	-7503
迈出	-7504
迈向	-7505
迈进	-7506
运转	-7507
运输	-7508
近代	-7509
近的	-7510
还未	-7511
还需	-7512
这对	-7513
这部	-7514
进取	-7515
远见	-7516
违犯	-7517
违背	-7518
违规	-7519
连任	-7520
迫害	-7521
迷惑	-7522
迹象	-7523
追随	-7524
选用	-7525
造就	-7526
道远	-7527
遗产	-7528
那个	-7529
邦交	-7530
邮报	-7531
部件	-7532
配备	-7533
酞阳	-7534
里面	-7535
重庆	-7536
重建	-7537
重心	-7538
重组	-7539
金钱	-7540
金马	-7541
钢铁	-7542
钻石	-7543
铁山	-7544
铁映	-7545
铲除	-7546
锋队	-7547
锨起	-7548
长官	-7549
长清	-7550
门前	-7551
门口	-7552
队长	-7553
阳市	-7554
陆续	-7555
限于	-7556
院所	-7557
随后	-7558
隐蔽	-7559
难点	-7560
集成	-7561
零售	-7562
震动	-7563
面目	-7564
革新	-7565
韩朝	-7566
顺序	-7567
顽抗	-7568
颁布	-7569
预备	-7570
领馆	-7571
颇有	-7572
飞到	-7573
飞跃	-7574
饭店	-7575
马列	-7576
驾驭	-7577
驾驶	-7578
骄傲	-7579
骗取	-7580
高速	-7581
鲁克	-7582
鲁阿	-7583
鲜血	-7584
黎明	-7585
黑手	-7586
130	-7587
2%。	-7588
700	-7589
750	-7590
863	-7591
95%	-7592
gdp	-7593
tmd	-7594
——“	-7595
”,“	-7596
▁18	-7597
▁50	-7598
▁80	-7599
▁90	-7600
▁一段	-7601
▁不同	-7602
▁不少	-7603
▁不论	-7604
▁中俄	-7605
▁中巴	-7606
▁之后	-7607
▁人权	-7608
▁从此	-7609
▁企业	-7610
▁保证	-7611
▁其二	-7612
▁再次	-7613
▁农村	-7614
▁凡是	-7615
▁分析	-7616
▁刚刚	-7617
▁历史	-7618
▁可见	-7619
▁叶震	-7620
▁后勤	-7621
▁在这	-7622
▁声明	-7623
▁大陆	-7624
▁如此	-7625
▁学习	-7626
▁对此	-7627
▁小泉	-7628
▁少数	-7629
▁建交	-7630
▁开展	-7631
▁当今	-7632
▁当天	-7633
▁当局	-7634
▁截至	-7635
▁所有	-7636
▁打击	-7637
▁报告	-7638
▁据说	-7639
▁提高	-7640
▁既然	-7641
▁明年	-7642
▁更为	-7643
▁最后	-7644
▁最终	-7645
▁欧洲	-7646
▁此前	-7647
▁特别	-7648
▁王伟	-7649
▁直到	-7650
▁短短	-7651
▁确实	-7652
▁究竟	-7653
▁第十	-7654
▁继续	-7655
▁维护	-7656
▁联合	-7657
▁至此	-7658
▁认识	-7659
▁许多	-7660
▁还有	-7661
▁适应	-7662
▁那么	-7663
▁需要	-7664
▁鲍尔	-7665
一个月	-7666
一体化	-7667
一周年	-7668
一直是	-7669
万美元	-7670
三月十	-7671
上人员	-7672
不仅要	-7673
不会坐	-7674
不只是	-7675
不喜欢	-7676
不对称	-7677
与东盟	-7678
与中亚	-7679
与会者	-7680
与和平	-7681
与国际	-7682
与布什	-7683
与当地	-7684
与朝鲜	-7685
专利法	-7686
专院校	-7687
世纪末	-7688
两国都	-7689
两年前	-7690
中国海	-7691
中宣部	-7692
中纪委	-7693
中西部	-7694
中远程	-7695
中都有	-7696
中青年	-7697
为主要	-7698
为台湾	-7699
为我国	-7700
为指导	-7701
主办的	-7702
主持了	-7703
主要靠	-7704
之所在	-7705
乌干达	-7706
九九年	-7707
也可能	-7708
也存在	-7709
也指出	-7710
也表明	-7711
也表示	-7712
了大量	-7713
了美国	-7714
了部分	-7715
争朝夕	-7716
事业的	-7717
事务的	-7718
二十九	-7719
二十二	-7720
二十年	-7721
于企业	-7722
于当年	-7723
于昨日	-7724
互惠的	-7725
些什么	-7726
些年来	-7727
交往中	-7728
交流和	-7729
人员的	-7730
人员约	-7731
人权和	-7732
今天还	-7733
今年一	-7734
今年前	-7735
今年是	-7736
仍没有	-7737
从国际	-7738
从谈起	-7739
他们对	-7740
他表示	-7741
代理人	-7742
代表也	-7743
代表和	-7744
以任何	-7745
仪仗队	-7746
价值的	-7747
任务和	-7748
任命为	-7749
优秀的	-7750
会不会	-7751
会带来	-7752
会晤的	-7753
会见时	-7754
会议员	-7755
但也有	-7756
但仍有	-7757
使中国	-7758
使用武	-7759
依然是	-7760
依赖性	-7761
保护伞	-7762
信仰的	-7763
信赖的	-7764
候选人	-7765
做任何	-7766
做好了	-7767
充分地	-7768
党主席	-7769
全党的	-7770
全新的	-7771
全过程	-7772
公布了	-7773
公里的	-7774
关键在	-7775
军兵种	-7776
军方的	-7777
农民工	-7778
决不能	-7779
决心和	-7780
几十年	-7781
出口额	-7782
分之二	-7783
分子的	-7784
分裂的	-7785
切实把	-7786
到上海	-7787
到北京	-7788
制定的	-7789
前不久	-7790
前启后	-7791
副总统	-7792
加剧了	-7793
加大了	-7794
加强与	-7795
加深了	-7796
劳动者	-7797
匈牙利	-7798
北京的	-7799
十五大	-7800
半个多	-7801
协定的	-7802
南联盟	-7803
卡塔尔	-7804
印度和	-7805
危险的	-7806
却没有	-7807
原子弹	-7808
原有的	-7809
及其它	-7810
反分裂	-7811
发生在	-7812
发言时	-7813
取消了	-7814
取消对	-7815
受到了	-7816
变成了	-7817
召开了	-7818
可兑换	-7819
可宝贵	-7820
台湾人	-7821
台湾牌	-7822
史上的	-7823
各单位	-7824
各国的	-7825
各宗教	-7826
各有所	-7827
各界的	-7828
各部门	-7829
合同的	-7830
吉林省	-7831
同时又	-7832
同胞的	-7833
听其言	-7834
和一些	-7835
和任务	-7836
和军事	-7837
和动向	-7838
和努力	-7839
和协调	-7840
和双方	-7841
和国防	-7842
和对待	-7843
和将来	-7844
和就业	-7845
和弘扬	-7846
和投资	-7847
和朝鲜	-7848
和英国	-7849
和规律	-7850
和规范	-7851
和贸易	-7852
和部署	-7853
和长远	-7854
和非洲	-7855
和香港	-7856
唐外长	-7857
嘉手纳	-7858
四日电	-7859
困难的	-7860
土库曼	-7861
在一定	-7862
在促进	-7863
在印度	-7864
在发展	-7865
在回答	-7866
在国内	-7867
在国家	-7868
在完善	-7869
在接受	-7870
在推动	-7871
在有些	-7872
在未来	-7873
在目前	-7874
在经济	-7875
在经贸	-7876
在维护	-7877
在自己	-7878
在西藏	-7879
在这种	-7880
地了解	-7881
地位的	-7882
地希望	-7883
坚持了	-7884
型导弹	-7885
城市化	-7886
培养和	-7887
培养的	-7888
基辛格	-7889
塞拜疆	-7890
增加对	-7891
增强了	-7892
增进了	-7893
增长率	-7894
复杂化	-7895
多公里	-7896
多样化	-7897
大学的	-7898
大环境	-7899
天然气	-7900
奉行的	-7901
姜春云	-7902
安南说	-7903
官兵的	-7904
官员和	-7905
宙斯盾	-7906
实力和	-7907
实质性	-7908
实验室	-7909
审议和	-7910
客人们	-7911
宣布将	-7912
富裕的	-7913
对全国	-7914
对新党	-7915
对方的	-7916
对有关	-7917
对经济	-7918
导致了	-7919
将举行	-7920
将台湾	-7921
将带来	-7922
将得到	-7923
就在于	-7924
就越大	-7925
就难以	-7926
尽一切	-7927
尽最大	-7928
局势的	-7929
崭新的	-7930
工作和	-7931
工作是	-7932
工商联	-7933
已多次	-7934
已就此	-7935
已经在	-7936
已超过	-7937
巴尔干	-7938
巴希尔	-7939
希望在	-7940
干部因	-7941
平等和	-7942
年中央	-7943
年历史	-7944
并逐步	-7945
广泛的	-7946
应成为	-7947
建立和	-7948
建设好	-7949
开展了	-7950
形成的	-7951
影响到	-7952
役军官	-7953
很可能	-7954
很高兴	-7955
心诚意	-7956
必须把	-7957
志愿军	-7958
态度的	-7959
怎样的	-7960
总产量	-7961
总统的	-7962
总额的	-7963
患意识	-7964
愉快地	-7965
愿意同	-7966
成熟的	-7967
成长的	-7968
我军的	-7969
或他人	-7970
战场上	-7971
房地产	-7972
所得税	-7973
所采取	-7974
才能有	-7975
打交道	-7976
打击了	-7977
打开了	-7978
打破了	-7979
扩大了	-7980
把一个	-7981
把自己	-7982
指导下	-7983
接近的	-7984
推动下	-7985
推动中	-7986
措施和	-7987
提高对	-7988
支持的	-7989
政府将	-7990
政治和	-7991
政治品	-7992
政策是	-7993
教育等	-7994
散布的	-7995
数字化	-7996
斯表示	-7997
新任务	-7998
新千年	-7999
新华社	-8000
新当局	-8001
新总统	-8002
新特点	-8003
新知识	-8004
新领域	-8005
方式的	-8006
方表示	-8007
方面都	-8008
无不胜	-8009
无条件	-8010
日本曾	-8011
时不我	-8012
是世界	-8013
是制定	-8014
是印度	-8015
是国有	-8016
是当今	-8017
是我军	-8018
是提高	-8019
是日本	-8020
是朝鲜	-8021
是注定	-8022
是紧密	-8023
是解决	-8024
更加强	-8025
更好的	-8026
更重要	-8027
曾庆红	-8028
最后说	-8029
最基本	-8030
最大限	-8031
最敏感	-8032
最直接	-8033
最起码	-8034
月下旬	-8035
月十七	-8036
有一定	-8037
有专家	-8038
有以下	-8039
有承担	-8040
有步骤	-8041
有没有	-8042
有的是	-8043
本人的	-8044
机场上	-8045
机抵达	-8046
机构和	-8047
李肇星	-8048
极大地	-8049
构成了	-8050
构成的	-8051
核威慑	-8052
武力来	-8053
比过去	-8054
比重为	-8055
民众的	-8056
汪道涵	-8057
河流域	-8058
法律和	-8059
法西斯	-8060
活动中	-8061
海协与	-8062
涉及到	-8063
深刻而	-8064
深层次	-8065
湖南省	-8066
满足了	-8067
演习的	-8068
演练的	-8069
激烈的	-8070
爱国者	-8071
特殊性	-8072
牺牲品	-8073
现在有	-8074
现实都	-8075
现有的	-8076
理性的	-8077
生产者	-8078
生存权	-8079
电子战	-8080
电视和	-8081
的一千	-8082
的一次	-8083
的东西	-8084
的两大	-8085
的中心	-8086
的举措	-8087
的人们	-8088
的人民	-8089
的体制	-8090
的保护	-8091
的信任	-8092
的儿子	-8093
的决策	-8094
的决议	-8095
的前程	-8096
的坚强	-8097
的外国	-8098
的大国	-8099
的大门	-8100
的夫人	-8101
的宗教	-8102
的对策	-8103
的年轻	-8104
的建设	-8105
的总统	-8106
的愿望	-8107
的成效	-8108
的成立	-8109
的打击	-8110
的承诺	-8111
的探索	-8112
的接触	-8113
的整体	-8114
的步伐	-8115
的气氛	-8116
的深入	-8117
的深化	-8118
的环境	-8119
的理论	-8120
的生命	-8121
的生活	-8122
的程度	-8123
的空军	-8124
的空袭	-8125
的策略	-8126
的组织	-8127
的罪恶	-8128
的职责	-8129
的胜利	-8130
的观点	-8131
的话题	-8132
的调查	-8133
的谈判	-8134
的财产	-8135
的速度	-8136
的部分	-8137
的集团	-8138
的需求	-8139
的领域	-8140
的高度	-8141
监督与	-8142
监督法	-8143
目前有	-8144
目标的	-8145
直辖市	-8146
真正从	-8147
着名的	-8148
科学和	-8149
秩序的	-8150
积极地	-8151
积极性	-8152
稳定是	-8153
空间站	-8154
立足于	-8155
第三代	-8156
第三次	-8157
等领域	-8158
管理上	-8159
管理法	-8160
粮食的	-8161
繁荣的	-8162
纪念碑	-8163
纲领性	-8164
给世界	-8165
继往开	-8166
美军在	-8167
美国对	-8168
美国将	-8169
美国等	-8170
老布什	-8171
老挝的	-8172
而不断	-8173
而且要	-8174
而进行	-8175
聚集在	-8176
能力的	-8177
获得了	-8178
藏语文	-8179
行不通	-8180
表示了	-8181
表达了	-8182
被告人	-8183
被认为	-8184
要发展	-8185
要和平	-8186
要坚决	-8187
要注重	-8188
要部署	-8189
观其行	-8190
计划中	-8191
认为这	-8192
让我们	-8193
议会的	-8194
记者们	-8195
讲学习	-8196
许可证	-8197
访问过	-8198
谈判中	-8199
财政和	-8200
财政要	-8201
责任制	-8202
责任感	-8203
贯穿于	-8204
资金的	-8205
走出去	-8206
身安全	-8207
近几年	-8208
还可以	-8209
还指出	-8210
还相当	-8211
还要有	-8212
还谈到	-8213
这一条	-8214
这就是	-8215
这样说	-8216
违反了	-8217
追求的	-8218
道路上	-8219
郭金龙	-8220
都应该	-8221
都没有	-8222
都知道	-8223
酞多了	-8224
重视和	-8225
阐明了	-8226
防治法	-8227
阻挡的	-8228
阿根廷	-8229
阿萨德	-8230
陈德良	-8231
隆重的	-8232
集团军	-8233
非正式	-8234
面积的	-8235
预定的	-8236
领土的	-8237
领导者	-8238
首先对	-8239
高兴地	-8240
鲁滨逊	-8241
1000	-8242
1992	-8243
1994	-8244
1996	-8245
2500	-8246
40%,	-8247
:———	-8248
▁一九八	-8249
▁一些人	-8250
▁丁关根	-8251
▁中国在	-8252
▁中国是	-8253
▁二是要	-8254
▁他重申	-8255
▁代表团	-8256
▁伴随着	-8257
▁作为党	-8258
▁党中央	-8259
▁历史和	-8260
▁去年底	-8261
▁发言人	-8262
▁只要能	-8263
▁各地在	-8264
▁吴邦国	-8265
▁国民党	-8266
▁在今天	-8267
▁在会见	-8268
▁在国际	-8269
▁在这一	-8270
▁委员们	-8271
▁实际上	-8272
▁我们也	-8273
▁我们对	-8274
▁我们要	-8275
▁据分析	-8276
▁曾培炎	-8277
▁曾庆红	-8278
▁李铁映	-8279
▁毛泽东	-8280
▁民主党	-8281
▁美国和	-8282
▁要通过	-8283
▁记者问	-8284
▁谢长廷	-8285
▁贾庆林	-8286
▁赵启正	-8287
▁近几年	-8288
▁这对于	-8289
▁这表明	-8290
▁这说明	-8291
▁龙永图	-8292
一个突出	-8293
一个重大	-8294
一中原则	-8295
一些言论	-8296
一些需要	-8297
一再呼吁	-8298
一切代价	-8299
一千一百	-8300
一种新的	-8301
一贯主张	-8302
一贯支持	-8303
一项重要	-8304
三代领导	-8305
上任以来	-8306
下个世纪	-8307
下岗职工	-8308
不仅是对	-8309
不会允许	-8310
不会影响	-8311
不分大小	-8312
不可分割	-8313
不断加强	-8314
不断增强	-8315
不正之风	-8316
不能动摇	-8317
与陈水扁	-8318
专业技术	-8319
专家认为	-8320
专项斗争	-8321
东部地区	-8322
两会共识	-8323
两国建交	-8324
两国高层	-8325
两岸对话	-8326
严厉打击	-8327
严峻挑战	-8328
严格遵守	-8329
严重后果	-8330
个方面的	-8331
个百分点	-8332
中东地区	-8333
中华文化	-8334
中国不是	-8335
中国入世	-8336
中国只有	-8337
中国坚持	-8338
中国愿意	-8339
中国革命	-8340
中小企业	-8341
中巴两国	-8342
中最重要	-8343
中的作用	-8344
中美建交	-8345
主权独立	-8346
主要政党	-8347
乃至全球	-8348
义愤填膺	-8349
乔木同志	-8350
九届人大	-8351
也反映了	-8352
也是我国	-8353
事业单位	-8354
二月二十	-8355
互惠互利	-8356
互联网的	-8357
五中全会	-8358
五十七届	-8359
五十周年	-8360
亚洲金融	-8361
亚酞各国	-8362
交换看法	-8363
产业结构	-8364
产品生产	-8365
人参加了	-8366
人士指出	-8367
人大及其	-8368
人权外交	-8369
人权高于	-8370
人民防空	-8371
人的权利	-8372
人类进入	-8373
亿多人口	-8374
亿美元的	-8375
今天在京	-8376
从一九九	-8377
从来都是	-8378
他们提出	-8379
付出代价	-8380
代表工作	-8381
以更好地	-8382
任何一方	-8383
任何外国	-8384
任何问题	-8385
任务之一	-8386
企业创造	-8387
伊万诺夫	-8388
优惠待遇	-8389
作为人民	-8390
作出努力	-8391
作战指挥	-8392
依然存在	-8393
依靠人民	-8394
侵略历史	-8395
促进作用	-8396
促进共同	-8397
促进友谊	-8398
俄美两国	-8399
保护环境	-8400
保险公司	-8401
保障体系	-8402
信仰自由	-8403
信息网络	-8404
修改宪法	-8405
修改意见	-8406
充分表明	-8407
充满信心	-8408
党员干部	-8409
党的路线	-8410
党组织的	-8411
党风廉政	-8412
入主白宫	-8413
全党同志	-8414
全国各地	-8415
全国法院	-8416
全心全意	-8417
全面提高	-8418
全面贯彻	-8419
公开宣布	-8420
六月二十	-8421
共产主义	-8422
共同目标	-8423
共同责任	-8424
共和党人	-8425
关系史上	-8426
关键时刻	-8427
关键是要	-8428
具体部署	-8429
内的国际	-8430
内资企业	-8431
军事冲突	-8432
军事合作	-8433
军转安置	-8434
农业综合	-8435
决定性的	-8436
几个方面	-8437
几乎所有	-8438
出售神盾	-8439
分裂主张	-8440
分裂图谋	-8441
列宁主义	-8442
初步建立	-8443
利用外资	-8444
别的国家	-8445
到了中国	-8446
制度建设	-8447
制约因素	-8448
加大力度	-8449
加大金融	-8450
加强信任	-8451
加强国际	-8452
努力学习	-8453
包括美国	-8454
化学武器	-8455
北京军区	-8456
北京大学	-8457
十分不满	-8458
华人华侨	-8459
协调发展	-8460
南中国海	-8461
印度议员	-8462
历史机遇	-8463
厦门远华	-8464
去年五月	-8465
友好协会	-8466
双方合作	-8467
双边协议	-8468
双边贸易	-8469
反复强调	-8470
发展计划	-8471
发表谈话	-8472
取得实效	-8473
只争朝夕	-8474
台商投资	-8475
台湾安全	-8476
台湾独立	-8477
司法机关	-8478
各国人民	-8479
各国政府	-8480
各有所长	-8481
各种形式	-8482
各项政策	-8483
合作项目	-8484
合理使用	-8485
合理利用	-8486
吉尔吉斯	-8487
同时表示	-8488
同期增长	-8489
吕秀莲的	-8490
吸引外资	-8491
和平谈判	-8492
和睦相处	-8493
四次会议	-8494
因为美国	-8495
团结起来	-8496
固定资产	-8497
国事访问	-8498
国内市场	-8499
国务院对	-8500
国家利益	-8501
国家新闻	-8502
国家机密	-8503
国统纲领	-8504
国防政策	-8505
国防预算	-8506
国际金融	-8507
在一九九	-8508
在台湾和	-8509
在社会上	-8510
地质灾害	-8511
坚持不懈	-8512
城市建设	-8513
基层干部	-8514
基本实现	-8515
增加军费	-8516
增进彼此	-8517
外来干涉	-8518
外经贸部	-8519
外资企业	-8520
外资银行	-8521
外长会议	-8522
多边贸易	-8523
大力加强	-8524
委员们就	-8525
委员会的	-8526
委员提出	-8527
学者认为	-8528
官方关系	-8529
官方往来	-8530
实现脱困	-8531
实际情况	-8532
实验室里	-8533
审计机关	-8534
对俄罗斯	-8535
对台政策	-8536
对此表示	-8537
对记者说	-8538
导航系统	-8539
射线探测	-8540
将有利于	-8541
尔布鲁克	-8542
就不可能	-8543
就是美国	-8544
就谈不上	-8545
尽快实现	-8546
巨大变化	-8547
已成定局	-8548
已经到了	-8549
已经开始	-8550
市场准入	-8551
市场竞争	-8552
布什执政	-8553
布希总统	-8554
希望两国	-8555
希望中国	-8556
希望继续	-8557
常委会议	-8558
平均每年	-8559
年代以来	-8560
年代后期	-8561
年轻一代	-8562
并将继续	-8563
建立公正	-8564
开发建设	-8565
开放市场	-8566
引向何方	-8567
强有力的	-8568
当前国际	-8569
当务之急	-8570
形成合力	-8571
影响我国	-8572
往年一样	-8573
得到加强	-8574
德才兼备	-8575
德拉鲁阿	-8576
必须共同	-8577
必须适应	-8578
必须遵守	-8579
思想观念	-8580
悲剧重演	-8581
愈演愈烈	-8582
感到震惊	-8583
愿意看到	-8584
成为美国	-8585
成功实践	-8586
成立以来	-8587
我们党的	-8588
我军炮兵	-8589
战略伙伴	-8590
战略方针	-8591
所作所为	-8592
所发生的	-8593
扩大共识	-8594
扶贫开发	-8595
承前启后	-8596
技术试验	-8597
持续发展	-8598
指出的是	-8599
振兴经济	-8600
控制人口	-8601
提高效益	-8602
摆脱贫困	-8603
攻击潜艇	-8604
政府一贯	-8605
政府坚持	-8606
政治关系	-8607
政治基础	-8608
政治问题	-8609
政策调整	-8610
教育成果	-8611
文化台独	-8612
文化建设	-8613
文明建设	-8614
斯里兰卡	-8615
新的形势	-8616
新的成就	-8617
新闻媒体	-8618
方面具有	-8619
旗帜鲜明	-8620
无从谈起	-8621
无权干涉	-8622
无论如何	-8623
早日实现	-8624
明显增加	-8625
明显成效	-8626
明确规定	-8627
是新世纪	-8628
是注定要	-8629
暴力冲突	-8630
更大发展	-8631
更高要求	-8632
最根本的	-8633
有何评论	-8634
有关单位	-8635
有关规定	-8636
有利时机	-8637
有所作为	-8638
有报道说	-8639
有效利用	-8640
有的甚至	-8641
朝中两国	-8642
朝鲜劳动	-8643
本社记者	-8644
权力机关	-8645
权力机构	-8646
权威人士	-8647
来之不易	-8648
来到中国	-8649
核武器的	-8650
根本原因	-8651
欧洲国家	-8652
正义斗争	-8653
正式友好	-8654
此次访华	-8655
武器核查	-8656
民主党派	-8657
民事责任	-8658
民族尊严	-8659
民族解放	-8660
水面舰艇	-8661
江总书记	-8662
没有出路	-8663
河野洋平	-8664
沿海地区	-8665
波罗的海	-8666
混业经营	-8667
清华大学	-8668
游戏规则	-8669
潜艇部队	-8670
澳门回归	-8671
热烈掌声	-8672
牢牢把握	-8673
特别是在	-8674
现代战争	-8675
甚至认为	-8676
生活方式	-8677
用侦察机	-8678
由来已久	-8679
的劳动力	-8680
的基础和	-8681
的第一个	-8682
的角度看	-8683
的过程中	-8684
的问候和	-8685
监督工作	-8686
目前正在	-8687
直接投资	-8688
相互信任	-8689
相互理解	-8690
相当大的	-8691
真抓实干	-8692
睦邻互信	-8693
知识创新	-8694
矿产资源	-8695
破获贩毒	-8696
示威游行	-8697
社会制度	-8698
社会调查	-8699
科学文化	-8700
科学知识	-8701
科技期刊	-8702
科技练兵	-8703
穆沙拉夫	-8704
空军基地	-8705
站在时代	-8706
章启月说	-8707
第三产业	-8708
等一系列	-8709
答记者问	-8710
筹集资金	-8711
签字仪式	-8712
精神财富	-8713
紧迫任务	-8714
纪念大会	-8715
组织实施	-8716
组织形式	-8717
经历了一	-8718
经济关系	-8719
经济利益	-8720
经济改革	-8721
经济运行	-8722
继续发挥	-8723
继续实施	-8724
综合治理	-8725
缔约双方	-8726
网络经济	-8727
美中两国	-8728
美国一些	-8729
美国人民	-8730
美国大选	-8731
美国对华	-8732
美国已经	-8733
美国应该	-8734
美国必须	-8735
美国部署	-8736
美国飞机	-8737
联合行动	-8738
联席会议	-8739
联邦政府	-8740
聪明制裁	-8741
股票市场	-8742
能力建设	-8743
能否真正	-8744
能够得到	-8745
自己的事	-8746
航天技术	-8747
航空兵某	-8748
良好基础	-8749
良性循环	-8750
若干政策	-8751
获得成功	-8752
蓬勃发展	-8753
行为指标	-8754
行之有效	-8755
行政部门	-8756
衷心祝愿	-8757
被任命为	-8758
装备保障	-8759
西方反华	-8760
西方国家	-8761
西藏问题	-8762
要更好地	-8763
要求各地	-8764
认真学习	-8765
认真落实	-8766
议长大会	-8767
记忆犹新	-8768
记者会上	-8769
记者有关	-8770
设施建设	-8771
访问期间	-8772
调整结构	-8773
调查表明	-8774
责无旁贷	-8775
贫困问题	-8776
购买武器	-8777
贯彻执行	-8778
资本市场	-8779
资源配置	-8780
走向分裂	-8781
跨国公司	-8782
转移支付	-8783
达成共识	-8784
达赖集团	-8785
迅速发展	-8786
近海进行	-8787
还表现在	-8788
这一思想	-8789
这一战略	-8790
这一计划	-8791
这方面的	-8792
这是中国	-8793
进行改革	-8794
通过决议	-8795
通过学习	-8796
造就大批	-8797
遗憾的是	-8798
遭到失败	-8799
采取一些	-8800
采取措施	-8801
重大军事	-8802
重要影响	-8803
重要指示	-8804
金融中心	-8805
金融市场	-8806
金融资产	-8807
长时间的	-8808
长期稳定	-8809
问题上有	-8810
防御系统	-8811
顺利发展	-8812
预计今年	-8813
领导小组	-8814
飞行规则	-8815
首次会晤	-8816
马列主义	-8817
高度警惕	-8818
高级官员	-8819
,2001	-8820
▁2001	-8821
▁一段时间	-8822
▁中国希望	-8823
▁二十世纪	-8824
▁今天上午	-8825
▁他们认为	-8826
▁全国人大	-8827
▁公安机关	-8828
▁后勤保障	-8829
▁国有企业	-8830
▁在今天的	-8831
▁在新世纪	-8832
▁在未成年	-8833
▁在此之前	-8834
▁如果这一	-8835
▁实践证明	-8836
▁尽管人们	-8837
▁我们愿与	-8838
▁我们相信	-8839
▁我们要求	-8840
▁日本国内	-8841
▁李鹏强调	-8842
▁江泽民对	-8843
▁消息人士	-8844
▁瓦杰帕伊	-8845
▁目前我国	-8846
▁祖国大陆	-8847
▁第二十条	-8848
▁统一战线	-8849
▁美国媒体	-8850
▁胡锦涛说	-8851
▁贯彻落实	-8852
▁这是中国	-8853
▁这项工作	-8854
▁项怀诚说	-8855
一九九七年	-8856
一九九四年	-8857
上述表示的	-8858
不同程度的	-8859
与中国建交	-8860
与裁军进程	-8861
业已存在的	-8862
两国在经济	-8863
两国在经贸	-8864
中国天主教	-8865
中国政府的	-8866
中国的经济	-8867
中日关系的	-8868
中美关系的	-8869
丰硕的成果	-8870
为人民服务	-8871
之间存在的	-8872
之间的关系	-8873
之间的团结	-8874
交换了看法	-8875
人民币汇率	-8876
人民的共同	-8877
今天在此间	-8878
今年上半年	-8879
代表团访华	-8880
任何形式的	-8881
会议的召开	-8882
作出的努力	-8883
使用武力的	-8884
依照水污染	-8885
俄武装力量	-8886
充分暴露了	-8887
党和人民的	-8888
党对军队的	-8889
关心和支持	-8890
具备条件的	-8891
军国主义的	-8892
农产品补贴	-8893
切实加强对	-8894
切实可行的	-8895
加强而不能	-8896
华盛顿邮报	-8897
历史发展的	-8898
历史条件下	-8899
友好交往和	-8900
发展为主题	-8901
取得了很大	-8902
可能出现的	-8903
台湾同胞的	-8904
台湾和安全	-8905
台湾的主权	-8906
各方面情况	-8907
各有关部门	-8908
各种各样的	-8909
同中国建立	-8910
向前发展的	-8911
和发展经济	-8912
和坚决反对	-8913
和平与安全	-8914
和良好祝愿	-8915
国务院总理	-8916
国家的经济	-8917
国民经济的	-8918
在各个领域	-8919
在市场经济	-8920
在座谈会上	-8921
在此问题上	-8922
在社会主义	-8923
在经济发展	-8924
坚定不移地	-8925
大幅度增长	-8926
大贸易伙伴	-8927
子女对国家	-8928
存在的分歧	-8929
实现跨越式	-8930
对两岸关系	-8931
对双方关系	-8932
对巴基斯坦	-8933
对布什政府	-8934
对社会主义	-8935
将一如既往	-8936
就一定能够	-8937
尽最大努力	-8938
届三中全会	-8939
巨大的变化	-8940
已经注意到	-8941
并不意味着	-8942
建设性作用	-8943
悉尼奥运会	-8944
战略轰炸机	-8945
扩大和深化	-8946
指明了方向	-8947
提出了新的	-8948
改革开放的	-8949
政策的调整	-8950
文明进步的	-8951
方面的合作	-8952
时代的潮流	-8953
是两国关系	-8954
是中美关系	-8955
是大势所趋	-8956
更高的要求	-8957
最大限度地	-8958
月二十三日	-8959
有效的措施	-8960
机构改革中	-8961
根据本决定	-8962
欧洲国家在	-8963
没有共产党	-8964
法轮功学员	-8965
深远的意义	-8966
父母有承担	-8967
现在和将来	-8968
理解和支持	-8969
理论和实践	-8970
的信息网络	-8971
的全体会议	-8972
的共同利益	-8973
的发展机遇	-8974
的国际环境	-8975
的实际情况	-8976
的思想准备	-8977
的最大诚意	-8978
的有关规定	-8979
的有关问题	-8980
的重要内容	-8981
的重要战略	-8982
的重要标志	-8983
相辅相成的	-8984
矛盾和问题	-8985
祖国的统一	-8986
积极的作用	-8987
稳定的政治	-8988
符合两国和	-8989
第三届亚欧	-8990
第五十七届	-8991
管理和监督	-8992
紧迫的任务	-8993
繁荣与稳定	-8994
级领导干部	-8995
经济增长率	-8996
经济的影响	-8997
经贸关系时	-8998
统一的愿望	-8999
维护和遵守	-9000
维护而不能	-9001
美军酞平洋	-9002
美国的民主	-9003
美对台军售	-9004
而共同努力	-9005
联合国会员	-9006
联合国宪章	-9007
良好的基础	-9008
西藏工作的	-9009
西藏的发展	-9010
西藏的建设	-9011
质量和效益	-9012
赞赏中国在	-9013
达成的协议	-9014
进一步增强	-9015
进一步增进	-9016
进一步完善	-9017
进一步拓展	-9018
进一步提高	-9019
造成损害时	-9020
邦交正常化	-9021
酞平洋地区	-9022
重要的地位	-9023
防范和化解	-9024
阿尔及利亚	-9025
陈德良主席	-9026
难得的机遇	-9027
集体或他人	-9028
震惊世界的	-9029
香港和澳门	-9030
高层接触和	-9031
高科技知识	-9032
......	-9033
▁中国共产党	-9034
▁从长远来看	-9035
▁会谈结束后	-9036
▁台湾的前途	-9037
▁各级党委和	-9038
▁在新的世纪	-9039
▁在此情况下	-9040
▁布什在竞选	-9041
▁李岚清强调	-9042
▁江泽民表示	-9043
▁第二十一条	-9044
▁经济全球化	-9045
▁西部大开发	-9046
▁要认真贯彻	-9047
▁进入新世纪	-9048
▁面对新世纪	-9049
一个中国政策	-9050
一个什么样的	-9051
上海合作组织	-9052
上的原则立场	-9053
不惜一切代价	-9054
不断发扬光大	-9055
两国人民之间	-9056
两国关系发展	-9057
两国友好关系	-9058
两国议会间的	-9059
两次世界大战	-9060
中南海会见了	-9061
中国只有一个	-9062
乌兹别克斯坦	-9063
争取和平统一	-9064
事务中的合作	-9065
亚洲金融风暴	-9066
人权问题上的	-9067
人权高于主权	-9068
人道主义救助	-9069
促进共同发展	-9070
促进共同繁荣	-9071
值得注意的是	-9072
健康稳定发展	-9073
党员的先进性	-9074
党的三代领导	-9075
全球战略稳定	-9076
内的国际社会	-9077
军事斗争准备	-9078
副主席叶选平	-9079
友好关系发展	-9080
发展社会主义	-9081
取得重要进展	-9082
可持续发展的	-9083
台湾当局妄图	-9084
吉尔吉斯斯坦	-9085
固定资产投资	-9086
国家新闻出版	-9087
国有企业改革	-9088
在人权问题上	-9089
在地区和国际	-9090
在联合国人权	-9091
在马克思主义	-9092
坚决反对任何	-9093
奥林匹克运动	-9094
对外经济贸易	-9095
对日本的信任	-9096
少数民族地区	-9097
就没有新中国	-9098
巴勒斯坦人民	-9099
市场经济秩序	-9100
建设和改革的	-9101
引起世界各国	-9102
我国国民经济	-9103
所取得的成就	-9104
捍卫国家主权	-9105
支持亚美尼亚	-9106
改善生态环境	-9107
新世纪的发展	-9108
日本军国主义	-9109
是中国共产党	-9110
朝韩首脑会晤	-9111
武器装备建设	-9112
民族权力机构	-9113
江泽民主席对	-9114
泄露国家机密	-9115
湖北省委书记	-9116
电子信息产业	-9117
的发展中国家	-9118
破获贩毒案件	-9119
紧密结合起来	-9120
经济结构调整	-9121
老一辈领导人	-9122
胡锦涛副主席	-9123
自己是中国人	-9124
表示衷心感谢	-9125
西藏各项事业	-9126
计划的第一年	-9127
负责任的态度	-9128
资本主义制度	-9129
达成双边协议	-9130
近海进行侦察	-9131
进入中国市场	-9132
邓小平理论的	-9133
采取多种形式	-9134
问题的严重性	-9135
霸权主义行径	-9136
骗取出口退税	-9137
高层互访不断	-9138
高素质人才的	-9139
黎可漂总书记	-9140
▁2001.0	-9141
▁中国政府一贯	-9142
▁中美两国都是	-9143
▁从新世纪开始	-9144
▁作为党领导下	-9145
▁历史和现实都	-9146
▁各级领导干部	-9147
▁我们真诚希望	-9148
一个中国的立场	-9149
一个国家的谈话	-9150
一些意见和建议	-9151
一些言论和动向	-9152
不可替代的作用	-9153
两会达成的共识	-9154
中国共产党成立	-9155
中国社会科学院	-9156
义不容辞的责任	-9157
人大及其常委会	-9158
人民对中国人民	-9159
作出了巨大贡献	-9160
作出应有的贡献	-9161
做出应有的贡献	-9162
共同关心的问题	-9163
共同努力的结果	-9164
分裂祖国的活动	-9165
切实可行的措施	-9166
加强而不能削弱	-9167
友好交流与合作	-9168
友好合作关系的	-9169
发展的重要力量	-9170
发展马克思主义	-9171
取得了重要进展	-9172
在西部大开发中	-9173
地区和平与稳定	-9174
坚定不移地支持	-9175
大中型亏损企业	-9176
平等和相互尊重	-9177
我们高兴地看到	-9178
投资贸易洽谈会	-9179
指挥自动化系统	-9180
损害了中国人民	-9181
有着深刻的社会	-9182
朱亚衍访问高雄	-9183
正确认识和对待	-9184
民事责任的义务	-9185
澳门特别行政区	-9186
的各项准备工作	-9187
的社会保障体系	-9188
的经济技术合作	-9189
第九次遭到失败	-9190
经济全球化进程	-9191
维护而不能损害	-9192
英国首相布莱尔	-9193
表示崇高的敬意	-9194
西方反华势力的	-9195
进行战略性调整	-9196
进行正式访问的	-9197
马克思列宁主义	-9198
高技术局部战争	-9199
▁中共中央政治局	-9200
▁中国政府和人民	-9201
▁党和国家领导人	-9202
▁全国人大常委会	-9203
▁坚持马克思主义	-9204
▁日本国内在历史	-9205
▁第二次世界大战	-9206
▁这位发言人表示	-9207
世界的和平与发展	-9208
两国在各个领域的	-9209
中国共产党的成立	-9210
依照水污染防治法	-9211
关系的进一步发展	-9212
友好合作关系不断	-9213
发生了深刻的变化	-9214
台湾和安全领域的	-9215
在市场经济条件下	-9216
开拓新的合作领域	-9217
战区导弹防御系统	-9218
提高人民生活水平	-9219
早日解决台湾问题	-9220
睦邻友好合作关系	-9221
金融资产管理公司	-9222
问题上存在的分歧	-9223
中国不是美国的敌人	-9224
中外合资经营企业法	-9225
人民群众的根本利益	-9226
克服了亚洲金融危机	-9227
党对军队的绝对领导	-9228
具有十分重要的意义	-9229
哲学社会科学界要为	-9230
年亚酞经合组织会议	-9231
庆祝中国共产党成立	-9232
承认一个中国的原则	-9233
▁在未成年子女对国家	-9234
中国的主权和领土完整	-9235
农业和农村经济工作的	-9236
发生了翻天覆地的变化	-9237
对经济发展的支持力度	-9238
有中国特色的社会主义	-9239
社会主义市场经济体制	-9240
社会主义精神文明建设	-9241
老一辈无产阶级革命家	-9242
重要思想学习教育活动	-9243
集体或他人造成损害时	-9244
今天上午在中南海会见了	-9245
符合两国人民的根本利益	-9246
▁中国外交部发言人朱邦造	-9247
代表最广大人民的根本利益	-9248
父母有承担民事责任的义务	-9249
损害了中国人民对日本的信任	-9250
李岚清等党和国家领导人出席	-9251
▁作为党领导下的一支重要力量	-9252
此间举行的外交部新闻发布会上	-9253
▁只要台湾当局承认一个中国原则	-9254
台湾和安全领域的一些言论和动向	-9255
%、	-9256
,2	-9257
,4	-9258
,9	-9259
-2	-9260
.1	-9261
.3	-9262
.5	-9263
0·	-9264
2%	-9265
32	-9266
36	-9267
38	-9268
41	-9269
46	-9270
48	-9271
51	-9272
55	-9273
59	-9274
61	-9275
62	-9276
69	-9277
76	-9278
77	-9279
82	-9280
96	-9281
ch	-9282
ep	-9283
im	-9284
pt	-9285
”“	-9286
▁1	-9287
▁[	-9288
▁乔	-9289
▁九	-9290
▁何	-9291
▁你	-9292
▁做	-9293
▁像	-9294
▁几	-9295
▁分	-9296
▁卢	-9297
▁厉	-9298
▁原	-9299
▁反	-9300
▁发	-9301
▁古	-9302
▁哈	-9303
▁唐	-9304
▁孙	-9305
▁安	-9306
▁宫	-9307
▁很	-9308
▁徐	-9309
▁德	-9310
▁打	-9311
▁投	-9312
▁按	-9313
▁时	-9314
▁普	-9315
▁杨	-9316
▁沙	-9317
▁法	-9318
▁澳	-9319
▁热	-9320
▁照	-9321
▁熊	-9322
▁瓦	-9323
▁由	-9324
▁翻	-9325
▁范	-9326
▁萧	-9327
▁萨	-9328
▁记	-9329
▁谁	-9330
▁贺	-9331
▁越	-9332
▁那	-9333
▁钟	-9334
▁陆	-9335
▁难	-9336
、‘	-9337
】(	-9338
一七	-9339
一介	-9340
一十	-9341
一大	-9342
一宗	-9343
一律	-9344
一架	-9345
一根	-9346
一汤	-9347
一流	-9348
一浪	-9349
一篇	-9350
一艘	-9351
一轮	-9352
一页	-9353
七十	-9354
万户	-9355
万燮	-9356
三不	-9357
三乱	-9358
三党	-9359
三发	-9360
三步	-9361
三至	-9362
三道	-9363
上几	-9364
上周	-9365
上将	-9366
上报	-9367
上旬	-9368
上是	-9369
上校	-9370
上涨	-9371
上游	-9372
上班	-9373
上空	-9374
上阵	-9375
上面	-9376
下一	-9377
下列	-9378
下周	-9379
下大	-9380
下榻	-9381
下达	-9382
不为	-9383
不出	-9384
不化	-9385
不受	-9386
不只	-9387
不堪	-9388
不失	-9389
不已	-9390
不当	-9391
不怕	-9392
不息	-9393
不扣	-9394
不折	-9395
不振	-9396
不掉	-9397
不时	-9398
不犯	-9399
不甘	-9400
不穷	-9401
不肯	-9402
不被	-9403
不让	-9404
不论	-9405
不败	-9406
不错	-9407
不难	-9408
不高	-9409
与基	-9410
与日	-9411
与时	-9412
与此	-9413
专人	-9414
专心	-9415
专程	-9416
专论	-9417
世的	-9418
世祥	-9419
东城	-9420
东输	-9421
东风	-9422
丝绸	-9423
两千	-9424
两地	-9425
两家	-9426
两弹	-9427
两栖	-9428
两者	-9429
两项	-9430
严惩	-9431
严明	-9432
严治	-9433
个个	-9434
个中	-9435
个县	-9436
中伊	-9437
中加	-9438
中匈	-9439
中去	-9440
中和	-9441
中哈	-9442
中广	-9443
中情	-9444
中意	-9445
中文	-9446
中期	-9447
中老	-9448
中芬	-9449
中菲	-9450
中资	-9451
中赞	-9452
中通	-9453
中部	-9454
中间	-9455
丹麦	-9456
为奇	-9457
为所	-9458
为时	-9459
为的	-9460
为贵	-9461
为重	-9462
为鉴	-9463
为首	-9464
丽兰	-9465
举足	-9466
久的	-9467
之上	-9468
之势	-9469
之基	-9470
之意	-9471
之感	-9472
之战	-9473
之旅	-9474
之本	-9475
之机	-9476
之林	-9477
之虞	-9478
之言	-9479
之责	-9480
乌鲁	-9481
乘员	-9482
九时	-9483
也可	-9484
也向	-9485
也对	-9486
也曾	-9487
也给	-9488
也还	-9489
也随	-9490
书写	-9491
了几	-9492
了呼	-9493
了数	-9494
了近	-9495
了这	-9496
争中	-9497
争鸣	-9498
事端	-9499
事迹	-9500
二位	-9501
二千	-9502
二战	-9503
二次	-9504
于世	-9505
于泰	-9506
互不	-9507
互致	-9508
五个	-9509
五亿	-9510
五四	-9511
五日	-9512
五条	-9513
五点	-9514
五艘	-9515
亚南	-9516
亚康	-9517
亟待	-9518
亦将	-9519
亦难	-9520
产权	-9521
京台	-9522
亲戚	-9523
亲手	-9524
亲眼	-9525
亲笔	-9526
人以	-9527
人分	-9528
人因	-9529
人团	-9530
人寻	-9531
人有	-9532
人注	-9533
人群	-9534
人造	-9535
人间	-9536
亿立	-9537
仅是	-9538
仅次	-9539
仇敌	-9540
仍会	-9541
仍是	-9542
从政	-9543
从此	-9544
仔细	-9545
他不	-9546
他为	-9547
他又	-9548
他只	-9549
他大	-9550
他就	-9551
他把	-9552
他曾	-9553
他被	-9554
令下	-9555
以宁	-9556
以德	-9557
以快	-9558
以特	-9559
以至	-9560
以赴	-9561
仪器	-9562
们的	-9563
件答	-9564
价还	-9565
任用	-9566
任的	-9567
伊始	-9568
伊的	-9569
伍尔	-9570
伏笔	-9571
众智	-9572
会场	-9573
会将	-9574
会把	-9575
会长	-9576
传教	-9577
传来	-9578
传递	-9579
伦德	-9580
伪造	-9581
估价	-9582
估量	-9583
伸出	-9584
伸到	-9585
伽马	-9586
但仍	-9587
但又	-9588
但在	-9589
但它	-9590
但没	-9591
但要	-9592
但这	-9593
体会	-9594
何在	-9595
何处	-9596
何时	-9597
余克	-9598
余名	-9599
余地	-9600
余额	-9601
佛教	-9602
作价	-9603
作俑	-9604
作恶	-9605
作法	-9606
你是	-9607
使人	-9608
使然	-9609
例外	-9610
例行	-9611
供求	-9612
依次	-9613
侵害	-9614
便利	-9615
俄制	-9616
俄朝	-9617
保存	-9618
保安	-9619
保密	-9620
信守	-9621
信徒	-9622
信释	-9623
修养	-9624
修复	-9625
俱进	-9626
倍于	-9627
倒置	-9628
倒董	-9629
借机	-9630
借此	-9631
债转	-9632
值班	-9633
倾销	-9634
假售	-9635
做过	-9636
停建	-9637
停滞	-9638
停车	-9639
偿债	-9640
偿费	-9641
儿园	-9642
元帅	-9643
元旦	-9644
兆国	-9645
先入	-9646
先期	-9647
先的	-9648
先队	-9649
光纤	-9650
克制	-9651
克敌	-9652
克松	-9653
克里	-9654
免案	-9655
党制	-9656
党务	-9657
党干	-9658
党支	-9659
党组	-9660
党际	-9661
入伍	-9662
全场	-9663
全天	-9664
全家	-9665
全年	-9666
八条	-9667
八百	-9668
公决	-9669
公河	-9670
公理	-9671
公益	-9672
六个	-9673
六四	-9674
六届	-9675
兰茨	-9676
关押	-9677
兴旺	-9678
兴致	-9679
其利	-9680
其害	-9681
其职	-9682
其顿	-9683
兼施	-9684
内外	-9685
内心	-9686
再作	-9687
再创	-9688
再添	-9689
再生	-9690
再说	-9691
再起	-9692
再造	-9693
冒险	-9694
写信	-9695
写在	-9696
写进	-9697
军校	-9698
农场	-9699
农牧	-9700
冠冕	-9701
冰毒	-9702
决断	-9703
凌驾	-9704
减债	-9705
减到	-9706
减幅	-9707
几代	-9708
几经	-9709
几项	-9710
凡诺	-9711
凤山	-9712
凤芝	-9713
出一	-9714
出乎	-9715
出卖	-9716
出租	-9717
出笼	-9718
出资	-9719
分列	-9720
分布	-9721
分支	-9722
分散	-9723
分界	-9724
分队	-9725
切尼	-9726
切忌	-9727
切断	-9728
切的	-9729
刑罚	-9730
刑警	-9731
刑讯	-9732
列入	-9733
列兹	-9734
列确	-9735
列车	-9736
则在	-9737
则必	-9738
刚才	-9739
创下	-9740
创业	-9741
创伤	-9742
创作	-9743
创建	-9744
初生	-9745
利害	-9746
利斯	-9747
利班	-9748
利的	-9749
别有	-9750
到台	-9751
到处	-9752
到实	-9753
到省	-9754
制品	-9755
制止	-9756
制的	-9757
制空	-9758
制药	-9759
制衡	-9760
削减	-9761
前任	-9762
前就	-9763
前期	-9764
前沿	-9765
前线	-9766
力学	-9767
力强	-9768
办得	-9769
办案	-9770
功绩	-9771
加勒	-9772
加州	-9773
加特	-9774
加索	-9775
务求	-9776
务等	-9777
劣势	-9778
动乱	-9779
动和	-9780
动物	-9781
劳务	-9782
势必	-9783
勇于	-9784
勇的	-9785
勒布	-9786
勘察	-9787
勘探	-9788
勤政	-9789
勾当	-9790
包围	-9791
化工	-9792
北斗	-9793
北美	-9794
北调	-9795
匡迪	-9796
区内	-9797
区在	-9798
医科	-9799
十余	-9800
十足	-9801
千名	-9802
千家	-9803
千秋	-9804
千载	-9805
升温	-9806
半才	-9807
半月	-9808
华文	-9809
卑鄙	-9810
卓越	-9811
单纯	-9812
单项	-9813
卖给	-9814
南南	-9815
南昌	-9816
南水	-9817
南舜	-9818
占据	-9819
占肉	-9820
卡多	-9821
卡西	-9822
卫士	-9823
卫舰	-9824
印巴	-9825
即是	-9826
却不	-9827
却因	-9828
却在	-9829
卷入	-9830
历时	-9831
历次	-9832
压倒	-9833
厚爱	-9834
厚的	-9835
厦华	-9836
去做	-9837
去其	-9838
县城	-9839
县长	-9840
参演	-9841
参访	-9842
又多	-9843
又来	-9844
又翻	-9845
又能	-9846
双城	-9847
双拥	-9848
反动	-9849
反射	-9850
反思	-9851
反省	-9852
反腐	-9853
反舰	-9854
发了	-9855
发债	-9856
发的	-9857
取信	-9858
取其	-9859
受伤	-9860
受阻	-9861
变为	-9862
变幻	-9863
变数	-9864
叛乱	-9865
口可	-9866
古代	-9867
古国	-9868
另一	-9869
另外	-9870
另有	-9871
只待	-9872
只用	-9873
召到	-9874
召集	-9875
可喜	-9876
可对	-9877
可悲	-9878
可想	-9879
可抵	-9880
台就	-9881
台资	-9882
吃吃	-9883
吃大	-9884
吃惊	-9885
各业	-9886
各司	-9887
各型	-9888
各执	-9889
各条	-9890
各省	-9891
各行	-9892
合乎	-9893
合尔	-9894
合影	-9895
合格	-9896
合肥	-9897
合营	-9898
合适	-9899
同为	-9900
同伙	-9901
同在	-9902
同处	-9903
同步	-9904
同澳	-9905
同行	-9906
名为	-9907
名单	-9908
名县	-9909
名护	-9910
名牌	-9911
名裂	-9912
后备	-9913
后退	-9914
后院	-9915
吐量	-9916
向在	-9917
向巴	-9918
否定	-9919
含义	-9920
含糊	-9921
含量	-9922
听任	-9923
听听	-9924
听证	-9925
启用	-9926
启迪	-9927
吴云	-9928
吴官	-9929
吴文	-9930
吸取	-9931
吾尔	-9932
周折	-9933
周末	-9934
命题	-9935
咄咄	-9936
和反	-9937
和大	-9938
和富	-9939
和张	-9940
和我	-9941
和旅	-9942
和无	-9943
和王	-9944
和立	-9945
和随	-9946
和高	-9947
咱们	-9948
品质	-9949
哈塔	-9950
哈尔	-9951
哈瓦	-9952
哈萨	-9953
哪里	-9954
唾弃	-9955
商界	-9956
喜人	-9957
喜悦	-9958
喜马	-9959
噤若	-9960
器材	-9961
噶玛	-9962
嚓嚓	-9963
四千	-9964
四点	-9965
回旋	-9966
回顾	-9967
因受	-9968
因特	-9969
围攻	-9970
国体	-9971
国军	-9972
国就	-9973
国投	-9974
国琴	-9975
国策	-9976
国籍	-9977
国雄	-9978
图拉	-9979
圆木	-9980
土豆	-9981
在一	-9982
在三	-9983
在不	-9984
在为	-9985
在任	-9986
在张	-9987
在我	-9988
在新	-9989
在更	-9990
在板	-9991
在某	-9992
在热	-9993
在现	-9994
在眉	-9995
在立	-9996
在该	-9997
在青	-9998
在驻	-9999
地厅	-10000
地和	-10001
地把	-10002
地毯	-10003
地询	-10004
场合	-10005
均应	-10006
均由	-10007
均衡	-10008
均被	-10009
坎坷	-10010
坚守	-10011
坚赞	-10012
坦率	-10013
垃圾	-10014
型和	-10015
埋在	-10016
城建	-10017
城笃	-10018
基亚	-10019
基传	-10020
基和	-10021
堕落	-10022
堵塞	-10023
塔吉	-10024
塔拉	-10025
塔的	-10026
塔里	-10027
塞族	-10028
塞浦	-10029
增收	-10030
士学	-10031
壮丽	-10032
壮举	-10033
声中	-10034
声纳	-10035
声讨	-10036
处以	-10037
处境	-10038
处处	-10039
备忘	-10040
备案	-10041
复了	-10042
夏天	-10043
夏粮	-10044
外事	-10045
外出	-10046
外汇	-10047
外界	-10048
外籍	-10049
外表	-10050
外高	-10051
多做	-10052
多变	-10053
多月	-10054
多有	-10055
多架	-10056
多端	-10057
多米	-10058
多维	-10059
多说	-10060
多重	-10061
大不	-10062
大于	-10063
大同	-10064
大打	-10065
大楼	-10066
大自	-10067
大财	-10068
大队	-10069
天军	-10070
天后	-10071
天地	-10072
天基	-10073
天外	-10074
天天	-10075
天水	-10076
天独	-10077
天皇	-10078
夫妇	-10079
夫妻	-10080
失误	-10081
奉命	-10082
奖学	-10083
奥德	-10084
女性	-10085
好坏	-10086
好头	-10087
好步	-10088
如一	-10089
如不	-10090
如今	-10091
如无	-10092
如能	-10093
如超	-10094
妙应	-10095
姆贝	-10096
始于	-10097
姬胜	-10098
姬鹏	-10099
孕育	-10100
孝慈	-10101
孤立	-10102
学家	-10103
学模	-10104
学风	-10105
孩子	-10106
宇宙	-10107
宇航	-10108
安保	-10109
安危	-10110
安然	-10111
安装	-10112
宋健	-10113
完备	-10114
完的	-10115
宏喜	-10116
宗淮	-10117
定为	-10118
定在	-10119
定居	-10120
定论	-10121
宜诺	-10122
实了	-10123
实弹	-10124
实控	-10125
实用	-10126
实绩	-10127
实证	-10128
实说	-10129
审慎	-10130
宣扬	-10131
宣讲	-10132
宴请	-10133
家中	-10134
家和	-10135
容忍	-10136
宽恕	-10137
宾馆	-10138
寂寞	-10139
寄托	-10140
密布	-10141
寒蝉	-10142
对从	-10143
对峙	-10144
对应	-10145
对照	-10146
对罗	-10147
将分	-10148
将同	-10149
将率	-10150
将被	-10151
将达	-10152
尊贵	-10153
小区	-10154
尔斯	-10155
尔特	-10156
尸体	-10157
尼加	-10158
尽的	-10159
尽职	-10160
尽脑	-10161
尽量	-10162
层出	-10163
层层	-10164
层面	-10165
居于	-10166
居然	-10167
屏障	-10168
屠杀	-10169
屡屡	-10170
山川	-10171
山林	-10172
岁月	-10173
崇尚	-10174
崇高	-10175
崩溃	-10176
巡防	-10177
巧合	-10178
巨人	-10179
巨款	-10180
已在	-10181
已定	-10182
已故	-10183
已满	-10184
已由	-10185
已订	-10186
巴卢	-10187
巴拿	-10188
市容	-10189
市政	-10190
市进	-10191
布赫	-10192
布雷	-10193
布鲁	-10194
师的	-10195
希拉	-10196
希腊	-10197
带领	-10198
常人	-10199
常常	-10200
常设	-10201
常识	-10202
幕僚	-10203
幕后	-10204
干脆	-10205
年为	-10206
年份	-10207
年将	-10208
年我	-10209
年里	-10210
年龄	-10211
并举	-10212
并于	-10213
并使	-10214
并就	-10215
并祝	-10216
并称	-10217
并肩	-10218
并能	-10219
并请	-10220
幽灵	-10221
广度	-10222
庆典	-10223
庆泽	-10224
应付	-10225
应以	-10226
应急	-10227
度假	-10228
度过	-10229
庭审	-10230
建于	-10231
开会	-10232
开办	-10233
开学	-10234
开工	-10235
开设	-10236
开通	-10237
开阔	-10238
异常	-10239
异端	-10240
弄虚	-10241
引用	-10242
弟子	-10243
张君	-10244
弥补	-10245
弱化	-10246
强制	-10247
强弱	-10248
强迫	-10249
归根	-10250
当中	-10251
当即	-10252
形形	-10253
形而	-10254
彩门	-10255
彭总	-10256
影视	-10257
役后	-10258
往前	-10259
征途	-10260
待机	-10261
很是	-10262
徐文	-10263
得主	-10264
得出	-10265
得多	-10266
得意	-10267
得花	-10268
心中	-10269
心存	-10270
心潮	-10271
心病	-10272
心里	-10273
忠禹	-10274
怂恿	-10275
急欲	-10276
急用	-10277
性地	-10278
怪乎	-10279
总装	-10280
总领	-10281
恕诚	-10282
恩来	-10283
恰好	-10284
恰恰	-10285
恶劣	-10286
恶的	-10287
悬而	-10288
悲痛	-10289
悼念	-10290
情愿	-10291
情的	-10292
情节	-10293
情谊	-10294
惊心	-10295
惠国	-10296
惨遭	-10297
惯例	-10298
意图	-10299
意思	-10300
感召	-10301
感想	-10302
感慨	-10303
愿在	-10304
戈壁	-10305
成也	-10306
成交	-10307
我同	-10308
我在	-10309
我是	-10310
我随	-10311
戒心	-10312
或不	-10313
或缺	-10314
或被	-10315
战果	-10316
战胜	-10317
战舰	-10318
截然	-10319
房间	-10320
所持	-10321
所指	-10322
所知	-10323
所称	-10324
所系	-10325
所能	-10326
所说	-10327
手去	-10328
手的	-10329
才对	-10330
才更	-10331
打倒	-10332
打响	-10333
打私	-10334
打算	-10335
执意	-10336
执照	-10337
扭转	-10338
批发	-10339
批示	-10340
批驳	-10341
找准	-10342
找出	-10343
承办	-10344
把对	-10345
把这	-10346
抑或	-10347
投向	-10348
投案	-10349
抗击	-10350
抗拒	-10351
抗旱	-10352
折扣	-10353
抢滩	-10354
报上	-10355
报名	-10356
报章	-10357
抱有	-10358
抵抗	-10359
抹煞	-10360
押解	-10361
拉大	-10362
拉美	-10363
拉赫	-10364
拉雅	-10365
拍照	-10366
拒不	-10367
招商	-10368
拥军	-10369
拼命	-10370
挖掘	-10371
挟洋	-10372
挪用	-10373
振奋	-10374
捕捞	-10375
换了	-10376
换壳	-10377
捣乱	-10378
据和	-10379
捷克	-10380
捷报	-10381
排放	-10382
排污	-10383
排行	-10384
接着	-10385
接见	-10386
推选	-10387
掩护	-10388
掩盖	-10389
提议	-10390
搜索	-10391
搜集	-10392
搞得	-10393
摄影	-10394
摆到	-10395
操纵	-10396
支撑	-10397
支配	-10398
收取	-10399
收效	-10400
收税	-10401
收购	-10402
收集	-10403
改为	-10404
放慢	-10405
放眼	-10406
放缓	-10407
政坛	-10408
政法	-10409
效力	-10410
敌意	-10411
敌方	-10412
救援	-10413
敦促	-10414
敦睦	-10415
整天	-10416
整改	-10417
整整	-10418
整肃	-10419
文献	-10420
文艺	-10421
文藻	-10422
斌华	-10423
断交	-10424
断然	-10425
斯加	-10426
斯洛	-10427
斯艾	-10428
斯达	-10429
新意	-10430
新月	-10431
方略	-10432
施加	-10433
旁观	-10434
旅居	-10435
无一	-10436
无忧	-10437
无比	-10438
无理	-10439
无畏	-10440
无私	-10441
无线	-10442
既不	-10443
日到	-10444
日朝	-10445
日渐	-10446
旧的	-10447
早前	-10448
旭东	-10449
旱情	-10450
时作	-10451
时光	-10452
时效	-10453
时曾	-10454
昂的	-10455
明文	-10456
易举	-10457
春季	-10458
昭然	-10459
是人	-10460
是分	-10461
是台	-10462
是瞻	-10463
是继	-10464
是这	-10465
晨柏	-10466
普森	-10467
普罗	-10468
智中	-10469
智力	-10470
曲格	-10471
更应	-10472
更快	-10473
更让	-10474
曾任	-10475
曾有	-10476
曾说	-10477
最为	-10478
最低	-10479
最具	-10480
最好	-10481
最深	-10482
月底	-10483
月末	-10484
有事	-10485
有公	-10486
有失	-10487
有意	-10488
有望	-10489
有线	-10490
有近	-10491
朝日	-10492
木尔	-10493
木齐	-10494
未决	-10495
未曾	-10496
朱琳	-10497
机已	-10498
机载	-10499
杀人	-10500
权与	-10501
权后	-10502
权谋	-10503
李氏	-10504
李纪	-10505
李鸿	-10506
村的	-10507
杜马	-10508
条款	-10509
来临	-10510
杰出	-10511
杰福	-10512
杼滨	-10513
极右	-10514
极致	-10515
构建	-10516
构思	-10517
林根	-10518
林说	-10519
枪击	-10520
枯竭	-10521
架构	-10522
某部	-10523
查明	-10524
查询	-10525
栏目	-10526
树龙	-10527
根于	-10528
根植	-10529
根深	-10530
根源	-10531
格外	-10532
格林	-10533
桂雨	-10534
棉花	-10535
棋子	-10536
棘手	-10537
森说	-10538
横向	-10539
次上	-10540
次的	-10541
欧亚	-10542
欧元	-10543
欲知	-10544
款和	-10545
歉意	-10546
歌舞	-10547
正规	-10548
此前	-10549
此后	-10550
武汉	-10551
死伤	-10552
死抱	-10553
死难	-10554
残疾	-10555
毁在	-10556
每天	-10557
毒害	-10558
比喻	-10559
毕竟	-10560
毛腿	-10561
毫不	-10562
民国	-10563
民心	-10564
民航	-10565
气概	-10566
气温	-10567
气节	-10568
水也	-10569
水域	-10570
水泥	-10571
水源	-10572
永南	-10573
求真	-10574
汉东	-10575
汉城	-10576
江山	-10577
污水	-10578
汲取	-10579
沉浸	-10580
沉痛	-10581
沉着	-10582
沉默	-10583
沓来	-10584
沙治	-10585
沙法	-10586
没收	-10587
沧江	-10588
河水	-10589
河的	-10590
油气	-10591
沿袭	-10592
法宝	-10593
波音	-10594
洁性	-10595
洋洋	-10596
洪水	-10597
洪涝	-10598
洲际	-10599
活剧	-10600
流氓	-10601
浓厚	-10602
浮动	-10603
海岸	-10604
海陆	-10605
消散	-10606
涉台	-10607
涉外	-10608
涉嫌	-10609
涉足	-10610
涌现	-10611
深具	-10612
深处	-10613
深度	-10614
深情	-10615
深的	-10616
深知	-10617
淹没	-10618
清白	-10619
清说	-10620
渔业	-10621
温室	-10622
温饱	-10623
港澳	-10624
渲染	-10625
渴望	-10626
游览	-10627
源泉	-10628
满腔	-10629
满陇	-10630
滩上	-10631
滩头	-10632
演兵	-10633
演出	-10634
演唱	-10635
演示	-10636
漠视	-10637
潜逃	-10638
澄清	-10639
激动	-10640
激化	-10641
激战	-10642
火焰	-10643
灭的	-10644
灭绝	-10645
灵魂	-10646
炮声	-10647
炸弹	-10648
热切	-10649
热控	-10650
热源	-10651
热线	-10652
然后	-10653
照顾	-10654
燃油	-10655
爱护	-10656
父子	-10657
版权	-10658
物品	-10659
物资	-10660
特使	-10661
特定	-10662
特意	-10663
特派	-10664
犹如	-10665
狂热	-10666
狂的	-10667
独有	-10668
猎物	-10669
率低	-10670
率达	-10671
玉顺	-10672
王国	-10673
王建	-10674
王成	-10675
现今	-10676
现年	-10677
琼斯	-10678
瑞典	-10679
瓷器	-10680
生机	-10681
生死	-10682
生涯	-10683
生路	-10684
生还	-10685
用户	-10686
用的	-10687
由原	-10688
申明	-10689
申诉	-10690
电影	-10691
电网	-10692
电讯	-10693
电路	-10694
留念	-10695
疏散	-10696
疲软	-10697
症结	-10698
痛苦	-10699
痴心	-10700
登上	-10701
登堡	-10702
白色	-10703
百花	-10704
的几	-10705
的台	-10706
的哀	-10707
的基	-10708
的墓	-10709
的忧	-10710
的矿	-10711
的税	-10712
的立	-10713
的第	-10714
的粗	-10715
的自	-10716
的航	-10717
的财	-10718
的超	-10719
的边	-10720
的通	-10721
的铁	-10722
的集	-10723
的雪	-10724
的面	-10725
的首	-10726
皇帝	-10727
监理	-10728
盗版	-10729
盛典	-10730
盛情	-10731
盟友	-10732
目光	-10733
直播	-10734
直白	-10735
直通	-10736
相传	-10737
相承	-10738
相机	-10739
相距	-10740
相近	-10741
相龙	-10742
省份	-10743
省级	-10744
看了	-10745
真空	-10746
真纪	-10747
眼中	-10748
着力	-10749
着名	-10750
着想	-10751
着王	-10752
睁着	-10753
瞄准	-10754
石化	-10755
石原	-10756
矿井	-10757
码头	-10758
破灭	-10759
示着	-10760
社保	-10761
社区	-10762
社团	-10763
社科	-10764
神威	-10765
神父	-10766
神经	-10767
禁毒	-10768
福祉	-10769
离了	-10770
秀美	-10771
私下	-10772
种族	-10773
积力	-10774
称呼	-10775
称霸	-10776
程控	-10777
税目	-10778
稿件	-10779
穆斯	-10780
空前	-10781
空缺	-10782
空话	-10783
空调	-10784
空谈	-10785
窗口	-10786
立体	-10787
立党	-10788
立案	-10789
立陶	-10790
端于	-10791
等人	-10792
等同	-10793
等待	-10794
等省	-10795
等等	-10796
等项	-10797
答覆	-10798
筹建	-10799
简直	-10800
管道	-10801
篡改	-10802
米蒂	-10803
粉碎	-10804
精兵	-10805
精度	-10806
系数	-10807
素有	-10808
紧紧	-10809
紧缺	-10810
紧要	-10811
累累	-10812
级舰	-10813
纪实	-10814
纪录	-10815
纪检	-10816
纳拉	-10817
纵容	-10818
纷至	-10819
纸箱	-10820
练功	-10821
组合	-10822
组阁	-10823
细则	-10824
细化	-10825
终究	-10826
终端	-10827
经典	-10828
经商	-10829
结晶	-10830
结算	-10831
给谁	-10832
统帅	-10833
统管	-10834
继任	-10835
绯闻	-10836
维修	-10837
绿化	-10838
缔结	-10839
编成	-10840
编组	-10841
编者	-10842
缴拨	-10843
缴获	-10844
缺口	-10845
罕见	-10846
罪行	-10847
置信	-10848
置疑	-10849
美印	-10850
美台	-10851
美好	-10852
美联	-10853
美苏	-10854
群岛	-10855
翟伟	-10856
老板	-10857
者为	-10858
者们	-10859
者清	-10860
而动	-10861
而又	-10862
而已	-10863
而自	-10864
而轻	-10865
而这	-10866
而非	-10867
耻辱	-10868
职权	-10869
联结	-10870
联通	-10871
联酋	-10872
聘请	-10873
聚众	-10874
肖扬	-10875
胜于	-10876
能打	-10877
能许	-10878
能说	-10879
能量	-10880
脆弱	-10881
脑后	-10882
脱钩	-10883
腐朽	-10884
自古	-10885
自如	-10886
自救	-10887
自残	-10888
自私	-10889
自豪	-10890
自重	-10891
自首	-10892
至此	-10893
致信	-10894
致命	-10895
致意	-10896
致辞	-10897
航向	-10898
航线	-10899
舰船	-10900
船的	-10901
良知	-10902
节流	-10903
若揭	-10904
英九	-10905
英凡	-10906
英方	-10907
药品	-10908
莫及	-10909
莫大	-10910
获准	-10911
获取	-10912
获奖	-10913
营销	-10914
萨尔	-10915
萨格	-10916
落得	-10917
董事	-10918
蒂安	-10919
蒙得	-10920
蒙骗	-10921
蓝图	-10922
薄弱	-10923
薄膜	-10924
藏独	-10925
藏身	-10926
虚假	-10927
虽是	-10928
虽短	-10929
蛇头	-10930
融合	-10931
融资	-10932
行列	-10933
行贿	-10934
衍红	-10935
街道	-10936
补给	-10937
表面	-10938
装的	-10939
装置	-10940
裸地	-10941
西兰	-10942
西洋	-10943
西雅	-10944
要与	-10945
要使	-10946
要做	-10947
要害	-10948
要想	-10949
要搞	-10950
要案	-10951
要问	-10952
覆辙	-10953
见到	-10954
规避	-10955
视听	-10956
觉悟	-10957
解开	-10958
言而	-10959
警备	-10960
警报	-10961
计的	-10962
认可	-10963
讨伐	-10964
讨好	-10965
讯息	-10966
记下	-10967
记名	-10968
讲得	-10969
讲究	-10970
讲过	-10971
论据	-10972
访京	-10973
访台	-10974
访欧	-10975
访谈	-10976
证书	-10977
证件	-10978
评述	-10979
识别	-10980
试用	-10981
诞辰	-10982
该市	-10983
该师	-10984
该旅	-10985
诬蔑	-10986
诱人	-10987
说瞎	-10988
请教	-10989
诽谤	-10990
课程	-10991
谋取	-10992
谣言	-10993
谬论	-10994
谱写	-10995
谷底	-10996
象征	-10997
象牙	-10998
贝格	-10999
负隅	-11000
责难	-11001
败类	-11002
货物	-11003
贪污	-11004
购药	-11005
贴息	-11006
赃款	-11007
资助	-11008
赏识	-11009
赔偿	-11010
赖于	-11011
赤裸	-11012
赫普	-11013
走访	-11014
走越	-11015
赶赴	-11016
起义	-11017
起大	-11018
起着	-11019
起立	-11020
起诉	-11021
起飞	-11022
越大	-11023
越高	-11024
足额	-11025
跨海	-11026
路上	-11027
路斯	-11028
跳伞	-11029
跳跃	-11030
身心	-11031
身的	-11032
身败	-11033
车臣	-11034
轨迹	-11035
转到	-11036
转型	-11037
转播	-11038
软弱	-11039
轻而	-11040
轻重	-11041
载着	-11042
较大	-11043
较量	-11044
输送	-11045
辞去	-11046
辞退	-11047
边远	-11048
达瓦	-11049
达米	-11050
迅猛	-11051
过上	-11052
过剩	-11053
过多	-11054
过长	-11055
迎头	-11056
运到	-11057
近似	-11058
返回	-11059
还于	-11060
还应	-11061
这五	-11062
这句	-11063
这就	-11064
这张	-11065
进军	-11066
进度	-11067
进而	-11068
进藏	-11069
进驻	-11070
远的	-11071
远航	-11072
连战	-11073
连接	-11074
连锁	-11075
连队	-11076
迟迟	-11077
迫降	-11078
述评	-11079
迷失	-11080
追击	-11081
追踪	-11082
退休	-11083
退市	-11084
退还	-11085
适合	-11086
适用	-11087
逃生	-11088
逃避	-11089
选准	-11090
选民	-11091
递增	-11092
通力	-11093
通常	-11094
造船	-11095
造谣	-11096
逼人	-11097
逼供	-11098
逼迫	-11099
遇难	-11100
道主	-11101
道教	-11102
遗留	-11103
遣送	-11104
遥远	-11105
遭敌	-11106
避开	-11107
那亚	-11108
那就	-11109
那段	-11110
邯钢	-11111
部下	-11112
部级	-11113
都为	-11114
都对	-11115
都曾	-11116
都还	-11117
配股	-11118
配额	-11119
酞郎	-11120
释法	-11121
里根	-11122
里的	-11123
里约	-11124
重任	-11125
重担	-11126
重振	-11127
金华	-11128
金牌	-11129
金的	-11130
金门	-11131
金顶	-11132
鉴别	-11133
钥匙	-11134
钦佩	-11135
银河	-11136
铸造	-11137
铺开	-11138
链条	-11139
销毁	-11140
销路	-11141
错了	-11142
镇压	-11143
镜头	-11144
长和	-11145
长度	-11146
长春	-11147
长老	-11148
长赵	-11149
长达	-11150
门店	-11151
闭幕	-11152
闻名	-11153
队员	-11154
阴谋	-11155
阵营	-11156
阶层	-11157
阻止	-11158
阿利	-11159
附庸	-11160
附近	-11161
陆地	-11162
陆航	-11163
陈毅	-11164
陌生	-11165
降税	-11166
限度	-11167
险恶	-11168
陷于	-11169
隐患	-11170
难有	-11171
难逢	-11172
雄厚	-11173
雄师	-11174
雄风	-11175
集会	-11176
集资	-11177
雪中	-11178
零年	-11179
需费	-11180
青海	-11181
非要	-11182
面到	-11183
面时	-11184
韩方	-11185
韩美	-11186
音乐	-11187
音机	-11188
音速	-11189
顶峰	-11190
顺便	-11191
预先	-11192
预报	-11193
频频	-11194
题词	-11195
风气	-11196
风浪	-11197
食盐	-11198
饱受	-11199
香皂	-11200
马上	-11201
马祖	-11202
马首	-11203
驱使	-11204
驻地	-11205
驻扎	-11206
驻日	-11207
驻韩	-11208
骇客	-11209
验收	-11210
骚乱	-11211
高中	-11212
高举	-11213
高新	-11214
高枕	-11215
鬼话	-11216
魅力	-11217
鱼圈	-11218
鲍彻	-11219
鸡肉	-11220
黄埔	-11221
黄河	-11222
黑人	-11223
黑恶	-11224
鼓动	-11225
,20	-11226
,21	-11227
,50	-11228
.26	-11229
01/	-11230
1.6	-11231
10%	-11232
104	-11233
105	-11234
12%	-11235
150	-11236
3%。	-11237
30%	-11238
50%	-11239
70%	-11240
8%,	-11241
9·5	-11242
III	-11243
abm	-11244
ina	-11245
”、“	-11246
▁(“	-11247
▁11	-11248
▁3、	-11249
▁45	-11250
▁一年	-11251
▁一种	-11252
▁三个	-11253
▁三国	-11254
▁下午	-11255
▁不断	-11256
▁不是	-11257
▁东山	-11258
▁东部	-11259
▁中华	-11260
▁中印	-11261
▁也正	-11262
▁事发	-11263
▁人民	-11264
▁他的	-11265
▁他称	-11266
▁但对	-11267
▁何况	-11268
▁你们	-11269
▁修改	-11270
▁先进	-11271
▁入世	-11272
▁全年	-11273
▁全省	-11274
▁其他	-11275
▁军委	-11276
▁冲绳	-11277
▁决议	-11278
▁几十	-11279
▁列宁	-11280
▁创造	-11281
▁初步	-11282
▁判决	-11283
▁前者	-11284
▁劳动	-11285
▁南非	-11286
▁印度	-11287
▁原来	-11288
▁受托	-11289
▁古巴	-11290
▁另据	-11291
▁各个	-11292
▁同年	-11293
▁同日	-11294
▁后来	-11295
▁否则	-11296
▁和平	-11297
▁善良	-11298
▁四川	-11299
▁四是	-11300
▁回顾	-11301
▁国际	-11302
▁在一	-11303
▁在以	-11304
▁埃及	-11305
▁基于	-11306
▁外界	-11307
▁大家	-11308
▁大量	-11309
▁如何	-11310
▁妻子	-11311
▁学员	-11312
▁实施	-11313
▁实行	-11314
▁审计	-11315
▁对外	-11316
▁导弹	-11317
▁导航	-11318
▁尤其	-11319
▁就是	-11320
▁就连	-11321
▁巩固	-11322
▁布希	-11323
▁应当	-11324
▁建立	-11325
▁引诱	-11326
▁张铭	-11327
▁彼此	-11328
▁忽略	-11329
▁总体	-11330
▁我党	-11331
▁战略	-11332
▁抓好	-11333
▁投资	-11334
▁报导	-11335
▁报道	-11336
▁拜登	-11337
▁据称	-11338
▁据赵	-11339
▁推进	-11340
▁搞好	-11341
▁政协	-11342
▁新型	-11343
▁新闻	-11344
▁早在	-11345
▁时代	-11346
▁有了	-11347
▁有近	-11348
▁未来	-11349
▁本文	-11350
▁朱锋	-11351
▁条约	-11352
▁极端	-11353
▁概括	-11354
▁此时	-11355
▁此番	-11356
▁毒品	-11357
▁比如	-11358
▁民主	-11359
▁河北	-11360
▁法国	-11361
▁济南	-11362
▁海军	-11363
▁海外	-11364
▁满足	-11365
▁甚至	-11366
▁瞬间	-11367
▁社会	-11368
▁祖国	-11369
▁福州	-11370
▁空中	-11371
▁空军	-11372
▁结果	-11373
▁维持	-11374
▁综合	-11375
▁网上	-11376
▁美俄	-11377
▁翻开	-11378
▁自从	-11379
▁舆论	-11380
▁营造	-11381
▁落后	-11382
▁落实	-11383
▁行政	-11384
▁西奥	-11385
▁西部	-11386
▁要从	-11387
▁论坛	-11388
▁请问	-11389
▁谈及	-11390
▁财政	-11391
▁贺电	-11392
▁迄今	-11393
▁近代	-11394
▁还要	-11395
▁这与	-11396
▁这里	-11397
▁透过	-11398
▁造成	-11399
▁邪教	-11400
▁酞空	-11401
▁长期	-11402
▁阁下	-11403
▁阿卡	-11404
▁阿扁	-11405
▁阿罗	-11406
▁随同	-11407
▁难怪	-11408
▁难道	-11409
▁韩国	-11410
▁首次	-11411
一个大	-11412
一小时	-11413
一层楼	-11414
一年内	-11415
一年的	-11416
一日电	-11417
一旦被	-11418
一条路	-11419
一贯的	-11420
一部份	-11421
丁访华	-11422
七十二	-11423
七日电	-11424
七需要	-11425
万人口	-11426
三十日	-11427
三年前	-11428
三日电	-11429
三点一	-11430
三道四	-11431
上万名	-11432
上不去	-11433
上任后	-11434
上加霜	-11435
上指出	-11436
下一步	-11437
下才有	-11438
下榻的	-11439
下降了	-11440
不一样	-11441
不利于	-11442
不可分	-11443
不可告	-11444
不可少	-11445
不可磨	-11446
不合理	-11447
不同时	-11448
不存在	-11449
不开的	-11450
不战而	-11451
不扣地	-11452
不提出	-11453
不改变	-11454
不断向	-11455
不断把	-11456
不满和	-11457
不满意	-11458
不知道	-11459
不确定	-11460
不稳定	-11461
不能只	-11462
不贬值	-11463
不赞同	-11464
不足以	-11465
不适当	-11466
不透明	-11467
与两国	-11468
与中共	-11469
与传统	-11470
与俄方	-11471
与保护	-11472
与共享	-11473
与其他	-11474
与包括	-11475
与印尼	-11476
与国外	-11477
与国家	-11478
与基里	-11479
与它们	-11480
与挑战	-11481
与权利	-11482
与民主	-11483
与海军	-11484
与环境	-11485
与盟国	-11486
与科技	-11487
与经济	-11488
与美国	-11489
与诞生	-11490
世界是	-11491
东亚及	-11492
东山岛	-11493
东西部	-11494
两党和	-11495
两岸及	-11496
两条线	-11497
两部分	-11498
严格把	-11499
严格的	-11500
丧失了	-11501
个工作	-11502
个月的	-11503
个特点	-11504
中一些	-11505
中东欧	-11506
中共的	-11507
中具有	-11508
中发挥	-11509
中受益	-11510
中国前	-11511
中国同	-11512
中国愿	-11513
中国还	-11514
中坚持	-11515
中央到	-11516
中实施	-11517
中心的	-11518
中情局	-11519
中承诺	-11520
中指出	-11521
中方与	-11522
中方的	-11523
中有关	-11524
中美就	-11525
为何还	-11526
为建设	-11527
为日本	-11528
为自己	-11529
为重点	-11530
为首的	-11531
主义地	-11532
主义者	-11533
主动向	-11534
主持下	-11535
主要有	-11536
主题是	-11537
举行盛	-11538
之中的	-11539
之后的	-11540
之所为	-11541
之所举	-11542
之日起	-11543
之称的	-11544
乐队奏	-11545
九七年	-11546
九十五	-11547
也不要	-11548
也包括	-11549
也十分	-11550
也反映	-11551
也同样	-11552
也将在	-11553
也强调	-11554
也得到	-11555
也成了	-11556
也支持	-11557
也是在	-11558
也知道	-11559
也缺乏	-11560
也认为	-11561
也逐年	-11562
也都将	-11563
也非常	-11564
乡一级	-11565
乱收费	-11566
了一套	-11567
了一次	-11568
了下来	-11569
了台湾	-11570
了国内	-11571
了国家	-11572
了战争	-11573
了时代	-11574
了消费	-11575
了解到	-11576
了解放	-11577
了许多	-11578
了赖以	-11579
事件的	-11580
事务所	-11581
事实上	-11582
事情上	-11583
事故的	-11584
二十七	-11585
二十五	-11586
二十四	-11587
二年的	-11588
二月十	-11589
于事实	-11590
于内容	-11591
于去年	-11592
于泰山	-11593
亏损面	-11594
五千年	-11595
五年的	-11596
五日电	-11597
亚康母	-11598
亚洲的	-11599
亚诺夫	-11600
交往的	-11601
交流与	-11602
交通部	-11603
亲民党	-11604
人人有	-11605
人们所	-11606
人可以	-11607
人寻味	-11608
人应当	-11609
人感到	-11610
人才和	-11611
人是最	-11612
人来说	-11613
人死亡	-11614
人民都	-11615
人注目	-11616
人深深	-11617
人类的	-11618
亿人民	-11619
仅次于	-11620
仇敌忾	-11621
介机构	-11622
从一定	-11623
从不同	-11624
从严治	-11625
从事的	-11626
从体制	-11627
从北京	-11628
从地下	-11629
他国为	-11630
他必须	-11631
他总是	-11632
以下的	-11633
以个人	-11634
以中国	-11635
以加强	-11636
以及婚	-11637
以外的	-11638
以开放	-11639
以往的	-11640
以推动	-11641
以政府	-11642
以此来	-11643
以牺牲	-11644
以确保	-11645
以种种	-11646
以美国	-11647
以议会	-11648
以证明	-11649
以适应	-11650
以非法	-11651
价还价	-11652
企业到	-11653
企业界	-11654
伊朗的	-11655
伍尔泽	-11656
众议员	-11657
优美的	-11658
会增加	-11659
会晤时	-11660
会见并	-11661
会计法	-11662
会议室	-11663
会谈前	-11664
会造成	-11665
会遇到	-11666
传教士	-11667
伤亡的	-11668
但同时	-11669
但始终	-11670
但总体	-11671
但没有	-11672
但现在	-11673
但还是	-11674
位上升	-11675
体制下	-11676
体系中	-11677
体系的	-11678
余克礼	-11679
作俑者	-11680
作用与	-11681
作用是	-11682
你们的	-11683
使人们	-11684
使全国	-11685
使出了	-11686
使双方	-11687
使命感	-11688
使我国	-11689
使整个	-11690
使用好	-11691
使用的	-11692
使许多	-11693
使这一	-11694
侵犯了	-11695
侵略者	-11696
便捷的	-11697
俄使馆	-11698
俄安全	-11699
保守派	-11700
保护好	-11701
保护费	-11702
保证该	-11703
保险业	-11704
保障部	-11705
信心把	-11706
信总理	-11707
信用证	-11708
信释疑	-11709
修订的	-11710
债转股	-11711
倾注了	-11712
做什么	-11713
停止过	-11714
停车场	-11715
像王伟	-11716
充分的	-11717
充实率	-11718
充满活	-11719
先生的	-11720
免税的	-11721
党支部	-11722
党政军	-11723
全国的	-11724
全天候	-11725
全委会	-11726
全球祗	-11727
八日至	-11728
公众的	-11729
公共产	-11730
公司在	-11731
公司总	-11732
公园的	-11733
公平的	-11734
公民的	-11735
六月初	-11736
六点二	-11737
共同为	-11738
关于在	-11739
关系全	-11740
关系法	-11741
其中最	-11742
其发展	-11743
其国内	-11744
其飞机	-11745
具备了	-11746
养老金	-11747
内容是	-11748
内容的	-11749
内政局	-11750
内部已	-11751
农村的	-11752
决不让	-11753
决定了	-11754
决定从	-11755
冷战后	-11756
凌驾于	-11757
几年前	-11758
凡诺普	-11759
出三千	-11760
出口到	-11761
出台的	-11762
出多少	-11763
出现在	-11764
出生于	-11765
出问题	-11766
分列式	-11767
分别向	-11768
分别在	-11769
分子和	-11770
分工和	-11771
分界线	-11772
切不可	-11773
创造力	-11774
创造的	-11775
初步的	-11776
利比亚	-11777
别国的	-11778
到今年	-11779
到头来	-11780
到实处	-11781
到日本	-11782
到现在	-11783
到艰苦	-11784
到西藏	-11785
制假售	-11786
制胜的	-11787
制造了	-11788
制造商	-11789
前几年	-11790
前进的	-11791
前首相	-11792
副团长	-11793
副院长	-11794
力和抗	-11795
力资源	-11796
力量也	-11797
办理了	-11798
加勒比	-11799
加强其	-11800
加强同	-11801
加快了	-11802
努力使	-11803
努力和	-11804
势力也	-11805
化发展	-11806
化程度	-11807
北南方	-11808
北方的	-11809
北约的	-11810
区别于	-11811
区域内	-11812
区域化	-11813
区域性	-11814
十一条	-11815
十三点	-11816
十二月	-11817
十五届	-11818
十五日	-11819
十八条	-11820
十六大	-11821
十几年	-11822
十四条	-11823
十年来	-11824
十年里	-11825
午餐会	-11826
半岛的	-11827
华进行	-11828
协助的	-11829
协调与	-11830
单方面	-11831
卜杜拉	-11832
占统治	-11833
占肉类	-11834
卡多佐	-11835
危害的	-11836
却成了	-11837
历来是	-11838
历来被	-11839
历程中	-11840
原则上	-11841
原因和	-11842
去参观	-11843
去年底	-11844
参与了	-11845
参加过	-11846
参访团	-11847
又一个	-11848
又促进	-11849
又遭受	-11850
又需要	-11851
及国际	-11852
及对其	-11853
及时的	-11854
及有关	-11855
反倾销	-11856
反偷渡	-11857
反对和	-11858
反潜机	-11859
反走私	-11860
反邪教	-11861
发事件	-11862
发出了	-11863
发射架	-11864
发射车	-11865
发展权	-11866
发挥着	-11867
发生时	-11868
发生着	-11869
受关注	-11870
受危害	-11871
受益者	-11872
受缺水	-11873
受邪教	-11874
变化是	-11875
变更或	-11876
口可乐	-11877
另一个	-11878
只有在	-11879
只能寄	-11880
可以处	-11881
可以用	-11882
可作为	-11883
可想而	-11884
可能隐	-11885
可说是	-11886
台军方	-11887
台就座	-11888
台当局	-11889
台湾不	-11890
台湾以	-11891
台湾在	-11892
号决议	-11893
司司长	-11894
司马义	-11895
各成员	-11896
各政党	-11897
同全国	-11898
同北京	-11899
同美国	-11900
同美方	-11901
同自己	-11902
名护市	-11903
后所应	-11904
向上的	-11905
向世界	-11906
向中共	-11907
向他们	-11908
向前看	-11909
向我们	-11910
向日本	-11911
向朝鲜	-11912
吞吐量	-11913
否决汤	-11914
听取了	-11915
吴官正	-11916
吴文英	-11917
周永康	-11918
呼吁的	-11919
命令到	-11920
和专项	-11921
和严格	-11922
和个人	-11923
和他的	-11924
和企业	-11925
和作风	-11926
和信任	-11927
和做法	-11928
和其它	-11929
和决策	-11930
和分歧	-11931
和印度	-11932
和厦门	-11933
和各项	-11934
和命运	-11935
和城市	-11936
和宣传	-11937
和对外	-11938
和平之	-11939
和幻影	-11940
和影响	-11941
和战略	-11942
和手段	-11943
和打击	-11944
和担心	-11945
和提供	-11946
和政治	-11947
和教育	-11948
和方向	-11949
和智慧	-11950
和服务	-11951
和根本	-11952
和武器	-11953
和海军	-11954
和热情	-11955
和生命	-11956
和生态	-11957
和相关	-11958
和研究	-11959
和破坏	-11960
和经验	-11961
和能力	-11962
和荣幸	-11963
和行动	-11964
和解决	-11965
和财政	-11966
和购买	-11967
和赞扬	-11968
和趋势	-11969
和重要	-11970
和销售	-11971
和鼓励	-11972
品种多	-11973
哈塔米	-11974
哈尔滨	-11975
哈瓦那	-11976
善意的	-11977
噶玛巴	-11978
回大陆	-11979
回应说	-11980
回忆起	-11981
因无法	-11982
因特网	-11983
因素的	-11984
国内政	-11985
国民的	-11986
国统会	-11987
国际部	-11988
国首相	-11989
在一些	-11990
在东京	-11991
在两国	-11992
在中央	-11993
在主席	-11994
在人们	-11995
在任何	-11996
在关岛	-11997
在其他	-11998
在厦门	-11999
在国外	-12000
在场的	-12001
在基层	-12002
在处理	-12003
在外的	-12004
在对美	-12005
在平壤	-12006
在时间	-12007
在杭州	-12008
在某一	-12009
在此间	-12010
在民族	-12011
在浙江	-12012
在演讲	-12013
在澳门	-12014
在眉睫	-12015
在运作	-12016
在这场	-12017
在这次	-12018
在那里	-12019
在野党	-12020
在青藏	-12021
地下水	-12022
地位未	-12023
地区和	-12024
地反对	-12025
地发展	-12026
地告诉	-12027
地坚持	-12028
地帮助	-12029
地推行	-12030
地放弃	-12031
地表明	-12032
地解决	-12033
地认为	-12034
地证明	-12035
地询问	-12036
坚定对	-12037
型轿车	-12038
域高原	-12039
培育下	-12040
培育了	-12041
培育的	-12042
基地的	-12043
基础是	-12044
塔利班	-12045
塔里木	-12046
增长的	-12047
士学位	-12048
处分的	-12049
备竞赛	-12050
外债的	-12051
外资金	-12052
多万元	-12053
多个省	-12054
多年前	-12055
多彩的	-12056
多数人	-12057
多样的	-12058
多领域	-12059
夜之间	-12060
大三通	-12061
大利亚	-12062
大国的	-12063
大学等	-12064
大家庭	-12065
大家都	-12066
大战略	-12067
大方向	-12068
大演习	-12069
天下还	-12070
失败的	-12071
好下场	-12072
如此之	-12073
始终把	-12074
姐妹们	-12075
姬胜德	-12076
姬鹏飞	-12077
威胁的	-12078
字方针	-12079
学习的	-12080
学说的	-12081
守信用	-12082
安全和	-12083
安全观	-12084
安然无	-12085
完善的	-12086
宗教的	-12087
官兵们	-12088
官员对	-12089
官员称	-12090
定位为	-12091
实力的	-12092
实在在	-12093
实控线	-12094
实现从	-12095
实践的	-12096
实践者	-12097
家门口	-12098
容忍的	-12099
对一个	-12100
对两国	-12101
对两岸	-12102
对中亚	-12103
对亚洲	-12104
对人民	-12105
对人的	-12106
对他们	-12107
对促进	-12108
对党的	-12109
对台风	-12110
对实现	-12111
对干部	-12112
对广大	-12113
对我军	-12114
对抗是	-12115
对抗的	-12116
对网络	-12117
对这个	-12118
对这些	-12119
对那些	-12120
对韩国	-12121
导弹护	-12122
将为此	-12123
将主要	-12124
将会是	-12125
将发展	-12126
将大大	-12127
将这个	-12128
将香港	-12129
小卫星	-12130
小渊的	-12131
少先队	-12132
少数人	-12133
尔基亚	-12134
尔斯克	-12135
就一刻	-12136
就不是	-12137
就不能	-12138
就两国	-12139
就几乎	-12140
就加强	-12141
就受到	-12142
就可能	-12143
就影响	-12144
就是一	-12145
就是想	-12146
就有了	-12147
就派出	-12148
就职后	-12149
尼克松	-12150
尼奥夫	-12151
尽可能	-12152
尽快使	-12153
尽脑汁	-12154
局所属	-12155
居世界	-12156
居全国	-12157
展开了	-12158
岗位上	-12159
工企业	-12160
工会法	-12161
工作时	-12162
工作还	-12163
工程师	-12164
巩固与	-12165
已关闭	-12166
已决定	-12167
已宣布	-12168
已有的	-12169
已有近	-12170
已没有	-12171
已深入	-12172
已知的	-12173
已签署	-12174
已经不	-12175
已造成	-12176
巴拿马	-12177
市场中	-12178
市场化	-12179
市场对	-12180
市市长	-12181
布什在	-12182
布什的	-12183
布宜诺	-12184
希拉里	-12185
希望其	-12186
希望有	-12187
干什么	-12188
干部要	-12189
平均每	-12190
年代末	-12191
年全国	-12192
年增加	-12193
年多来	-12194
年轻人	-12195
并决定	-12196
并发展	-12197
并取得	-12198
并可以	-12199
并最终	-12200
并相信	-12201
并继续	-12202
并认为	-12203
并访问	-12204
并重申	-12205
并降落	-12206
幼儿园	-12207
广东省	-12208
应加大	-12209
应当为	-12210
应当在	-12211
应当将	-12212
应继续	-12213
应该被	-12214
应该说	-12215
废水的	-12216
开发与	-12217
开启了	-12218
开始前	-12219
开展治	-12220
开辟了	-12221
弄虚作	-12222
式导弹	-12223
引发了	-12224
引发的	-12225
引导好	-12226
张万年	-12227
强劲的	-12228
强调的	-12229
归功于	-12230
当局的	-12231
当年的	-12232
形势的	-12233
形形色	-12234
影响力	-12235
影响而	-12236
很高的	-12237
徐孝慈	-12238
得人心	-12239
得天独	-12240
得逞的	-12241
心理学	-12242
必须以	-12243
必须在	-12244
忘记了	-12245
怎么样	-12246
怎么能	-12247
急用忍	-12248
性战略	-12249
性措施	-12250
性武器	-12251
性法律	-12252
性行业	-12253
总代表	-12254
总数的	-12255
总统后	-12256
总统在	-12257
总计达	-12258
总领事	-12259
恩格斯	-12260
悠久的	-12261
您怎样	-12262
想象的	-12263
意在挑	-12264
意料地	-12265
意见对	-12266
意识到	-12267
感受到	-12268
成功地	-12269
成员间	-12270
成果的	-12271
我们所	-12272
我坚信	-12273
我的老	-12274
我认为	-12275
或正在	-12276
或相似	-12277
或者说	-12278
战场的	-12279
战斗员	-12280
战略上	-12281
战略中	-12282
战线的	-12283
所关注	-12284
所决定	-12285
所在地	-12286
所必须	-12287
所赞赏	-12288
扁政府	-12289
手段来	-12290
才能使	-12291
才能在	-12292
才谈得	-12293
扎实的	-12294
执行官	-12295
扩散和	-12296
找到了	-12297
承担的	-12298
把人类	-12299
把日本	-12300
把话说	-12301
把这些	-12302
把这项	-12303
抓获了	-12304
投入到	-12305
投入的	-12306
投票率	-12307
投资和	-12308
报道的	-12309
拉美国	-12310
拉雅山	-12311
招待会	-12312
持乐观	-12313
持肯定	-12314
指挥车	-12315
指挥部	-12316
据报道	-12317
掌握了	-12318
接受的	-12319
推进器	-12320
措施对	-12321
提案在	-12322
提法不	-12323
揭开了	-12324
搞先进	-12325
搞对抗	-12326
支出的	-12327
支持下	-12328
支部队	-12329
改善与	-12330
改组为	-12331
改造和	-12332
政党的	-12333
政府是	-12334
政治化	-12335
政治部	-12336
政界和	-12337
敌人的	-12338
敏感性	-12339
救不了	-12340
救捞局	-12341
数学模	-12342
数百名	-12343
整体的	-12344
文件所	-12345
文件的	-12346
文化所	-12347
文化等	-12348
文化风	-12349
斗争下	-12350
斯科特	-12351
新军事	-12352
新型的	-12353
新形势	-12354
新战法	-12355
新战略	-12356
新挑战	-12357
新月异	-12358
新材料	-12359
新理论	-12360
新组建	-12361
新进展	-12362
方市场	-12363
方法与	-12364
方法的	-12365
方面是	-12366
无任何	-12367
无私的	-12368
无立足	-12369
无论是	-12370
无限的	-12371
既面临	-12372
日内瓦	-12373
日凌晨	-12374
日前在	-12375
日晚间	-12376
日本在	-12377
日本将	-12378
日访问	-12379
日领馆	-12380
旧体制	-12381
时候了	-12382
时强调	-12383
时必须	-12384
时间表	-12385
明白其	-12386
星座号	-12387
是一国	-12388
是一篇	-12389
是不会	-12390
是中共	-12391
是人们	-12392
是保持	-12393
是保证	-12394
是充满	-12395
是全军	-12396
是友好	-12397
是唯一	-12398
是实施	-12399
是宪法	-12400
是布什	-12401
是希望	-12402
是扩大	-12403
是技术	-12404
是抵御	-12405
是指在	-12406
是政府	-12407
是时代	-12408
是智利	-12409
是有着	-12410
是朝韩	-12411
是来自	-12412
是检验	-12413
是海外	-12414
是目前	-12415
是社会	-12416
是绝对	-12417
是部队	-12418
是针对	-12419
是随着	-12420
是非常	-12421
显示了	-12422
显示出	-12423
普罗迪	-12424
普选票	-12425
曲格平	-12426
更准确	-12427
更容易	-12428
更高的	-12429
曹刚川	-12430
曾发生	-12431
曾经与	-12432
最主要	-12433
最初的	-12434
最后的	-12435
最困难	-12436
最好的	-12437
最终将	-12438
有一种	-12439
有不同	-12440
有不少	-12441
有两种	-12442
有人说	-12443
有优势	-12444
有历史	-12445
有很多	-12446
有所为	-12447
有机会	-12448
有机地	-12449
有消息	-12450
有能力	-12451
朝鲜已	-12452
期工程	-12453
本世纪	-12454
本办法	-12455
本来就	-12456
朱凤芝	-12457
机械化	-12458
李福祥	-12459
李纪周	-12460
李鸿禧	-12461
李鹏还	-12462
条约和	-12463
来中国	-12464
来分析	-12465
来满足	-12466
来维持	-12467
杰福兹	-12468
极少数	-12469
某些人	-12470
柯林顿	-12471
根据的	-12472
根植于	-12473
检查组	-12474
植根于	-12475
楚树龙	-12476
概括为	-12477
模式的	-12478
欢庆的	-12479
欢迎的	-12480
正处在	-12481
正常的	-12482
正逐步	-12483
歪曲为	-12484
每一个	-12485
每个人	-12486
毛主席	-12487
民主持	-12488
民主的	-12489
民众有	-12490
民党的	-12491
气东输	-12492
水平上	-12493
水平与	-12494
汪恕诚	-12495
沈林根	-12496
沉浸在	-12497
沉重的	-12498
法制办	-12499
法制的	-12500
法制讲	-12501
波音七	-12502
活跃的	-12503
派飞机	-12504
流亡者	-12505
浙江省	-12506
海关的	-12507
海协会	-12508
海口市	-12509
海外的	-12510
海陆空	-12511
深圳市	-12512
温室里	-12513
游览了	-12514
湄公河	-12515
湖北省	-12516
演习中	-12517
潜在的	-12518
潜艇的	-12519
澜沧江	-12520
激光炮	-12521
激荡的	-12522
火力战	-12523
火车头	-12524
灾难的	-12525
炸药的	-12526
热情地	-12527
热情的	-12528
热烈的	-12529
父母的	-12530
牟新生	-12531
特别要	-12532
特委会	-12533
特点是	-12534
犯罪的	-12535
独特的	-12536
独立后	-12537
王乐毅	-12538
王乐泉	-12539
王旭东	-12540
现在是	-12541
现场的	-12542
现实中	-12543
现实的	-12544
现行的	-12545
理想和	-12546
理论与	-12547
甚了解	-12548
生产和	-12549
生命的	-12550
田凤山	-12551
由财政	-12552
留下我	-12553
留学生	-12554
白南舜	-12555
百亿元	-12556
百花齐	-12557
的一些	-12558
的一半	-12559
的一天	-12560
的一幕	-12561
的一方	-12562
的一致	-12563
的三大	-12564
的三百	-12565
的不断	-12566
的不满	-12567
的专利	-12568
的两个	-12569
的中央	-12570
的中柬	-12571
的主题	-12572
的争论	-12573
的事件	-12574
的事例	-12575
的事迹	-12576
的事项	-12577
的人事	-12578
的人物	-12579
的位置	-12580
的作品	-12581
的共识	-12582
的内涵	-12583
的军队	-12584
的军魂	-12585
的准备	-12586
的出台	-12587
的制定	-12588
的前列	-12589
的协议	-12590
的印象	-12591
的危害	-12592
的压力	-12593
的发言	-12594
的只是	-12595
的各国	-12596
的土壤	-12597
的地区	-12598
的坚定	-12599
的处罚	-12600
的大型	-12601
的大潮	-12602
的头目	-12603
的妻子	-12604
的安排	-12605
的官员	-12606
的实施	-12607
的实质	-12608
的工具	-12609
的工资	-12610
的巨大	-12611
的开放	-12612
的形势	-12613
的形式	-12614
的心声	-12615
的心情	-12616
的必然	-12617
的意思	-12618
的成败	-12619
的战斗	-12620
的手段	-12621
的扩大	-12622
的报道	-12623
的拦截	-12624
的指挥	-12625
的措施	-12626
的攻击	-12627
的教育	-12628
的文本	-12629
的日本	-12630
的时代	-12631
的最好	-12632
的有力	-12633
的构思	-12634
的构想	-12635
的梦想	-12636
的正常	-12637
的比例	-12638
的海军	-12639
的演讲	-12640
的热忱	-12641
的焦点	-12642
的父母	-12643
的物质	-12644
的特色	-12645
的状况	-12646
的现状	-12647
的矿工	-12648
的程序	-12649
的税收	-12650
的突出	-12651
的立法	-12652
的签署	-12653
的粮食	-12654
的综合	-12655
的罪行	-12656
的背后	-12657
的苦难	-12658
的行政	-12659
的表态	-12660
的角色	-12661
的言论	-12662
的诚意	-12663
的读者	-12664
的贸易	-12665
的资金	-12666
的边缘	-12667
的这个	-12668
的进展	-12669
的途径	-12670
的道理	-12671
的闹剧	-12672
的防御	-12673
的陪同	-12674
的革命	-12675
的飞机	-12676
的首要	-12677
监事会	-12678
监察部	-12679
盖耶夫	-12680
目前还	-12681
相对的	-12682
相撞的	-12683
省区市	-12684
看望了	-12685
真实的	-12686
真正的	-12687
真目标	-12688
真纪子	-12689
着眼于	-12690
知识和	-12691
短暂的	-12692
短期内	-12693
研制的	-12694
研究了	-12695
研究班	-12696
硬着陆	-12697
确保在	-12698
确定了	-12699
确实是	-12700
确立了	-12701
社会是	-12702
社会要	-12703
积累了	-12704
称必须	-12705
穷国和	-12706
空军的	-12707
空拦截	-12708
突出和	-12709
突出地	-12710
立场上	-12711
立陶宛	-12712
竞争中	-12713
第一天	-12714
第一步	-12715
第一站	-12716
第一线	-12717
第一颗	-12718
第三国	-12719
第二届	-12720
第四次	-12721
等出席	-12722
等原因	-12723
等国的	-12724
等多种	-12725
等工作	-12726
等情况	-12727
等滞后	-12728
筹委会	-12729
签署后	-12730
签订了	-12731
管理好	-12732
米蒂奇	-12733
类电子	-12734
系统中	-12735
系统性	-12736
紧迫的	-12737
红地毯	-12738
约束力	-12739
纪念馆	-12740
纯洁性	-12741
纺织品	-12742
纽约州	-12743
组委会	-12744
组建了	-12745
组织在	-12746
经不起	-12747
经历过	-12748
经受了	-12749
经济已	-12750
经营性	-12751
经营罪	-12752
结构性	-12753
结果逐	-12754
给人类	-12755
给美国	-12756
绝不能	-12757
维吾尔	-12758
维的亚	-12759
编制了	-12760
罚款的	-12761
罢免案	-12762
美军机	-12763
美国也	-12764
美国从	-12765
美国最	-12766
美联储	-12767
群众性	-12768
老工业	-12769
考察中	-12770
考察了	-12771
考虑了	-12772
者不得	-12773
而且在	-12774
而为之	-12775
而众智	-12776
而奋斗	-12777
而影响	-12778
而敏感	-12779
而是要	-12780
而来的	-12781
而没有	-12782
而繁荣	-12783
而遭受	-12784
联谊会	-12785
肯定了	-12786
背景和	-12787
背离了	-12788
胜利的	-12789
胡长清	-12790
脉相承	-12791
脱离了	-12792
自主权	-12793
自信和	-12794
自己是	-12795
自民党	-12796
自由化	-12797
自绝于	-12798
自觉性	-12799
至今日	-12800
至今还	-12801
艾买提	-12802
花巨额	-12803
若干个	-12804
苦干不	-12805
范登堡	-12806
草案对	-12807
菜一汤	-12808
萨拉赫	-12809
葡萄牙	-12810
蕴藏着	-12811
虚拟的	-12812
行政院	-12813
补偿费	-12814
补充说	-12815
表现为	-12816
表示对	-12817
表示将	-12818
表示要	-12819
被判处	-12820
西雅图	-12821
要不断	-12822
要保障	-12823
要做到	-12824
要充分	-12825
要取消	-12826
要成为	-12827
要抓好	-12828
要提高	-12829
要改革	-12830
要求和	-12831
要求在	-12832
要求的	-12833
要积极	-12834
要解决	-12835
要认真	-12836
要运用	-12837
要进行	-12838
要重点	-12839
要防止	-12840
规范和	-12841
解决的	-12842
计划和	-12843
认同的	-12844
认真的	-12845
认识和	-12846
认识的	-12847
讨论了	-12848
讨论和	-12849
讨论时	-12850
让人们	-12851
训练的	-12852
议会间	-12853
议案的	-12854
记者李	-12855
记者贺	-12856
记者赵	-12857
记者陈	-12858
讲了话	-12859
讲正气	-12860
讲话和	-12861
许可而	-12862
许多人	-12863
论坛上	-12864
设立的	-12865
访日本	-12866
访英国	-12867
证监会	-12868
评论员	-12869
该地区	-12870
该条约	-12871
该法案	-12872
该项目	-12873
说成是	-12874
说服力	-12875
诺维奇	-12876
调整和	-12877
谈判和	-12878
谈判的	-12879
谈起来	-12880
谋发展	-12881
谢尔顿	-12882
责任重	-12883
质量是	-12884
贸易和	-12885
贾志杰	-12886
资本家	-12887
赋予了	-12888
走上了	-12889
走私案	-12890
走越远	-12891
起好步	-12892
起点上	-12893
起码的	-12894
超过了	-12895
跨世纪	-12896
跨党派	-12897
转化为	-12898
转变为	-12899
转过来	-12900
软着陆	-12901
较多的	-12902
辉煌的	-12903
迄今仍	-12904
过去的	-12905
过多种	-12906
过许多	-12907
迈进的	-12908
运中心	-12909
运用于	-12910
还不够	-12911
还十分	-12912
还受到	-12913
还同意	-12914
还应该	-12915
还是不	-12916
还比较	-12917
这不是	-12918
这也是	-12919
这些人	-12920
这件事	-12921
这才是	-12922
这是很	-12923
这样做	-12924
这都是	-12925
进入了	-12926
进入到	-12927
进展的	-12928
进攻和	-12929
适应和	-12930
递交了	-12931
通信的	-12932
通信等	-12933
速发展	-12934
造成了	-12935
遗留下	-12936
遭到了	-12937
避免的	-12938
那就是	-12939
那样的	-12940
邦联制	-12941
邪教徒	-12942
邪教的	-12943
部长和	-12944
部门的	-12945
部门都	-12946
部队即	-12947
部队和	-12948
都不应	-12949
都十分	-12950
都属于	-12951
都承认	-12952
都认为	-12953
都难以	-12954
都非常	-12955
配备有	-12956
采访的	-12957
重实际	-12958
重庆市	-12959
重要性	-12960
野中广	-12961
野战化	-12962
针对性	-12963
问题而	-12964
阮国琴	-12965
防沙治	-12966
阶段性	-12967
阶段的	-12968
阿联酋	-12969
隐含着	-12970
难以在	-12971
难得出	-12972
集中与	-12973
集中在	-12974
集中的	-12975
雷达站	-12976
非国有	-12977
非战争	-12978
革命的	-12979
革命老	-12980
靳如超	-12981
项主张	-12982
预示着	-12983
预算的	-12984
领域和	-12985
领域都	-12986
颇为引	-12987
颗卫星	-12988
题目是	-12989
额缴拨	-12990
风险和	-12991
飞毛腿	-12992
饮用水	-12993
马其顿	-12994
高性能	-12995
鲅鱼圈	-12996
黑手党	-12997
黑社会	-12998
.2%,	-12999
.3%,	-13000
.6%。	-13001
.8%。	-13002
10%,	-13003
1961	-13004
1979	-13005
1985	-13006
1989	-13007
1991	-13008
1993	-13009
2002	-13010
2005	-13011
2008	-13012
2010	-13013
3500	-13014
4000	-13015
5000	-13016
8400	-13017
863”	-13018
▁一九五	-13019
▁一九四	-13020
▁一切有	-13021
▁一年来	-13022
▁乔宗淮	-13023
▁今年初	-13024
▁从近期	-13025
▁他们把	-13026
▁他们还	-13027
▁他关于	-13028
▁他多次	-13029
▁他相信	-13030
▁他还说	-13031
▁代表们	-13032
▁任何人	-13033
▁会议还	-13034
▁会谈中	-13035
▁会谈后	-13036
▁但必须	-13037
▁但这些	-13038
▁傅铁山	-13039
▁党领导	-13040
▁北京军	-13041
▁华盛顿	-13042
▁厉以宁	-13043
▁吴基传	-13044
▁国家已	-13045
▁国际上	-13046
▁在中国	-13047
▁在事关	-13048
▁在他们	-13049
▁在听取	-13050
▁在广东	-13051
▁在开展	-13052
▁在当前	-13053
▁在我国	-13054
▁在新的	-13055
▁在未来	-13056
▁在现代	-13057
▁在立法	-13058
▁在这场	-13059
▁多年来	-13060
▁她认为	-13061
▁安南说	-13062
▁安理会	-13063
▁客人们	-13064
▁宫城笃	-13065
▁对加入	-13066
▁对那些	-13067
▁尤其是	-13068
▁很显然	-13069
▁忽略了	-13070
▁我们将	-13071
▁我军应	-13072
▁我国的	-13073
▁我认为	-13074
▁换言之	-13075
▁据介绍	-13076
▁据韩国	-13077
▁无怪乎	-13078
▁曹刚川	-13079
▁李汉东	-13080
▁李肇星	-13081
▁杨洁篪	-13082
▁林和立	-13083
▁正因为	-13084
▁法轮功	-13085
▁王兆国	-13086
▁由于在	-13087
▁石广生	-13088
▁第七条	-13089
▁第三十	-13090
▁第二条	-13091
▁第六章	-13092
▁美军在	-13093
▁而这些	-13094
▁而随着	-13095
▁自冷战	-13096
▁自治区	-13097
▁菲律宾	-13098
▁蒋正华	-13099
▁要发扬	-13100
▁要引导	-13101
▁要按照	-13102
▁要注意	-13103
▁要结合	-13104
▁要继续	-13105
▁要维护	-13106
▁让我们	-13107
▁记者从	-13108
▁访问中	-13109
▁这一切	-13110
▁这两个	-13111
▁这几年	-13112
▁这是在	-13113
▁长期来	-13114
▁韩杼滨	-13115
▁首先是	-13116
▁马克思	-13117
▁马英九	-13118
▁鲁滨逊	-13119
▁黄国雄	-13120
一中一台	-13121
一些人对	-13122
一些时间	-13123
一千二百	-13124
一名官员	-13125
一场没有	-13126
一声令下	-13127
一定影响	-13128
一定要有	-13129
一年制定	-13130
一旦出现	-13131
一番周折	-13132
一直很好	-13133
一直没有	-13134
一行是应	-13135
一行访华	-13136
一项长期	-13137
万人受益	-13138
万亿美元	-13139
三分之二	-13140
三十日电	-13141
三千一百	-13142
上下功夫	-13143
上不存在	-13144
上任后的	-13145
上市公司	-13146
上的支持	-13147
上述情况	-13148
不与台湾	-13149
不予回应	-13150
不仅重视	-13151
不会发生	-13152
不会拒绝	-13153
不利因素	-13154
不利影响	-13155
不可侵犯	-13156
不可或缺	-13157
不可能的	-13158
不可逆转	-13159
不可避免	-13160
不同情况	-13161
不同看法	-13162
不容侵犯	-13163
不容分割	-13164
不容忽视	-13165
不懈奋斗	-13166
不搞对抗	-13167
不断增多	-13168
不断恶化	-13169
不断推进	-13170
不断深入	-13171
不是主观	-13172
不甘寂寞	-13173
不禁发问	-13174
不禁要问	-13175
不稳定和	-13176
不能完全	-13177
不良贷款	-13178
不败之地	-13179
不难看出	-13180
与会两岸	-13181
与会代表	-13182
与时俱进	-13183
与欧盟和	-13184
与江主席	-13185
与江泽民	-13186
与美国的	-13187
与鲍威尔	-13188
专业人士	-13189
专利制度	-13190
专家小组	-13191
专家相信	-13192
专项规划	-13193
专题调查	-13194
世代友好	-13195
世界上的	-13196
世界先进	-13197
世界民族	-13198
业内人士	-13199
业务素质	-13200
东亚合作	-13201
东亚国家	-13202
东南海域	-13203
东山再起	-13204
两个方面	-13205
两国元首	-13206
两国友好	-13207
两国友谊	-13208
两国国旗	-13209
两国政府	-13210
两国良好	-13211
两国虽然	-13212
两国贸易	-13213
两岸僵局	-13214
两岸平等	-13215
两极分化	-13216
两院院士	-13217
严峻考验	-13218
严格按照	-13219
严肃处理	-13220
严肃查处	-13221
严重危害	-13222
严重困难	-13223
严重违反	-13224
个人存款	-13225
个成员国	-13226
中亚各国	-13227
中伊友谊	-13228
中华儿女	-13229
中印关系	-13230
中印友好	-13231
中叙关系	-13232
中国一直	-13233
中国不会	-13234
中国主权	-13235
中国人的	-13236
中国军队	-13237
中国发展	-13238
中国取缔	-13239
中国妇女	-13240
中国已经	-13241
中国市场	-13242
中国总理	-13243
中国方面	-13244
中国正在	-13245
中国电信	-13246
中国能否	-13247
中国融入	-13248
中国金融	-13249
中德环境	-13250
中心工作	-13251
中提出了	-13252
中方机场	-13253
中朝友谊	-13254
中的十分	-13255
中美有关	-13256
中资机构	-13257
中马关系	-13258
丰富经验	-13259
主动参与	-13260
主导地位	-13261
主张世界	-13262
主张对话	-13263
主持召开	-13264
主权国家	-13265
主权范围	-13266
主要是靠	-13267
主要负责	-13268
主要责任	-13269
举行会晤	-13270
举行纪念	-13271
举足轻重	-13272
乃至整个	-13273
义务教育	-13274
乌鲁木齐	-13275
九二共识	-13276
九二精神	-13277
也不应该	-13278
也不放过	-13279
也代表了	-13280
也可能有	-13281
也提出了	-13282
也是一种	-13283
也是人类	-13284
也是当前	-13285
也是我们	-13286
也是维护	-13287
也是美国	-13288
也有可能	-13289
也要看到	-13290
也越来越	-13291
也进行了	-13292
也面临着	-13293
了中国对	-13294
了解中国	-13295
事实表明	-13296
事实证明	-13297
二分之一	-13298
二日晚间	-13299
二是较为	-13300
二零零零	-13301
于一九五	-13302
互不干涉	-13303
互信关系	-13304
五国峰会	-13305
五架飞机	-13306
五艘舰艇	-13307
五角大厦	-13308
五角大楼	-13309
亚欧合作	-13310
亚洲各国	-13311
亚洲国家	-13312
亚洲稳定	-13313
亚酞区域	-13314
交易行为	-13315
交替之际	-13316
产业升级	-13317
享受减税	-13318
京台科技	-13319
亲切问候	-13320
亲手缔造	-13321
人事制度	-13322
人们预料	-13323
人口素质	-13324
人士认为	-13325
人士透露	-13326
人才市场	-13327
人权报告	-13328
人权标准	-13329
人民内部	-13330
人民利益	-13331
人民生活	-13332
人民的心	-13333
人类发展	-13334
人防工程	-13335
亿立方米	-13336
什么时候	-13337
什么问题	-13338
仅是一个	-13339
今天举行	-13340
今年十月	-13341
今年工作	-13342
今年我国	-13343
今年秋天	-13344
介绍中国	-13345
仍有不少	-13346
从事分裂	-13347
从源头上	-13348
从而推动	-13349
他也强调	-13350
他很高兴	-13351
他本人对	-13352
代代相传	-13353
代替对抗	-13354
代表与会	-13355
代表强调	-13356
代表评价	-13357
代表资格	-13358
令人担忧	-13359
以下建议	-13360
以为自己	-13361
以及历史	-13362
以及国际	-13363
以及多种	-13364
以及有关	-13365
以德治国	-13366
件答复了	-13367
任何一个	-13368
任何部门	-13369
任重道远	-13370
企业作为	-13371
企业参与	-13372
企业发展	-13373
企业进行	-13374
企业领导	-13375
企图利用	-13376
优先发展	-13377
优势一是	-13378
优势互补	-13379
优异成绩	-13380
会计信息	-13381
伟大复兴	-13382
伤亡深表	-13383
似乎并不	-13384
但中国的	-13385
但也确实	-13386
但我们的	-13387
体制创新	-13388
体制启动	-13389
体制转换	-13390
体现的是	-13391
体系建设	-13392
体育精神	-13393
作为一个	-13394
作为中国	-13395
作了一些	-13396
作出上述	-13397
作出决定	-13398
作出贡献	-13399
作恶多端	-13400
作战原则	-13401
作战工程	-13402
作战本领	-13403
作战演练	-13404
供给不足	-13405
依法惩处	-13406
依法行政	-13407
依法追究	-13408
侦察活动	-13409
侵犯别国	-13410
侵犯我国	-13411
促使美国	-13412
促进地区	-13413
俄中两国	-13414
保卫祖国	-13415
保护资源	-13416
保持密切	-13417
保持清醒	-13418
保持良好	-13419
保障公民	-13420
信息作战	-13421
信息化的	-13422
信息战的	-13423
信息时代	-13424
信息泄密	-13425
信息环境	-13426
信息资源	-13427
修订后的	-13428
值得关注	-13429
值得我们	-13430
做好准备	-13431
做好长期	-13432
元首会晤	-13433
元首认为	-13434
充分享受	-13435
先入为主	-13436
先生曾对	-13437
先进性的	-13438
光荣传统	-13439
克雷蒂安	-13440
党委班子	-13441
党对军队	-13442
党干事长	-13443
党的政策	-13444
党的根本	-13445
党领导人	-13446
全体代表	-13447
全力以赴	-13448
全国上下	-13449
全国各族	-13450
全民公决	-13451
全球气候	-13452
全部实现	-13453
全面合作	-13454
全面增长	-13455
全面禁止	-13456
全面解除	-13457
公共产品	-13458
公司已经	-13459
公安边防	-13460
公平竞争	-13461
公开表达	-13462
六中全会	-13463
六十年代	-13464
共同奋斗	-13465
共同应对	-13466
共同建立	-13467
共和党的	-13468
关于加强	-13469
关于发展	-13470
关于边界	-13471
关于高雄	-13472
关键环节	-13473
兴旺发达	-13474
其他一切	-13475
其他成员	-13476
其他领域	-13477
具有同等	-13478
具有悠久	-13479
内容决定	-13480
再也不能	-13481
再度自杀	-13482
军事人才	-13483
军事实力	-13484
军事手段	-13485
军事技术	-13486
军事理论	-13487
军事联盟	-13488
军事设施	-13489
军用飞机	-13490
军队之间	-13491
军队进行	-13492
农业生产	-13493
农业科技	-13494
农村社会	-13495
冠冕堂皇	-13496
决不会坐	-13497
决策机构	-13498
准备采取	-13499
减税计划	-13500
凝聚力和	-13501
几个霸权	-13502
出发点和	-13503
出口市场	-13504
出口控制	-13505
出版发行	-13506
分割出去	-13507
分子甚至	-13508
分支机构	-13509
分歧问题	-13510
分离主义	-13511
分裂出去	-13512
切实转变	-13513
刑事司法	-13514
刑讯逼供	-13515
刚刚经历	-13516
创新意识	-13517
创新能力	-13518
创造一个	-13519
创造良好	-13520
初次见面	-13521
初级阶段	-13522
利用效率	-13523
利用酞空	-13524
利用香港	-13525
利益集团	-13526
到中国去	-13527
到中国的	-13528
到去年底	-13529
制度创新	-13530
前景广阔	-13531
前途命运	-13532
副国务卿	-13533
副总经理	-13534
副院长陈	-13535
力的中国	-13536
力量之源	-13537
办公设备	-13538
加入北约	-13539
加入美国	-13540
加强团结	-13541
加强联系	-13542
加索地区	-13543
努力增强	-13544
努力工作	-13545
努力建设	-13546
努力方向	-13547
劳动模范	-13548
势头很好	-13549
勤劳智慧	-13550
包括一些	-13551
化的趋势	-13552
北京申奥	-13553
北京访问	-13554
区域合作	-13555
医科大学	-13556
十二年来	-13557
十分气愤	-13558
十分满意	-13559
十分珍惜	-13560
十月二十	-13561
千家万户	-13562
千秋大业	-13563
千载难逢	-13564
半岛局势	-13565
华夏子孙	-13566
单位之间	-13567
单极世界	-13568
南京军区	-13569
南北和解	-13570
南北差距	-13571
南昌起义	-13572
南水北调	-13573
南海舰队	-13574
南非人民	-13575
卡里莫夫	-13576
印度总理	-13577
印度政府	-13578
印美关系	-13579
历史上是	-13580
历史上有	-13581
历史上的	-13582
历史使命	-13583
历史经验	-13584
历史进程	-13585
历史问题	-13586
历届政府	-13587
历来主张	-13588
历来认为	-13589
历程一样	-13590
原则同意	-13591
厦门市长	-13592
去年年底	-13593
参与增值	-13594
参观访问	-13595
又翻开了	-13596
又遭受了	-13597
及其结果	-13598
友好小组	-13599
友好感情	-13600
双方还就	-13601
反华活动	-13602
反华闹剧	-13603
反复比较	-13604
反对分裂	-13605
发展一批	-13606
发展下去	-13607
发展中的	-13608
发展关系	-13609
发展机遇	-13610
发展环境	-13611
发展趋势	-13612
发生什么	-13613
发生冲突	-13614
发生战争	-13615
发生重大	-13616
发表意见	-13617
发表演说	-13618
取信于人	-13619
取得成功	-13620
取得成果	-13621
受到损害	-13622
受过高等	-13623
古巴大使	-13624
古巴政府	-13625
只会加剧	-13626
只字不提	-13627
只是时间	-13628
召开全国	-13629
可以看出	-13630
可以通过	-13631
可以随时	-13632
可口可乐	-13633
可宝贵的	-13634
台湾政治	-13635
台湾方面	-13636
台湾竟然	-13637
台湾经济	-13638
台湾股市	-13639
台独势力	-13640
司法救助	-13641
各个层次	-13642
各司其职	-13643
各族青年	-13644
各条战线	-13645
各种途径	-13646
各级各类	-13647
各自国家	-13648
各行各业	-13649
各项权利	-13650
各领域的	-13651
合作企业	-13652
合作机制	-13653
合作的新	-13654
合影留念	-13655
合成渡海	-13656
合理主张	-13657
合资企业	-13658
同仇敌忾	-13659
同意来访	-13660
同机抵达	-13661
向上提升	-13662
向前推进	-13663
向台出售	-13664
向美国的	-13665
周边地区	-13666
和人民的	-13667
和人民都	-13668
和其他非	-13669
和平稳定	-13670
和幻影式	-13671
和必要的	-13672
和方法论	-13673
和王后的	-13674
和生产力	-13675
和科索沃	-13676
和紧迫感	-13677
和谐稳定	-13678
品种结构	-13679
唐家璇说	-13680
唐飞辞职	-13681
商业秘密	-13682
商务部长	-13683
噤若寒蝉	-13684
四个创新	-13685
四中全会	-13686
四分之一	-13687
四十分钟	-13688
四月二十	-13689
回升的好	-13690
回旋余地	-13691
因素之一	-13692
国会议员	-13693
国债发行	-13694
国债资金	-13695
国内航线	-13696
国外评价	-13697
国家关系	-13698
国家政策	-13699
国家进行	-13700
国有大型	-13701
国有独资	-13702
国有资产	-13703
国民议会	-13704
国防动员	-13705
国防奖学	-13706
国防建设	-13707
国际公约	-13708
国际协议	-13709
国际合作	-13710
国际收支	-13711
国际货币	-13712
国际问题	-13713
圆满结束	-13714
土地管理	-13715
在中国一	-13716
在以色列	-13717
在全社会	-13718
在华投资	-13719
在希今天	-13720
在思想上	-13721
在报告中	-13722
在热那亚	-13723
在莫斯科	-13724
在香港的	-13725
地区问题	-13726
地反映了	-13727
地方财政	-13728
场所管理	-13729
坚决打击	-13730
坚实基础	-13731
坚赞平措	-13732
城市整体	-13733
基地进行	-13734
基本上是	-13735
基本特征	-13736
基本理论	-13737
基本甚至	-13738
基础建设	-13739
塞浦路斯	-13740
增信释疑	-13741
声明根据	-13742
处于一个	-13743
备忘录的	-13744
复杂问题	-13745
夏粮减产	-13746
外交部长	-13747
外国侵略	-13748
外国势力	-13749
外来竞争	-13750
外部环境	-13751
多个国家	-13752
多次表明	-13753
多次表示	-13754
多种手段	-13755
多米尼加	-13756
大专院校	-13757
大会开幕	-13758
大力开展	-13759
大力提高	-13760
大好机遇	-13761
大局服务	-13762
大打折扣	-13763
大有作为	-13764
大的欢迎	-13765
大规模的	-13766
大连海关	-13767
大陆政策	-13768
天的访问	-13769
好的经验	-13770
好的规划	-13771
如何加快	-13772
如何解决	-13773
如期实现	-13774
如果有人	-13775
如果真的	-13776
如果能够	-13777
如此激烈	-13778
始作俑者	-13779
始终不变	-13780
始终如一	-13781
始终沿着	-13782
委员建议	-13783
威慑力量	-13784
娱乐服务	-13785
子孙后代	-13786
孙玉玺说	-13787
学生负担	-13788
安全利益	-13789
安全环境	-13790
安全知识	-13791
安全链条	-13792
安全问题	-13793
完全可以	-13794
完全同意	-13795
完全没有	-13796
完成跨越	-13797
完成这一	-13798
宏伟目标	-13799
宏观经济	-13800
官员表示	-13801
官员认为	-13802
定期会晤	-13803
宝贵支持	-13804
实实在在	-13805
实施情况	-13806
实施条例	-13807
实施细则	-13808
实现中东	-13809
实现和解	-13810
实现经济	-13811
实现自主	-13812
实际出发	-13813
审查报告	-13814
审议批准	-13815
客观现实	-13816
宣传思想	-13817
宣传部门	-13818
家庭暴力	-13819
密不可分	-13820
密切配合	-13821
富有成效	-13822
对与中国	-13823
对于加强	-13824
对付中国	-13825
对俄政策	-13826
对克林顿	-13827
对华关系	-13828
对华投资	-13829
对台湾的	-13830
对外工作	-13831
对朝政策	-13832
对陈水扁	-13833
导弹总量	-13834
导弹拦截	-13835
封建意识	-13836
将于下月	-13837
将会出现	-13838
将有助于	-13839
将致力于	-13840
尊贵客人	-13841
小组讨论	-13842
尤为重要	-13843
就业岗位	-13844
就业转向	-13845
就变成了	-13846
就将开始	-13847
就是坚持	-13848
就是要把	-13849
就职典礼	-13850
局势恶化	-13851
局势紧张	-13852
层出不穷	-13853
居于首位	-13854
居民收入	-13855
展开搜寻	-13856
岛内政局	-13857
崇尚科学	-13858
工会组织	-13859
工作历来	-13860
工作取得	-13861
工商界和	-13862
工程勘察	-13863
工程措施	-13864
巨大作用	-13865
巨大成功	-13866
已就此向	-13867
已经公开	-13868
已经完成	-13869
已经形成	-13870
已经有了	-13871
已经连续	-13872
已经通过	-13873
已经高达	-13874
巴以和谈	-13875
巴卢耶夫	-13876
市场潜力	-13877
市场需求	-13878
布莱尔说	-13879
布鲁塞尔	-13880
希望寄托	-13881
帝国主义	-13882
带来好处	-13883
带来新的	-13884
干部作风	-13885
干部教育	-13886
干部选拔	-13887
平均水平	-13888
平等协商	-13889
年下半年	-13890
年克林顿	-13891
年均增长	-13892
年奥运会	-13893
年的台湾	-13894
年通过的	-13895
并参观了	-13896
并取得了	-13897
并回答了	-13898
并转达了	-13899
广东国投	-13900
广播影视	-13901
广泛关注	-13902
广泛征求	-13903
广泛深入	-13904
库尔斯克	-13905
应加强在	-13906
应当包括	-13907
应当尊重	-13908
应当履行	-13909
应当得到	-13910
应当怎样	-13911
应该做的	-13912
应该说是	-13913
延长对华	-13914
建立一种	-13915
建立更为	-13916
建立起来	-13917
建设性的	-13918
建设投资	-13919
开始实施	-13920
开展合作	-13921
开展工作	-13922
开庭审理	-13923
开拓创新	-13924
开拓前进	-13925
开拓进取	-13926
引渡条约	-13927
引起美国	-13928
强烈反响	-13929
强烈愤慨	-13930
强烈愿望	-13931
强烈要求	-13932
强烈谴责	-13933
强硬政策	-13934
当前中国	-13935
当局能许	-13936
形势发生	-13937
形式多样	-13938
形成一个	-13939
影响很大	-13940
役军官法	-13941
很不酞平	-13942
很多学校	-13943
很多问题	-13944
得到保障	-13945
得到充分	-13946
得到发展	-13947
得到根本	-13948
得到解决	-13949
循环利用	-13950
德国总理	-13951
德国政府	-13952
必不可少	-13953
必然导致	-13954
必要准备	-13955
必要条件	-13956
必须予以	-13957
必须保持	-13958
必须全面	-13959
必须加快	-13960
必须解决	-13961
忠实履行	-13962
性的认识	-13963
总产量的	-13964
总体上说	-13965
总统赞成	-13966
总统选举	-13967
恢复生产	-13968
恢复谈判	-13969
悬而未决	-13970
情报人员	-13971
意义上讲	-13972
意义上说	-13973
意义重大	-13974
感谢你们	-13975
愿进一步	-13976
懂得怎样	-13977
成为一个	-13978
成为中国	-13979
成功举行	-13980
成功访问	-13981
成立了由	-13982
我们不能	-13983
我们坚持	-13984
我们对此	-13985
我们应该	-13986
我们感到	-13987
我们愿意	-13988
我们担心	-13989
我们更加	-13990
我们面前	-13991
我国体育	-13992
我国政府	-13993
我的老乡	-13994
戒急用忍	-13995
战争形态	-13996
战争的最	-13997
战争给谁	-13998
战云密布	-13999
战备机场	-14000
战斗力和	-14001
战术演习	-14002
战略储备	-14003
战略平衡	-14004
战略报告	-14005
战略清晰	-14006
战略需求	-14007
所有技术	-14008
所有爱好	-14009
才对得起	-14010
才能保持	-14011
才能最终	-14012
才能稳定	-14013
才谈得上	-14014
扎扎实实	-14015
打电话给	-14016
打破常规	-14017
打私权限	-14018
执政之基	-14019
扩大合作	-14020
扩大开放	-14021
扰乱社会	-14022
批准这个	-14023
找准路子	-14024
技术人员	-14025
技术含量	-14026
投案自首	-14027
投票支持	-14028
投资累计	-14029
报名参选	-14030
抵达萨格	-14031
押解回国	-14032
拖延下去	-14033
招生考试	-14034
持续快速	-14035
指导地位	-14036
指导意义	-14037
挟洋自重	-14038
挪用基金	-14039
排除统一	-14040
接受美国	-14041
推动亚洲	-14042
推广应用	-14043
推翻不了	-14044
推行所谓	-14045
措施解决	-14046
提供依据	-14047
提出建议	-14048
提出批评	-14049
提前成熟	-14050
提高军队	-14051
提高我国	-14052
提高政治	-14053
搁置争议	-14054
摆在首位	-14055
支持中国	-14056
支持台湾	-14057
支柱产业	-14058
收入差距	-14059
收到实效	-14060
改变不了	-14061
改革发展	-14062
改革成果	-14063
改革步伐	-14064
攻击中国	-14065
放松警惕	-14066
政务公开	-14067
政府职能	-14068
政府财政	-14069
政府采购	-14070
政治协商	-14071
政治品格	-14072
政治理念	-14073
政治纪律	-14074
政策工具	-14075
救援行动	-14076
教育中的	-14077
教育者的	-14078
散布谣言	-14079
数总计达	-14080
文化体育	-14081
文化权利	-14082
文化遗产	-14083
文学艺术	-14084
文明古国	-14085
斯基将率	-14086
斯艾利斯	-14087
新成立的	-14088
新的冷战	-14089
新的实践	-14090
新的挑战	-14091
新的探索	-14092
新的理论	-14093
新的突破	-14094
新的篇章	-14095
新的贸易	-14096
新装备的	-14097
新闻中心	-14098
新闻单位	-14099
新阶段的	-14100
方向发展	-14101
方面作了	-14102
方面发挥	-14103
方面负有	-14104
施政成绩	-14105
旁观者清	-14106
无不成也	-14107
无不胜也	-14108
既面临着	-14109
日中两国	-14110
日新月异	-14111
日本修宪	-14112
日本国会	-14113
日本通过	-14114
日电中央	-14115
日电全国	-14116
日益明显	-14117
日益频繁	-14118
时不我待	-14119
时代挑战	-14120
时间短暂	-14121
明文规定	-14122
明显加快	-14123
明显改善	-14124
明确指出	-14125
明确提出	-14126
明确要求	-14127
昭然若揭	-14128
是一国的	-14129
是不同的	-14130
是不是有	-14131
是两回事	-14132
是关系到	-14133
是台湾的	-14134
是否应该	-14135
是在新的	-14136
是必要的	-14137
是我们党	-14138
是新时期	-14139
是未来的	-14140
是现代化	-14141
是美国的	-14142
是近年来	-14143
普遍反思	-14144
普遍认为	-14145
智利愿意	-14146
暴力事件	-14147
更加激烈	-14148
更加紧密	-14149
更加迫切	-14150
更好地为	-14151
更是成为	-14152
更高水平	-14153
最后表示	-14154
最有利于	-14155
最终决定	-14156
最高统帅	-14157
月十七日	-14158
月在北京	-14159
有些强调	-14160
有价值的	-14161
有关情况	-14162
有关法律	-14163
有利条件	-14164
有所提高	-14165
有所突破	-14166
有扩大的	-14167
有效保护	-14168
有效处理	-14169
有效措施	-14170
有望达到	-14171
有期徒刑	-14172
有消息说	-14173
有的正在	-14174
有益教训	-14175
有足够的	-14176
有这样的	-14177
服务中心	-14178
服务质量	-14179
服务贸易	-14180
朝关系的	-14181
朝美关系	-14182
朝鲜导弹	-14183
朝鲜战争	-14184
未来发展	-14185
未来需要	-14186
本国人民	-14187
本地区的	-14188
机上人员	-14189
机关干部	-14190
李洪志和	-14191
李登辉是	-14192
条件下的	-14193
条例作了	-14194
来台观光	-14195
来自改革	-14196
枢纽工程	-14197
某驱逐舰	-14198
查处案件	-14199
校外活动	-14200
根据各自	-14201
根据需要	-14202
根本的是	-14203
根本问题	-14204
格林斯潘	-14205
模糊态度	-14206
横加指责	-14207
欢迎中国	-14208
欢迎台湾	-14209
欧亚大陆	-14210
正在成为	-14211
正好说明	-14212
正常化后	-14213
正常发展	-14214
正式称呼	-14215
正当权益	-14216
正是为了	-14217
正确对待	-14218
正确方向	-14219
正面教育	-14220
此次降税	-14221
此间参加	-14222
此间媒体	-14223
武力威胁	-14224
武器试射	-14225
武装全党	-14226
残酷迫害	-14227
殖民统治	-14228
比较大的	-14229
民主人权	-14230
民主党人	-14231
民主改革	-14232
民主政治	-14233
民主进程	-14234
民族主义	-14235
民族地区	-14236
民族心理	-14237
民营企业	-14238
民营经济	-14239
民间资本	-14240
永远立于	-14241
求真务实	-14242
江泽民和	-14243
江泽民答	-14244
污水处理	-14245
沙法草案	-14246
没收财产	-14247
没有发生	-14248
没有改善	-14249
没有脱离	-14250
没有解决	-14251
治本之策	-14252
治理腐败	-14253
法人股东	-14254
法定代表	-14255
法律基础	-14256
法律手段	-14257
法律顾问	-14258
波折起伏	-14259
注册资本	-14260
洪涝灾害	-14261
活生生的	-14262
海外上市	-14263
海空卫士	-14264
消费者的	-14265
消费需求	-14266
消除误解	-14267
消除贫困	-14268
深入学习	-14269
深入研究	-14270
深刻变革	-14271
深刻领会	-14272
深化合作	-14273
深感荣幸	-14274
深感遗憾	-14275
深表歉意	-14276
深远影响	-14277
清理出来	-14278
清醒认识	-14279
温家宝在	-14280
游行活动	-14281
滋生蔓延	-14282
满陇桂雨	-14283
灾区人民	-14284
热烈祝贺	-14285
热门话题	-14286
爆炸事件	-14287
爱国主义	-14288
爱国人士	-14289
爱国热情	-14290
爱好和平	-14291
物质文化	-14292
特别注意	-14293
特派记者	-14294
犯罪案件	-14295
狠抓落实	-14296
率的提高	-14297
环境创新	-14298
环境管理	-14299
现代化是	-14300
现在我国	-14301
现在该是	-14302
现实意义	-14303
现实问题	-14304
现年五十	-14305
理论思维	-14306
甚至引发	-14307
甚至超过	-14308
生产能力	-14309
生产资料	-14310
生死存亡	-14311
由于防护	-14312
由于预算	-14313
电视电话	-14314
电视节目	-14315
留下伏笔	-14316
痴迷者在	-14317
的一个小	-14318
的人民币	-14319
的先锋队	-14320
的原则是	-14321
的发展和	-14322
的发展是	-14323
的合作外	-14324
的大开发	-14325
的好形势	-14326
的工作中	-14327
的影响力	-14328
的必要性	-14329
的政治家	-14330
的斗争中	-14331
的新一轮	-14332
的新加坡	-14333
的新发展	-14334
的新情况	-14335
的方针来	-14336
的比重为	-14337
的环境下	-14338
的社会化	-14339
的科学化	-14340
的积极性	-14341
的立场和	-14342
的老朋友	-14343
的表述是	-14344
的趋势已	-14345
的陪同下	-14346
的集装箱	-14347
的领导下	-14348
的高素质	-14349
监督法的	-14350
监督职能	-14351
目前中国	-14352
目前为止	-14353
目前已经	-14354
目前经济	-14355
直接关系	-14356
直接带动	-14357
直接影响	-14358
直接接触	-14359
相互信赖	-14360
相互通报	-14361
相当长的	-14362
相距遥远	-14363
相辅相成	-14364
看看他们	-14365
真正做到	-14366
真正落实	-14367
眼睛说瞎	-14368
着作权法	-14369
知识产权	-14370
石油供应	-14371
石油出口	-14372
研制导弹	-14373
研制成功	-14374
研究怎么	-14375
破坏这个	-14376
破灭以来	-14377
示威活动	-14378
社会历史	-14379
社会各界	-14380
社会影响	-14381
社会治安	-14382
社会生活	-14383
社会矛盾	-14384
社会面貌	-14385
神圣使命	-14386
离开以后	-14387
种种原因	-14388
科学考察	-14389
科技人才	-14390
科技创新	-14391
科技发展	-14392
科技和人	-14393
科技开发	-14394
科技成果	-14395
科研队伍	-14396
科研院所	-14397
积极举措	-14398
积极影响	-14399
积极成果	-14400
积极投身	-14401
积极评价	-14402
积极防御	-14403
穆巴拉克	-14404
空间科学	-14405
立党之本	-14406
立即召开	-14407
竞争对手	-14408
第一副总	-14409
第一阶段	-14410
第二产业	-14411
第十一次	-14412
等问题上	-14413
等项改革	-14414
管理措施	-14415
管理条例	-14416
管理漏洞	-14417
管理监督	-14418
管理部门	-14419
篡改历史	-14420
粮食成本	-14421
精神实质	-14422
精神状态	-14423
紧密合作	-14424
级驱逐舰	-14425
纪检监察	-14426
纳拉亚南	-14427
纷纷表示	-14428
纷至沓来	-14429
纽约时报	-14430
组成人员	-14431
组织力量	-14432
组织建设	-14433
终将得到	-14434
经典作家	-14435
经历过的	-14436
经常遇到	-14437
经济专家	-14438
经济减速	-14439
经济工作	-14440
经济技术	-14441
经济援助	-14442
经济模式	-14443
经济秩序	-14444
经济结构	-14445
经济问题	-14446
经营场所	-14447
经贸往来	-14448
经贸环境	-14449
经过一段	-14450
结合实际	-14451
结束以后	-14452
结束以来	-14453
结构方面	-14454
结构矛盾	-14455
绝对优势	-14456
统一思想	-14457
统一问题	-14458
统计资料	-14459
继往开来	-14460
继续通过	-14461
维亚康母	-14462
缺乏了解	-14463
美军飞机	-14464
美国军机	-14465
美国同意	-14466
美国商会	-14467
美国国会	-14468
美国外交	-14469
美国官员	-14470
美国并不	-14471
美国民众	-14472
美国海军	-14473
美国自己	-14474
美国舆论	-14475
美国计划	-14476
美国退出	-14477
美方飞机	-14478
美机违反	-14479
群众参与	-14480
群众路线	-14481
老中两国	-14482
者的角色	-14483
而且什么	-14484
而是美国	-14485
耐人寻味	-14486
耕地保护	-14487
联勤分部	-14488
联合工作	-14489
联合训练	-14490
股份公司	-14491
股票上市	-14492
胜于雄辩	-14493
脱困工作	-14494
腐败问题	-14495
自一九八	-14496
自救能力	-14497
自然因素	-14498
自由贸易	-14499
自身利益	-14500
至今尚未	-14501
至今还不	-14502
致以亲切	-14503
致函台湾	-14504
舆论宣传	-14505
舆论指出	-14506
良好合作	-14507
良好局面	-14508
良好开端	-14509
良好机遇	-14510
艰苦细致	-14511
范围之内	-14512
荣誉称号	-14513
营业执照	-14514
落到实处	-14515
虚拟国界	-14516
虽有下降	-14517
行不通的	-14518
行业自律	-14519
行动指南	-14520
行政主导	-14521
行政学院	-14522
行政执法	-14523
表示担忧	-14524
表示赞同	-14525
表达中国	-14526
衷心祝贺	-14527
袭击造成	-14528
裁军谈判	-14529
裁减进攻	-14530
西哈努克	-14531
西藏广大	-14532
要加强对	-14533
要把发展	-14534
要求他们	-14535
要求美方	-14536
要求重新	-14537
观念上的	-14538
规划体系	-14539
规定处以	-14540
规章制度	-14541
规范有序	-14542
解决不了	-14543
解决就业	-14544
计划生育	-14545
认证咨询	-14546
讨价还价	-14547
议员转向	-14548
记者拍照	-14549
记者翟伟	-14550
讲话发表	-14551
许多委员	-14552
论坛的王	-14553
访日期间	-14554
访问印尼	-14555
访问大陆	-14556
访问朝鲜	-14557
访问韩国	-14558
诚心诚意	-14559
该地区的	-14560
说三道四	-14561
诸军兵种	-14562
调控为主	-14563
谈判代表	-14564
谈判是有	-14565
负责人说	-14566
负隅顽抗	-14567
财政危机	-14568
财政年度	-14569
财政投资	-14570
财政收支	-14571
责任人的	-14572
贩毒集团	-14573
贫富差距	-14574
购买了其	-14575
资产阶级	-14576
资本项目	-14577
资源丰富	-14578
资金使用	-14579
资金支持	-14580
赤裸裸地	-14581
赫普图拉	-14582
走向统一	-14583
起来难度	-14584
超过半数	-14585
越来越多	-14586
越走越远	-14587
趋向稳定	-14588
身败名裂	-14589
软件企业	-14590
轻而易举	-14591
载人航天	-14592
较快增长	-14593
辩证统一	-14594
边境地区	-14595
边防战士	-14596
达瓦买提	-14597
迄今非但	-14598
迅猛发展	-14599
过去那段	-14600
迎接挑战	-14601
运用多种	-14602
运行机制	-14603
近些年来	-14604
还会见了	-14605
还有一个	-14606
这一决议	-14607
这一差距	-14608
这一方针	-14609
这一观点	-14610
这一进程	-14611
这个数字	-14612
这个样子	-14613
这个目标	-14614
这个说法	-14615
这些因素	-14616
这些措施	-14617
这意味着	-14618
这是包括	-14619
这段历史	-14620
这番话的	-14621
这种看法	-14622
这项改革	-14623
进程不断	-14624
进行军事	-14625
进行友好	-14626
进行监督	-14627
进行谈判	-14628
进行辩护	-14629
进行间谍	-14630
远远低于	-14631
迫在眉睫	-14632
追求两岸	-14633
退耕还林	-14634
选举产生	-14635
选用优秀	-14636
逐步提高	-14637
通力合作	-14638
道德素质	-14639
遭受地震	-14640
部分地区	-14641
部副部长	-14642
部级干部	-14643
部部长朴	-14644
部长会议	-14645
都不希望	-14646
都产生了	-14647
都是非常	-14648
都面临着	-14649
采取回避	-14650
采访活动	-14651
采购武器	-14652
里约集团	-14653
重大事项	-14654
重大抉择	-14655
重大措施	-14656
重大改革	-14657
重大进展	-14658
重开两会	-14659
重新公布	-14660
重新启用	-14661
重新考虑	-14662
重新评估	-14663
重点支持	-14664
重点放在	-14665
重要位置	-14666
重要共识	-14667
重要意义	-14668
重要成果	-14669
钱副总理	-14670
长期发展	-14671
长足发展	-14672
问题上也	-14673
问题专家	-14674
问题涉及	-14675
防卫系统	-14676
阻挠两岸	-14677
阿塞拜疆	-14678
阿拉斯加	-14679
陈水扁在	-14680
陈水扁总	-14681
陈水扁的	-14682
隆重开幕	-14683
随时准备	-14684
难以置信	-14685
集中体现	-14686
集体主义	-14687
集体安全	-14688
集体自焚	-14689
集体领导	-14690
集成电路	-14691
雪上加霜	-14692
雷斯科特	-14693
需要一个	-14694
霸道行为	-14695
霸道行径	-14696
非法移民	-14697
革命性的	-14698
革命气节	-14699
韩国政府	-14700
顽固坚持	-14701
预警系统	-14702
领土问题	-14703
领导人也	-14704
领导地位	-14705
领导成员	-14706
领导水平	-14707
领导集体	-14708
频繁互访	-14709
风险防范	-14710
飞机转向	-14711
首先代表	-14712
首次超过	-14713
首相小泉	-14714
香港中通	-14715
香港特区	-14716
马首是瞻	-14717
驻日美军	-14718
驾驭复杂	-14719
骨干分子	-14720
高枕无忧	-14721
高等学校	-14722
高等教育	-14723
高等院校	-14724
高级干部	-14725
高级电脑	-14726
高雄市长	-14727
,1970	-14728
,1979	-14729
,1999	-14730
china	-14731
“863”	-14732
▁1956	-14733
▁1988	-14734
▁1991	-14735
▁1995	-14736
▁一个重要	-14737
▁一切为了	-14738
▁三国外长	-14739
▁世纪之交	-14740
▁两国外长	-14741
▁中华民族	-14742
▁中国一贯	-14743
▁中国佛教	-14744
▁中国海军	-14745
▁中央政府	-14746
▁中方认为	-14747
▁中美关系	-14748
▁中美双方	-14749
▁为了人民	-14750
▁也就是说	-14751
▁事发不到	-14752
▁事实表明	-14753
▁他们呼吁	-14754
▁他们指出	-14755
▁会议强调	-14756
▁但是我们	-14757
▁但是有些	-14758
▁例如美国	-14759
▁全世界的	-14760
▁全国政协	-14761
▁八国首脑	-14762
▁冷战结束	-14763
▁加强企业	-14764
▁卡里莫夫	-14765
▁去年十月	-14766
▁双方决心	-14767
▁双方强调	-14768
▁发达国家	-14769
▁可以预料	-14770
▁台湾方面	-14771
▁唐家璇说	-14772
▁因为没有	-14773
▁国际社会	-14774
▁在记者问	-14775
▁在这个大	-14776
▁大力发展	-14777
▁如果没有	-14778
▁如果这种	-14779
▁孙玉玺说	-14780
▁它们认为	-14781
▁导航卫星	-14782
▁尉健行在	-14783
▁就在香港	-14784
▁尽管如此	-14785
▁尽管目前	-14786
▁巴勒斯坦	-14787
▁张万年说	-14788
▁张铭清说	-14789
▁当今世界	-14790
▁必须指出	-14791
▁必须看到	-14792
▁我们党的	-14793
▁我们应该	-14794
▁我们愿同	-14795
▁我们现在	-14796
▁我们要在	-14797
▁文章指出	-14798
▁新世纪的	-14799
▁既然如此	-14800
▁普京指出	-14801
▁最近几年	-14802
▁最高法院	-14803
▁有人统计	-14804
▁有关官员	-14805
▁有关部门	-14806
▁概括起来	-14807
▁江主席还	-14808
▁沈国放说	-14809
▁理想信念	-14810
▁目前台湾	-14811
▁究竟这场	-14812
▁章启月说	-14813
▁经过二十	-14814
▁缔约双方	-14815
▁美国一些	-14816
▁美国凭借	-14817
▁美国总统	-14818
▁美方还就	-14819
▁联合作战	-14820
▁胡锦涛对	-14821
▁西哈努克	-14822
▁西奥多说	-14823
▁赵启正说	-14824
▁这个团伙	-14825
▁这已经是	-14826
▁这是一个	-14827
▁这是一次	-14828
▁这是包括	-14829
▁这标志着	-14830
▁这种说法	-14831
▁重要的是	-14832
▁钱副总理	-14833
▁阿拉法特	-14834
▁靖国神社	-14835
▁面对即将	-14836
一个新台阶	-14837
一个重要的	-14838
一九九二年	-14839
一九九八年	-14840
一天得不到	-14841
一定会继续	-14842
一年工作的	-14843
一系列国际	-14844
万元以下的	-14845
三个百分点	-14846
三代领导人	-14847
上台后声称	-14848
不可告人的	-14849
不可磨灭的	-14850
不平等条约	-14851
不得人心的	-14852
不懈的努力	-14853
不折不扣地	-14854
与两岸关系	-14855
与中国发展	-14856
与基里巴斯	-14857
与祖国大陆	-14858
专题研究班	-14859
世界的和平	-14860
世纪的世界	-14861
东盟国家的	-14862
两国之间的	-14863
两国在许多	-14864
两国外交部	-14865
两国贸易额	-14866
两岸关系与	-14867
两岸就可以	-14868
严峻的挑战	-14869
严重损害了	-14870
中东欧地区	-14871
中东问题的	-14872
中共领导人	-14873
中华民族和	-14874
中国各宗教	-14875
中国基督教	-14876
中国政府将	-14877
中国时报陈	-14878
中国是否会	-14879
中国的立场	-14880
中国的统一	-14881
中央和地方	-14882
中央政府的	-14883
中央政府驻	-14884
中央的决策	-14885
中小企业的	-14886
中方愿意同	-14887
中最重要的	-14888
中美两国在	-14889
丰富多彩的	-14890
为全国政协	-14891
为改善关系	-14892
主席谢尔顿	-14893
主权和领空	-14894
主流是好的	-14895
主要得益于	-14896
主要表现在	-14897
举世瞩目的	-14898
之所以能够	-14899
也将在近期	-14900
也将尽一切	-14901
也是区别于	-14902
也越来越高	-14903
也都将办理	-14904
了新的活力	-14905
了竞争上岗	-14906
了解和友谊	-14907
了赖以进行	-14908
事业将更加	-14909
事件发生后	-14910
事务的助理	-14911
事务的管理	-14912
事态的发展	-14913
事故发生时	-14914
二十多年来	-14915
五年计划的	-14916
亚酞国家的	-14917
交换实控线	-14918
人们看到了	-14919
人大常委会	-14920
人权的状况	-14921
人民利益的	-14922
人民法院的	-14923
人民的意志	-14924
人类社会的	-14925
亿元人民币	-14926
亿美元以上	-14927
今后二十年	-14928
今后将继续	-14929
今天的会议	-14930
仍然是一个	-14931
从不同角度	-14932
他认为这是	-14933
代表提出的	-14934
代表着我们	-14935
任务的完成	-14936
企业竞争力	-14937
伊朗伊斯兰	-14938
会见了中国	-14939
但也有很多	-14940
但美国一些	-14941
作为自己的	-14942
作为观察员	-14943
作相应调整	-14944
使两国关系	-14945
促使克林顿	-14946
俄安全情报	-14947
保持半岛的	-14948
保持经济的	-14949
倍于英国的	-14950
停止在中国	-14951
先进文化的	-14952
先进生产力	-14953
先进的电子	-14954
党和国家对	-14955
党的十五届	-14956
党的第三代	-14957
全体人民的	-14958
全国人民的	-14959
全球祗生产	-14960
全面合作的	-14961
八年奥运会	-14962
公司总经理	-14963
共同会见了	-14964
共同目标下	-14965
关心中国的	-14966
关系的性质	-14967
其国内存在	-14968
其飞机未经	-14969
内容提出了	-14970
再上新台阶	-14971
军事与经济	-14972
军事力量的	-14973
农民的收入	-14974
农民的生产	-14975
决不让历史	-14976
决定自己的	-14977
减税计划的	-14978
凡诺普洛斯	-14979
出三千多架	-14980
出现了一些	-14981
分别会见了	-14982
分裂活动的	-14983
列兹尼奥夫	-14984
创新的重要	-14985
初步建立起	-14986
到上海参加	-14987
制度的建立	-14988
副主席宋健	-14989
力资源开发	-14990
加入联合国	-14991
加强与中国	-14992
努力和贡献	-14993
北京在新的	-14994
北京政权的	-14995
十一月二十	-14996
十七条协议	-14997
十天的访问	-14998
千方百计地	-14999
半个多世纪	-15000
协调发展的	-15001
卡西亚诺夫	-15002
危险的地步	-15003
历史和台湾	-15004
历史和自然	-15005
历史性会晤	-15006
历史意义的	-15007
历史教科书	-15008
历史的原因	-15009
历史的经验	-15010
原则基础上	-15011
参议院议长	-15012
又促进稳定	-15013
友好的交谈	-15014
双方在很多	-15015
双方应保持	-15016
双边关系和	-15017
发展与繁荣	-15018
发展史上的	-15019
发展和完善	-15020
发展和实现	-15021
发展生产力	-15022
发展的主题	-15023
发展的事实	-15024
发展的前景	-15025
发展的势头	-15026
发展的必然	-15027
发展的最新	-15028
发展的道路	-15029
发生了变化	-15030
发生深刻而	-15031
发起新一轮	-15032
取得了显着	-15033
取得实质性	-15034
取得的成果	-15035
取得的进步	-15036
受到法律的	-15037
变更或解除	-15038
只有坚持以	-15039
台湾人民的	-15040
台湾地位未	-15041
台湾安全法	-15042
台湾岛内的	-15043
台湾当局在	-15044
台湾当局要	-15045
台湾是中国	-15046
台湾民主化	-15047
台湾的前途	-15048
台湾的安全	-15049
司令部统管	-15050
各个领域的	-15051
各主要政党	-15052
各国政府在	-15053
各民主党派	-15054
各自的表述	-15055
各领域合作	-15056
合作的典范	-15057
合作的目的	-15058
同中国保持	-15059
同全国一样	-15060
同时又要有	-15061
同样的事情	-15062
后所应采取	-15063
向中国人民	-15064
向中方通报	-15065
向中方道歉	-15066
向朝鲜提供	-15067
否决汤普森	-15068
呈现出蓬勃	-15069
告诉钱其琛	-15070
和中国更是	-15071
和他的竞选	-15072
和共同愿望	-15073
和厦门是同	-15074
和国家安全	-15075
和巴勒斯坦	-15076
和平稳定的	-15077
和建设事业	-15078
和普京总统	-15079
和有关承诺	-15080
和根本利益	-15081
和民族尊严	-15082
和法律法规	-15083
和社会环境	-15084
和社会稳定	-15085
和销售活动	-15086
和长远利益	-15087
哪个国家的	-15088
唯一的办法	-15089
唯物主义的	-15090
喜马拉雅山	-15091
回答了记者	-15092
困难和问题	-15093
国务院新闻	-15094
国家副主席	-15095
国家的关系	-15096
国家的法律	-15097
国有企业的	-15098
国民党主席	-15099
国民党之战	-15100
国防和军队	-15101
国际形势下	-15102
土库曼斯坦	-15103
在世界航天	-15104
在人权会上	-15105
在人权方面	-15106
在今年九月	-15107
在会上作了	-15108
在发言中还	-15109
在国民经济	-15110
在外交政策	-15111
在巴基斯坦	-15112
在平等互利	-15113
在意识形态	-15114
在新形势下	-15115
在维护国际	-15116
在讲话中说	-15117
在青藏高原	-15118
地区的安全	-15119
坚决斗争下	-15120
基层党组织	-15121
外交委员会	-15122
多人参加了	-15123
多极化进程	-15124
多种形式的	-15125
大陆与台湾	-15126
大陆和台湾	-15127
大陆政策的	-15128
失业保险金	-15129
奠定了基础	-15130
始终保持着	-15131
委员会委员	-15132
威武雄壮的	-15133
安全与合作	-15134
完全统一是	-15135
完全统一的	-15136
完成了联勤	-15137
宗教信仰的	-15138
实施的制裁	-15139
实现现代化	-15140
实行的对朝	-15141
实践中继续	-15142
实践的结果	-15143
实际相结合	-15144
客观规律的	-15145
宣传和弘扬	-15146
对世界和平	-15147
对两国关系	-15148
对中国政府	-15149
对华政策的	-15150
对干部进行	-15151
对新政府的	-15152
对话与商谈	-15153
导弹护卫舰	-15154
射线探测器	-15155
将给美国的	-15156
将继续奉行	-15157
尔基亚苏丹	-15158
就几乎没有	-15159
就职演说中	-15160
尼克松总统	-15161
局势的紧张	-15162
局部战争中	-15163
工作的同志	-15164
工作的干部	-15165
工作的开展	-15166
工作的领导	-15167
工商界人士	-15168
已决定在省	-15169
希望俄罗斯	-15170
带来的困难	-15171
带来的灾难	-15172
干部提供了	-15173
年他访华时	-15174
并访问北京	-15175
广阔的市场	-15176
应共同努力	-15177
应当加强对	-15178
建设和改革	-15179
建设的关键	-15180
开展的合作	-15181
强劲的增长	-15182
强化海关的	-15183
当今世界上	-15184
形形色色的	-15185
彻底改变了	-15186
很大程度上	-15187
很重要的是	-15188
性和创造性	-15189
性和复杂性	-15190
性和紧迫性	-15191
性战略武器	-15192
总理巴拉克	-15193
感到由衷的	-15194
感到震惊和	-15195
愿同世界上	-15196
成熟的表现	-15197
我们也必须	-15198
我们把一个	-15199
我们的事业	-15200
我们迎来了	-15201
我军的根本	-15202
我国将进入	-15203
我国已进入	-15204
我国的经济	-15205
战略的高度	-15206
所做的努力	-15207
所有制结构	-15208
所有问题的	-15209
所说的那样	-15210
扎实的作风	-15211
扎扎实实地	-15212
批评和意见	-15213
技术特别是	-15214
技术的进步	-15215
把两岸关系	-15216
把中国视为	-15217
把依法治国	-15218
持久地开展	-15219
持乐观态度	-15220
持双重标准	-15221
按照自己的	-15222
捍卫祖国的	-15223
探讨的问题	-15224
措施的落实	-15225
提供了新的	-15226
提供更好的	-15227
搞市场经济	-15228
支持美国的	-15229
收支两条线	-15230
改善关系的	-15231
改善和发展	-15232
改革的主要	-15233
改革的思路	-15234
政党制度时	-15235
政府的统一	-15236
政府的邀请	-15237
政治制度是	-15238
政策的落实	-15239
教科书事件	-15240
数学模型和	-15241
文化的共同	-15242
文明的进步	-15243
斯在讲话中	-15244
斯特罗耶夫	-15245
新世纪和平	-15246
新世纪第一	-15247
新民主主义	-15248
新疆的民族	-15249
新的更大的	-15250
新闻发布会	-15251
新闻工作者	-15252
方共同努力	-15253
方法发生了	-15254
方法和手段	-15255
方针政策和	-15256
方面的安全	-15257
方面的工作	-15258
施罗德总理	-15259
旅游业发展	-15260
无私的支援	-15261
无立足之地	-15262
日上午离开	-15263
日本和美国	-15264
日本和韩国	-15265
日本政府对	-15266
日本的经济	-15267
时代条件下	-15268
时代的主题	-15269
时代的前进	-15270
明确的规定	-15271
是一定能够	-15272
是一项长期	-15273
是世界各国	-15274
是分不开的	-15275
是否会影响	-15276
是国家主权	-15277
是国民经济	-15278
是宪法赋予	-15279
是我国监督	-15280
是改革开放	-15281
是日本政府	-15282
是最严重的	-15283
是紧密联系	-15284
是邪教问题	-15285
是霸权主义	-15286
显着的特点	-15287
普罗迪主席	-15288
更上一层楼	-15289
更不能依靠	-15290
最大的诚意	-15291
最广大人民	-15292
最起码手段	-15293
有共同利益	-15294
有关部门要	-15295
有其特殊性	-15296
有利于促进	-15297
有利于增进	-15298
有利的条件	-15299
有多方面的	-15300
有效地遏制	-15301
有益的尝试	-15302
有着悠久的	-15303
有组织犯罪	-15304
朝韩双方已	-15305
朝韩领导人	-15306
朝鲜劳动党	-15307
本报记者杨	-15308
机制和管理	-15309
李登辉抛出	-15310
来之不易的	-15311
果断的打击	-15312
核威慑能力	-15313
根本的原因	-15314
检察机关要	-15315
欧洲国家的	-15316
此举会造成	-15317
武力来实现	-15318
比上年增长	-15319
毫无根据的	-15320
民族地区的	-15321
民营经济的	-15322
江主席来到	-15323
没有出路的	-15324
油气资源的	-15325
法制建设的	-15326
法制的统一	-15327
活动的政治	-15328
派遣联合国	-15329
海军就派出	-15330
海峡两岸均	-15331
消费品零售	-15332
深入的研究	-15333
深刻的影响	-15334
热烈的祝贺	-15335
特别是党的	-15336
特大走私案	-15337
特点和规律	-15338
独立于企业	-15339
率领的中国	-15340
现役军官法	-15341
理论研讨会	-15342
生态环境和	-15343
界人士认为	-15344
疑虑和担心	-15345
百分之三点	-15346
的一个新的	-15347
的一个重大	-15348
的一项重要	-15349
的中美关系	-15350
的主要动力	-15351
的主要活动	-15352
的人员交往	-15353
的侦察活动	-15354
的侦察飞行	-15355
的健康发展	-15356
的共产党员	-15357
的共同挑战	-15358
的具体表现	-15359
的军工企业	-15360
的前提条件	-15361
的危险步骤	-15362
的历史背景	-15363
的发展方向	-15364
的发展趋势	-15365
的发展阶段	-15366
的各项工作	-15367
的各项政策	-15368
的合作伙伴	-15369
的唯一标准	-15370
的国际关系	-15371
的国际条约	-15372
的国际背景	-15373
的基本原理	-15374
的基本情况	-15375
的基本立场	-15376
的夫人朱琳	-15377
的实际行动	-15378
的宣传阵地	-15379
的对策措施	-15380
的对话轨道	-15381
的强烈冲击	-15382
的强烈反对	-15383
的强烈愤慨	-15384
的必然结果	-15385
的忧患意识	-15386
的快速发展	-15387
的战斗动作	-15388
的战略地位	-15389
的推动作用	-15390
的政治任务	-15391
的政治关系	-15392
的政策措施	-15393
的新形势和	-15394
的方向发展	-15395
的最大优势	-15396
的最大挑战	-15397
的最重要的	-15398
的核心问题	-15399
的根本任务	-15400
的根本特点	-15401
的步伐可能	-15402
的民族主义	-15403
的气氛之中	-15404
的法律监督	-15405
的消极影响	-15406
的热门话题	-15407
的直接原因	-15408
的知识分子	-15409
的社会环境	-15410
的科学态度	-15411
的管理运用	-15412
的组织领导	-15413
的经济建设	-15414
的经验教训	-15415
的若干政策	-15416
的行动纲领	-15417
的谈判进程	-15418
的贯彻落实	-15419
的这次访问	-15420
的重大决策	-15421
的重要举措	-15422
的重要作用	-15423
的重要国家	-15424
的重要地位	-15425
的重要基础	-15426
的重要手段	-15427
的重要措施	-15428
的重要支柱	-15429
的重要步骤	-15430
的重要特征	-15431
的重要目标	-15432
的重要职责	-15433
监督和管理	-15434
监督工作的	-15435
目标和方向	-15436
目标的实现	-15437
目的就是要	-15438
相反的意见	-15439
相应的规定	-15440
相当一部分	-15441
相继采取了	-15442
研究和解决	-15443
确有困难的	-15444
社会主义的	-15445
社会制度和	-15446
社会发展的	-15447
社会的发展	-15448
社会的影响	-15449
社会的进步	-15450
祝贺江主席	-15451
离陵水机场	-15452
私营企业主	-15453
科学的发展	-15454
科索沃战争	-15455
积力之所举	-15456
积极的变化	-15457
积极致力于	-15458
称必须符合	-15459
税收的规定	-15460
稳定是繁荣	-15461
稳定的基石	-15462
稳定的环境	-15463
空军备竞赛	-15464
竞争与合作	-15465
第一颗人造	-15466
第三次会议	-15467
繁荣和发展	-15468
繁荣的亚洲	-15469
纲领性文献	-15470
经历了一段	-15471
经济和文化	-15472
经济型轿车	-15473
经济结构的	-15474
经营罪判处	-15475
给予了西藏	-15476
绝不会改变	-15477
继承和发展	-15478
维护自己的	-15479
维护自身的	-15480
缺乏足够的	-15481
美国为何还	-15482
美国可能会	-15483
美国政府对	-15484
美国领导人	-15485
而不断丰富	-15486
联合国大会	-15487
联合行动中	-15488
肯定和赞扬	-15489
胡乔木同志	-15490
自己的事业	-15491
自己的事情	-15492
自己的立场	-15493
自由与权利	-15494
自身建设的	-15495
良好的合作	-15496
良好的祝愿	-15497
花巨额资金	-15498
范围内展开	-15499
蒙得维的亚	-15500
行之有效的	-15501
行政处分的	-15502
表示由衷的	-15503
西藏的稳定	-15504
要在联合国	-15505
观察家认为	-15506
观点和方法	-15507
解放生产力	-15508
计划的完成	-15509
议会的友好	-15510
记者看到了	-15511
记者贺劲松	-15512
记者采访时	-15513
访问取得了	-15514
谢尔盖耶夫	-15515
责任和义务	-15516
贯彻落实好	-15517
贸易自由化	-15518
资本充实率	-15519
资本市场的	-15520
走访看望了	-15521
赴美同美方	-15522
赶赴海南岛	-15523
起到重要的	-15524
越来越严重	-15525
足够的重视	-15526
跨党派小组	-15527
跨入新世纪	-15528
跨越式发展	-15529
转业干部的	-15530
转达了中国	-15531
轰炸中国驻	-15532
近年来两国	-15533
这一意在挑	-15534
这也破坏了	-15535
这些问题的	-15536
进一步促进	-15537
进一步开放	-15538
进一步强化	-15539
进一步规范	-15540
进入新世纪	-15541
进程的加快	-15542
进行了一次	-15543
进行了修改	-15544
进行了座谈	-15545
进行了深入	-15546
进行合理的	-15547
进行必要的	-15548
逐渐认识到	-15549
通过了关于	-15550
遗留下来的	-15551
邓小平同志	-15552
邪教组织的	-15553
部门和单位	-15554
部门负责人	-15555
都是他们的	-15556
采取一系列	-15557
重要的成果	-15558
长足的发展	-15559
问题时表示	-15560
问题的出现	-15561
问题的根本	-15562
问题的重要	-15563
问题的难度	-15564
防空兵部队	-15565
雄辩地证明	-15566
集体合同的	-15567
非正式访问	-15568
面临的形势	-15569
面对新世纪	-15570
预算外资金	-15571
领土和主权	-15572
领导人之后	-15573
领空并降落	-15574
飞抵华盛顿	-15575
首席执行官	-15576
驻华大使馆	-15577
高度的政治	-15578
鲜血和生命	-15579
黑社会性质	-15580
▁一九五四年	-15581
▁两国领导人	-15582
▁中国外交部	-15583
▁中国证监会	-15584
▁二十一世纪	-15585
▁五月二十日	-15586
▁从这个角度	-15587
▁他告诉记者	-15588
▁他希望通过	-15589
▁他衷心祝愿	-15590
▁会议研究和	-15591
▁但必须看到	-15592
▁俄罗斯认为	-15593
▁厉以宁认为	-15594
▁双方在政治	-15595
▁双方还同意	-15596
▁台湾问题是	-15597
▁各国文明的	-15598
▁同许多国家	-15599
▁和平与发展	-15600
▁唐家璇外长	-15601
▁唐家璇指出	-15602
▁在今天下午	-15603
▁在开展整顿	-15604
▁在现代社会	-15605
▁在经济方面	-15606
▁在谈到中欧	-15607
▁在这一重要	-15608
▁奥尔布赖特	-15609
▁委员们认为	-15610
▁宫城笃实说	-15611
▁对会议期间	-15612
▁尉健行指出	-15613
▁我们一定要	-15614
▁我们有实现	-15615
▁文章最后说	-15616
▁新中国建立	-15617
▁朱总理指出	-15618
▁朱镕基指出	-15619
▁李洪志及其	-15620
▁海协方面的	-15621
▁温家宝强调	-15622
▁特别是今年	-15623
▁特别是去年	-15624
▁瓦杰帕伊说	-15625
▁田中真纪子	-15626
▁章启月指出	-15627
▁第三届亚欧	-15628
▁第二十三条	-15629
▁第二十二条	-15630
▁美国不允许	-15631
▁美国的邪教	-15632
▁胡锦涛指出	-15633
▁访问达到了	-15634
▁过去十年里	-15635
▁这些都说明	-15636
▁这位负责人	-15637
▁这就是美国	-15638
▁霍尔布鲁克	-15639
一个新的水平	-15640
一些需要谨慎	-15641
一定能够实现	-15642
一部分的事实	-15643
一部分的地位	-15644
一项重要任务	-15645
三次会议期间	-15646
不仅是受危害	-15647
不断取得进展	-15648
不能完全适应	-15649
与两国的根本	-15650
与中国共产党	-15651
与台湾各政党	-15652
与祖国大陆的	-15653
与美国的关系	-15654
世界先进水平	-15655
世界军事变革	-15656
世界民族之林	-15657
世贸组织规则	-15658
东亚及酞平洋	-15659
两国人民有利	-15660
两国合作关系	-15661
两国议会交往	-15662
两岸经贸交流	-15663
中两国人民的	-15664
中叙关系持续	-15665
中国共产党人	-15666
中国和平统一	-15667
中国现代化的	-15668
中国经济发展	-15669
中国证券市场	-15670
中坚持人民币	-15671
中的十分之一	-15672
中美经贸关系	-15673
主席赫尔姆斯	-15674
主席阿拉法特	-15675
举行首脑会晤	-15676
举行首脑会谈	-15677
九届全国人大	-15678
也不是美国的	-15679
也反映了台湾	-15680
也是我国监督	-15681
了解放和发展	-15682
事业单位之外	-15683
事关中日关系	-15684
二是较为低廉	-15685
二月二十二日	-15686
五中全会精神	-15687
亚洲一些国家	-15688
产业结构调整	-15689
产品生产企业	-15690
产品质量监督	-15691
产生负面影响	-15692
人参加了会见	-15693
人口资源环境	-15694
人权的普遍性	-15695
人民内部矛盾	-15696
人民群众依法	-15697
人的热烈欢迎	-15698
人道主义考虑	-15699
亿美元增加到	-15700
今天在京举行	-15701
从事分裂祖国	-15702
代表团的热情	-15703
代表在发言中	-15704
令人遗憾的是	-15705
以及中国政府	-15706
以更好地推进	-15707
件答复了代表	-15708
任何外来干涉	-15709
企业领导班子	-15710
伤亡深表关切	-15711
但也确实存在	-15712
作为世界上有	-15713
作出了一系列	-15714
作出新的贡献	-15715
作出积极贡献	-15716
作相应的修改	-15717
使他们真正从	-15718
使馆工作人员	-15719
依照国家有关	-15720
俄罗斯和欧洲	-15721
保持密切联系	-15722
保持高度警惕	-15723
信息泄密现象	-15724
修改反导条约	-15725
做出新的贡献	-15726
允许沿海地区	-15727
充分交换意见	-15728
充分做好长期	-15729
先生曾对他说	-15730
克服形式主义	-15731
全体中国人民	-15732
全国人大代表	-15733
全国各族人民	-15734
全国政协九届	-15735
八十周年大会	-15736
公开选拔地厅	-15737
关系发展顺利	-15738
其他成员一道	-15739
内容决定形式	-15740
军事代表工作	-15741
军事战略方针	-15742
军事战略调整	-15743
军事技术合作	-15744
军事领域合作	-15745
军队人大代表	-15746
农业结构调整	-15747
农业综合开发	-15748
决定性的作用	-15749
准备采取哪些	-15750
分裂主义活动	-15751
切忌形式主义	-15752
办公室负责人	-15753
加入美国国籍	-15754
加强与中国的	-15755
加强基层政法	-15756
势力的总代表	-15757
包括台湾人民	-15758
北京申奥成功	-15759
北南首脑会晤	-15760
十分重视发展	-15761
华侨华人代表	-15762
华侨华人社团	-15763
协商妥善解决	-15764
南北关系改善	-15765
卡塔尔国首相	-15766
卫星发射成功	-15767
又一成功实践	-15768
友好合作条约	-15769
双方共同努力	-15770
反对任何国家	-15771
反而不断恶化	-15772
发动侵略战争	-15773
发展两国关系	-15774
发展中美关系	-15775
发展同中国的	-15776
发扬人民民主	-15777
发生军事冲突	-15778
发表谈话指出	-15779
受常务委员会	-15780
受缺水的影响	-15781
受邪教危害的	-15782
古巴大使王成	-15783
只待一声令下	-15784
台湾是中国的	-15785
台湾有关方面	-15786
台湾领导人的	-15787
合成渡海登陆	-15788
同时也把人类	-15789
向美方表明了	-15790
吴邦国副总理	-15791
和中国天主教	-15792
和人民群众的	-15793
和先进工作者	-15794
和地区事务中	-15795
和地区问题上	-15796
和实践的深化	-15797
和平不能依靠	-15798
和平统一目标	-15799
和社会保障部	-15800
唆使未成年人	-15801
商务和其他非	-15802
回升的好势头	-15803
回答记者有关	-15804
国务院法制办	-15805
国务院采取了	-15806
国家不分大小	-15807
国家和军队的	-15808
国家安全事务	-15809
国家权力机关	-15810
国有大型企业	-15811
国民生产总值	-15812
国民经济运行	-15813
国王和王后的	-15814
国防信息安全	-15815
国防教育工作	-15816
国际人权事业	-15817
国际收支状况	-15818
国际社会一道	-15819
国际社会普遍	-15820
国际部的邀请	-15821
在一定程度上	-15822
在主席台就座	-15823
在会谈中强调	-15824
在台湾问题上	-15825
在国际上推行	-15826
在地区事务中	-15827
在悉尼奥运会	-15828
在新世纪之初	-15829
地图就是一个	-15830
地方各级党委	-15831
坚决反对一切	-15832
坚持党对军队	-15833
坚持党的领导	-15834
坚持扩大内需	-15835
基础上的新型	-15836
基础设施建设	-15837
基础设施投入	-15838
增进相互了解	-15839
外资参与增值	-15840
外长伊万诺夫	-15841
外高加索地区	-15842
季度经济增长	-15843
安理会的作用	-15844
安理会的权威	-15845
完善和发展的	-15846
宝贵精神财富	-15847
实施素质教育	-15848
实际上是一种	-15849
对台出售武器	-15850
对台领导小组	-15851
对经济增长的	-15852
对美国进行了	-15853
将就中俄关系	-15854
将来也可能有	-15855
就一刻也不能	-15856
就不可能实现	-15857
就是抓住机遇	-15858
工程质量管理	-15859
已故领导同志	-15860
市场经济体制	-15861
干部队伍建设	-15862
并将继续证明	-15863
广大人民群众	-15864
广大干部群众	-15865
应当怎样理解	-15866
建党八十周年	-15867
建立更为高效	-15868
开放两岸直接	-15869
引起高度重视	-15870
影响我国安全	-15871
很多人对中国	-15872
得到迅速发展	-15873
德拉鲁阿总统	-15874
快速反应能力	-15875
思想政治教育	-15876
思想道德教育	-15877
感到非常高兴	-15878
我们坚决反对	-15879
所作出的贡献	-15880
所有技术准备	-15881
才能取信于人	-15882
才能同意来访	-15883
扰乱社会秩序	-15884
承包经营管理	-15885
把台湾从中国	-15886
抵达萨格勒布	-15887
接受本报记者	-15888
接受本社记者	-15889
接待表示感谢	-15890
推行霸权主义	-15891
推进人权事业	-15892
措施解决劳工	-15893
提出以下建议	-15894
提请审议批准	-15895
提高经济增长	-15896
摆在我们面前	-15897
支持中国政府	-15898
支持表示感谢	-15899
改善两岸关系	-15900
改善中美关系	-15901
改革和发展中	-15902
改革和发展的	-15903
放弃分裂主张	-15904
政府一贯坚持	-15905
政治体制模式	-15906
新型军事人才	-15907
日中友好协会	-15908
日本右翼势力	-15909
星球大战计划	-15910
是一种建立在	-15911
是中国历史上	-15912
是人类社会的	-15913
是可以修改的	-15914
是各级党委和	-15915
是向前发展的	-15916
是相辅相成的	-15917
是马克思主义	-15918
最高人民法院	-15919
有力地推动了	-15920
有扩大的趋势	-15921
有机结合起来	-15922
有步骤地进行	-15923
朝鲜已做好了	-15924
未成年人修炼	-15925
本国企业参与	-15926
李登辉的路线	-15927
某驱逐舰支队	-15928
柯林顿政府的	-15929
校外活动场所	-15930
正值美国大选	-15931
正在研究制定	-15932
正式友好访问	-15933
正确认识中国	-15934
民族分裂主义	-15935
民族解放运动	-15936
民进党陈水扁	-15937
水利枢纽工程	-15938
江主席在会见	-15939
波罗的海国家	-15940
派飞机到中国	-15941
海协与海基会	-15942
海基会对台风	-15943
海峡两岸能够	-15944
特别是要加强	-15945
王伟是我们的	-15946
现代科学技术	-15947
甚至认为中国	-15948
生产率的提高	-15949
用马克思主义	-15950
由于防护技术	-15951
的交流与合作	-15952
的前程很可能	-15953
的前途和命运	-15954
的历史性转折	-15955
的国际法原则	-15956
的基础和前提	-15957
的愿望和要求	-15958
的稳定与繁荣	-15959
睁着眼睛说瞎	-15960
知情人士透露	-15961
祖国统一大业	-15962
福祉密切相关	-15963
科学文化知识	-15964
立场是明确的	-15965
站在时代前列	-15966
管理体制改革	-15967
经济全球化和	-15968
经济发展带来	-15969
经济工作会议	-15970
经济技术合作	-15971
经济持续增长	-15972
经贸合作水平	-15973
给予充分肯定	-15974
绝对不能允许	-15975
继续坚持和平	-15976
维亚康母公司	-15977
维护中日关系	-15978
维护国家统一	-15979
美军犯罪案件	-15980
美国与中国在	-15981
美国军用飞机	-15982
而众智之所为	-15983
而深远的意义	-15984
而紧迫的任务	-15985
联合国的权威	-15986
自主创新能力	-15987
自杀是严重的	-15988
萨拉赫丁访华	-15989
表现出极大的	-15990
袭击造成台胞	-15991
西哈努克国王	-15992
西藏各族人民	-15993
西藏和平解放	-15994
西藏是中国的	-15995
西部大开发的	-15996
要在各级党委	-15997
规划实施情况	-15998
解决边界问题	-15999
财政要加大对	-16000
责任重于泰山	-16001
资源配置方式	-16002
起到了积极的	-16003
跨国犯罪活动	-16004
转变工作作风	-16005
转变政府职能	-16006
转让高新技术	-16007
这次会议精神	-16008
进一步加深了	-16009
进一步建设好	-16010
进行新的探索	-16011
进行结构调整	-16012
适应新的形势	-16013
选举及其结果	-16014
通过对话解决	-16015
都无法阻挡的	-16016
采取军事行动	-16017
重申了中国对	-16018
重视中美关系	-16019
重视对华关系	-16020
问题进行磋商	-16021
阿利耶夫总统	-16022
需要一些时间	-16023
需费一番周折	-16024
非公有制企业	-16025
非常高兴再次	-16026
领域进行渗透	-16027
领域都开展了	-16028
领导人非正式	-16029
颇为引人注目	-16030
飞弹防御系统	-16031
香港和澳门的	-16032
▁两国建交以来	-16033
▁中华体育精神	-16034
▁中国全国人大	-16035
▁中国共产党的	-16036
▁中国政府依法	-16037
▁事实胜于雄辩	-16038
▁人们不禁要问	-16039
▁全国各族人民	-16040
▁双方一致认为	-16041
▁双方关于边界	-16042
▁在新的世纪里	-16043
▁在这个前提下	-16044
▁在这个问题上	-16045
▁培养造就大批	-16046
▁实践充分证明	-16047
▁应进一步加强	-16048
▁忽略了这一点	-16049
▁思想政治工作	-16050
▁我们必须共同	-16051
▁改革开放以来	-16052
▁教育行政部门	-16053
▁日本右翼势力	-16054
▁更为重要的是	-16055
▁最高人民法院	-16056
▁正在此间参加	-16057
▁江泽民同志在	-16058
▁西方一些国家	-16059
▁解决台湾问题	-16060
▁这不仅有利于	-16061
▁这充分体现了	-16062
▁钱其琛对新党	-16063
▁首先是军队的	-16064
一个国家和民族	-16065
一系列消极影响	-16066
万元以下的罚款	-16067
三峡工程的生命	-16068
不断扩大和深化	-16069
与会两岸记者的	-16070
与台湾问题有关	-16071
世界军事领域的	-16072
世界经济发展的	-16073
世界观和方法论	-16074
世界贸易组织的	-16075
两国人民的交往	-16076
两国人民的友好	-16077
两国人民的友谊	-16078
两国关系既面临	-16079
两国的经贸合作	-16080
两国高层领导人	-16081
两岸关系的发展	-16082
两岸关系的诚意	-16083
两岸和平统一的	-16084
中共中央总书记	-16085
中国人共同努力	-16086
中国人民志愿军	-16087
中国人民的感情	-16088
中国是推动亚洲	-16089
中国的人权状况	-16090
中国的对外开放	-16091
中方机场向中方	-16092
为维护民族独立	-16093
也将尽一切可能	-16094
亚洲各国为建设	-16095
亚酞地区的安全	-16096
人才培养等滞后	-16097
人是最可宝贵的	-16098
人民民主的本质	-16099
人民的共同心愿	-16100
他们提出的问题	-16101
代表提出的建议	-16102
企业和内资企业	-16103
优势一是庞大的	-16104
会议的召开表示	-16105
作出上述呼吁的	-16106
作出了积极贡献	-16107
便捷的经贸环境	-16108
促进和保护人权	-16109
俄罗斯总统普京	-16110
保持政治和社会	-16111
信息技术的发展	-16112
做好各项工作的	-16113
免税的优惠待遇	-16114
党风廉政建设和	-16115
全体中国人民的	-16116
全国人大代表团	-16117
共同努力下得到	-16118
共和国成立以来	-16119
关系中国的发展	-16120
具有悠久的历史	-16121
军事同盟来维持	-16122
决定着教育活动	-16123
决心和必要准备	-16124
出售神盾给台湾	-16125
出席第三届亚欧	-16126
刑事司法协助的	-16127
加强交流与合作	-16128
加强台湾安全法	-16129
加快经济发展的	-16130
加快西部地区的	-16131
十一届三中全会	-16132
卓有成效的工作	-16133
占肉类总产量的	-16134
厦门市长朱亚衍	-16135
参与国际分工和	-16136
参谋长巴卢耶夫	-16137
参谋长联席会议	-16138
友好合作关系在	-16139
双方的共同努力	-16140
双边关系的发展	-16141
发挥了巨大作用	-16142
发生了重大变化	-16143
取得了明显成效	-16144
取得实质性进展	-16145
取得更大的发展	-16146
受过高等教育的	-16147
台湾同胞在推动	-16148
台湾民众的生活	-16149
台湾问题无限期	-16150
各种各样的挑战	-16151
合理主张和要求	-16152
同为发展中国家	-16153
同机抵达的还有	-16154
向台湾出售武器	-16155
吸引外资的两大	-16156
和主权不容分割	-16157
和人民生活水平	-16158
和今后一个时期	-16159
和国际恐怖主义	-16160
和幻影式战斗机	-16161
和武警部队官兵	-16162
和负责任的态度	-16163
国家的紧迫任务	-16164
国防教育和国防	-16165
在两国领导人的	-16166
在内的世界各国	-16167
在希今天接受了	-16168
在香港回归祖国	-16169
地希望南北和解	-16170
坚决反对美国搞	-16171
坚定地支持中国	-16172
坚持马克思主义	-16173
培养和选用优秀	-16174
外交部长唐家璇	-16175
外商投资企业到	-16176
外资金融机构的	-16177
大规模裁减进攻	-16178
天下还很不酞平	-16179
夫人赞赏中国在	-16180
如何解决两国在	-16181
妥善处理的问题	-16182
宗教领袖代表团	-16183
宣传思想战线的	-16184
对江泽民总书记	-16185
对维护世界和平	-16186
导弹防御系统以	-16187
尤其是网络安全	-16188
就不能从根本上	-16189
就没有中国妇女	-16190
工作提出了新的	-16191
市场经济的要求	-16192
布宜诺斯艾利斯	-16193
希望进一步加强	-16194
并可以享受减税	-16195
并表示强烈不满	-16196
庞大的系统工程	-16197
建立和不断完善	-16198
开发和有效利用	-16199
开采和销售活动	-16200
强劲的增长势头	-16201
强烈的爱国热情	-16202
德国总理施罗德	-16203
愿意进一步加强	-16204
我军的优良传统	-16205
所有爱好和平的	-16206
打下了良好基础	-16207
打私权限及对其	-16208
扩大合作的目的	-16209
按时完成了联勤	-16210
推进现代化建设	-16211
提出了严正交涉	-16212
搞先进武器试射	-16213
政府工作报告中	-16214
政府间的合作外	-16215
政治经济新秩序	-16216
文明进步的动力	-16217
斯特凡诺普洛斯	-16218
新时期党的建设	-16219
是人们普遍关注	-16220
是注定要失败的	-16221
普遍反思的问题	-16222
最高人民检察院	-16223
有机地结合起来	-16224
朝鲜半岛局势的	-16225
期待着今年秋天	-16226
朱总理多次表明	-16227
果断的打击措施	-16228
欢迎台湾各党派	-16229
比去年同期增长	-16230
没有中国共产党	-16231
油气资源的勘探	-16232
注入了新的活力	-16233
滋生蔓延的土壤	-16234
甚至引发新一轮	-16235
痴迷者自焚事件	-16236
的关键是处理好	-16237
的基础上谈起来	-16238
的精神文明建设	-16239
的若干政策措施	-16240
的重要战略方向	-16241
的集装箱吞吐量	-16242
省委书记周永康	-16243
社会主义价值观	-16244
社会化等项改革	-16245
积极的财政政策	-16246
符合美国的利益	-16247
第五十七届会议	-16248
等方面加强合作	-16249
管理和质量管理	-16250
经济发展遇到了	-16251
经济效益为中心	-16252
经贸合作创造了	-16253
经过一段时间的	-16254
给予了充分肯定	-16255
绝对不能容忍的	-16256
继续保持和发展	-16257
维护世界和平的	-16258
维护自己的权利	-16259
美军酞平洋舰队	-16260
美国在亚酞地区	-16261
美国政府的邀请	-16262
美国的反华提案	-16263
美国的国家利益	-16264
联合国武器核查	-16265
联合国维和行动	-16266
至今还不甚了解	-16267
西方发达国家的	-16268
西部的战略地位	-16269
要不惜一切代价	-16270
规定处以罚款的	-16271
解决边界问题的	-16272
许可而进入中国	-16273
谈判是有进展的	-16274
谢长廷关于高雄	-16275
达成了重要共识	-16276
达成双边协议后	-16277
这是包括大多数	-16278
这表明日本修宪	-16279
进行了正式访问	-16280
进行友好访问的	-16281
进行的产品质量	-16282
逐步提高的前提	-16283
通货膨胀的危险	-16284
重大国际问题上	-16285
防沙治沙法草案	-16286
限制市场经济的	-16287
隆重的欢迎仪式	-16288
非战争军事行动	-16289
面临的共同挑战	-16290
面临的最大挑战	-16291
革命和建设事业	-16292
顺序作相应调整	-16293
领域的互利合作	-16294
首先审议通过了	-16295
香港中通社记者	-16296
高新技术产业的	-16297
高素质干部队伍	-16298
▁中国将一如既往	-16299
▁中国社会科学院	-16300
▁事发不到一小时	-16301
▁俄罗斯总统普京	-16302
▁傅全有还向客人	-16303
▁台湾当局领导人	-16304
▁同许多国家一样	-16305
▁因为没有火力战	-16306
▁在一个中国原则	-16307
▁在今天的外交部	-16308
▁在经济全球化的	-16309
▁小泉上台后声称	-16310
▁我们高兴地看到	-16311
▁没有稳定的政治	-16312
▁胡锦涛在讲话中	-16313
▁自冷战结束以来	-16314
▁要通过深化改革	-16315
▁迟浩田代表强调	-16316
一个什么样的未来	-16317
不可分割的一部分	-16318
不断发展表示满意	-16319
与祖国大陆的统一	-16320
世界的和平与稳定	-16321
东南海域展开搜寻	-16322
两国和两国人民的	-16323
两国虽然相距遥远	-16324
两国领导人之间的	-16325
中伊友谊又翻开了	-16326
中共湖北省委书记	-16327
中华民族伟大复兴	-16328
中国和东盟国家的	-16329
中国政府一再呼吁	-16330
中巴战略伙伴关系	-16331
中美关系经历过的	-16332
为中国现代化建设	-16333
之间的团结与合作	-16334
九届三次会议期间	-16335
也必须清醒地看到	-16336
也是维护亚洲稳定	-16337
也符合中国的利益	-16338
也缺乏深入的研究	-16339
也都将办理结果逐	-16340
事务的助理国务卿	-16341
事务纯属中国内政	-16342
人权问题上的分歧	-16343
人民生活水平提高	-16344
亿多人口不同程度	-16345
什么问题都可以谈	-16346
以确保社会的稳定	-16347
以非法经营罪判处	-16348
任何一方不得擅自	-16349
俄美两国总统赞成	-16350
共同为在亚酞地区	-16351
农村基层组织建设	-16352
出于人道主义考虑	-16353
利益和两国人民的	-16354
加强与中国在国际	-16355
加快推进社会主义	-16356
千年首脑会议期间	-16357
南北双方改善关系	-16358
印度总理瓦杰帕伊	-16359
历史和台湾的问题	-16360
又遭受了金融危机	-16361
受常务委员会委托	-16362
只会加剧台湾海峡	-16363
台湾当局领导人的	-16364
台湾竟然购买了其	-16365
台湾问题终将得到	-16366
否决汤普森修正案	-16367
和两岸关系的发展	-16368
和中国三代领导人	-16369
和平解决台湾问题	-16370
唆使未成年人自残	-16371
回避一个中国原则	-16372
国内生产总值增长	-16373
国务院总理朱镕基	-16374
国务院新闻办公室	-16375
国有独资商业银行	-16376
国防委员会委员长	-16377
在一九九一年制定	-16378
在各个领域的合作	-16379
在国际事务中扮演	-16380
在平等和相互尊重	-16381
地区的和平与稳定	-16382
奠定了坚实的基础	-16383
妥善处理台湾问题	-16384
娱乐服务场所管理	-16385
安理会常任理事国	-16386
实现自主和平统一	-16387
对世界和平与发展	-16388
对两国关系的发展	-16389
对经济增长的拉动	-16390
就几乎没有了战争	-16391
就没有了赖以进行	-16392
工人阶级的先锋队	-16393
已成为全中国人民	-16394
已经通过各种途径	-16395
并继续发生深刻而	-16396
建设紧密结合起来	-16397
当局能许台湾人民	-16398
性战略武器是一个	-16399
战争的最基本甚至	-16400
战争给谁带来好处	-16401
战区导弹防御计划	-16402
所发生的巨大变化	-16403
所取得的巨大成就	-16404
挑战一个中国原则	-16405
提出了更高的要求	-16406
支持中国统一大业	-16407
改革的主要内容是	-16408
政府的统一领导下	-16409
政治和社会生活中	-16410
斯基将率专家小组	-16411
新的导弹防御计划	-16412
方面做了大量工作	-16413
是一定能够实现的	-16414
是严重的违法行为	-16415
是我国经济发展的	-16416
是随着时代的前进	-16417
最大的发展中国家	-16418
最敏感的核心问题	-16419
机制和管理制度上	-16420
李洪志的歪理邪说	-16421
李鹏委员长和夫人	-16422
标志着我们把一个	-16423
永远立于不败之地	-16424
江主席的这次访问	-16425
活动的政治流亡者	-16426
特别是伊朗伊斯兰	-16427
破坏中国统一大业	-16428
稳定是繁荣的前提	-16429
立于世界民族之林	-16430
经济全球化中受益	-16431
经济和社会发展的	-16432
美国国务院发言人	-16433
美机违反飞行规则	-16434
而且什么都可以谈	-16435
而繁荣又促进稳定	-16436
腐败分子清理出来	-16437
致以亲切的问候和	-16438
西部大开发战略的	-16439
解放和发展生产力	-16440
认同一个中国原则	-16441
贸易保护主义抬头	-16442
贸易等领域的合作	-16443
起到了重要的作用	-16444
起新一轮军备竞赛	-16445
迄今非但没有改善	-16446
进程不断向前发展	-16447
追求和平统一目标	-16448
马克思主义的信仰	-16449
马克思主义的立场	-16450
▁会议研究和提出了	-16451
▁但由于历史的原因	-16452
▁俄罗斯和中国更是	-16453
▁历史和现实都表明	-16454
▁各国文明的多样性	-16455
▁各级党委和政府要	-16456
▁在实现祖国统一的	-16457
▁在记者问到中国的	-16458
▁对朱亚衍访问高雄	-16459
▁就在香港刚刚经历	-16460
▁广大发展中国家的	-16461
▁引诱未成年人修炼	-16462
▁最终解决台湾问题	-16463
▁海协方面的表述是	-16464
▁西部大开发是一个	-16465
▁随着香港和澳门的	-16466
一九九二年两会共识	-16467
一些国家相继采取了	-16468
不利于全球战略稳定	-16469
不承认一个中国原则	-16470
不承诺放弃使用武力	-16471
与两岸关系论坛的王	-16472
业已存在的友好关系	-16473
两国关系在新世纪的	-16474
两国关系进一步发展	-16475
两国的友好合作关系	-16476
两岸关系稳定发展的	-16477
严重违反人权的状况	-16478
中共中央政治局委员	-16479
中共中央政治局常委	-16480
中国坚定不移地支持	-16481
中国投资贸易洽谈会	-16482
中国的和平统一大业	-16483
中坚持人民币不贬值	-16484
举行的记者招待会上	-16485
也存在一些需要谨慎	-16486
也是第九次遭到失败	-16487
互联网信息服务实行	-16488
五架飞机赶赴海南岛	-16489
亲切问候和良好祝愿	-16490
介绍了中国国内形势	-16491
依靠人民是我国监督	-16492
俄武装力量第一副总	-16493
信托财产的管理运用	-16494
全国人大常委会关于	-16495
全心全意为人民服务	-16496
具有重要历史意义的	-16497
农业和农村经济结构	-16498
决不让历史悲剧重演	-16499
加入世界贸易组织后	-16500
历来是影响我国安全	-16501
双方应保持高层互访	-16502
变更或解除工资协议	-16503
台湾从中国分裂出去	-16504
台湾是中国的一部分	-16505
各个层次的人员交往	-16506
同时又要有只争朝夕	-16507
同样的事情到了中国	-16508
和他的竞选历程一样	-16509
和平与稳定继续发挥	-16510
和平统一的最大诚意	-16511
国际军控与裁军进程	-16512
国际社会的共同责任	-16513
在台湾问题上的立场	-16514
在国际和地区事务中	-16515
在地区和国际事务中	-16516
在平等互利的基础上	-16517
在马克思主义指导下	-16518
外交部发言人孙玉玺	-16519
大多与台湾问题有关	-16520
天安门广场自焚事件	-16521
实施西部大开发战略	-16522
对与中国开展的合作	-16523
对江泽民主席的问候	-16524
已经注意到高雄市长	-16525
干涉中国内政的做法	-16526
干涉中国内政的图谋	-16527
应当得到足够的重视	-16528
建立公正合理的国际	-16529
我们担心此举会造成	-16530
提高到一个新的水平	-16531
支持中国的和平统一	-16532
放弃分裂主张的立场	-16533
政策的重要组成部分	-16534
新时期军事战略方针	-16535
日下午抵达萨格勒布	-16536
是一篇马克思主义的	-16537
是中国人民自己的事	-16538
是中美关系中最重要	-16539
是保证西藏各项事业	-16540
是我们党的立党之本	-16541
是日本政府应当履行	-16542
最广大人民根本利益	-16543
有着悠久的传统友谊	-16544
正在发生深刻的变化	-16545
海军就派出五艘舰艇	-16546
生死存亡的重大问题	-16547
的一个重要组成部分	-16548
科技和人力资源开发	-16549
积极财政政策的实施	-16550
类电子产品生产企业	-16551
继续保持高层接触和	-16552
维护地区和平与稳定	-16553
致力于和平与发展的	-16554
艰苦奋斗的思想准备	-16555
花巨额资金购买武器	-16556
表达中国统一的愿望	-16557
要部署国家导弹防御	-16558
赴美同美方举行会谈	-16559
进一步扩大对外开放	-16560
进行为期十天的访问	-16561
邓小平先生曾对他说	-16562
邓小平理论武装全党	-16563
防范和化解金融风险	-16564
领土完整和民族尊严	-16565
首席执行官穆沙拉夫	-16566
香港中国通讯社北京	-16567
▁世界上只有一个中国	-16568
▁中华体育精神是我国	-16569
▁中国政府和中国人民	-16570
▁他衷心祝愿中国人民	-16571
▁俄罗斯认为在热那亚	-16572
▁全军和武警部队官兵	-16573
▁双方关于边界问题的	-16574
▁客人们也反映了台湾	-16575
▁应进一步加强成员间	-16576
▁美方还就其飞机未经	-16577
▁钱其琛在会谈中强调	-16578
中俄战略协作伙伴关系	-16579
中叙关系持续健康发展	-16580
中日关系的主流是好的	-16581
中美关系与两国的根本	-16582
为实现社会主义现代化	-16583
也不是美国的战略伙伴	-16584
二是较为低廉的劳动力	-16585
互联网的所有技术准备	-16586
会遇到各种各样的挑战	-16587
但也确实存在一些问题	-16588
作为世界上有重要影响	-16589
作出了一系列重要指示	-16590
依照水污染防治法第四	-16591
信息泄密现象时有发生	-16592
全球祗生产出三千多架	-16593
关系全中国人民的感情	-16594
加强基层政法队伍建设	-16595
劳动模范和先进工作者	-16596
发言时作出上述呼吁的	-16597
各界人士充分交换意见	-16598
后所应采取的对策措施	-16599
和平宪法是可以修改的	-16600
和平统一的基础和前提	-16601
商务和其他非官方关系	-16602
在一个中国原则基础上	-16603
在维护国际和平与安全	-16604
地图就是一个积极举措	-16605
坚持党对军队绝对领导	-16606
基础上的新型国家关系	-16607
市场经济秩序的工作中	-16608
布什执政的前程很可能	-16609
延长对华正常贸易关系	-16610
很多人对中国政党制度	-16611
我们愿意与台湾各政党	-16612
战斗机和幻影式战斗机	-16613
所有国家发展友好关系	-16614
承包经营管理外商投资	-16615
把台湾从中国分割出去	-16616
推翻不了一个中国原则	-16617
方面的一些意见和建议	-16618
是一种建立在相互尊重	-16619
是中华民族的千秋大业	-16620
是人们普遍关注的大事	-16621
是人类社会的基本特征	-16622
是山水相连的友好邻邦	-16623
是社会主义现代化建设	-16624
更加迫切的愿望和要求	-16625
的方针来解决台湾问题	-16626
的步伐可能进一步加快	-16627
社会保障体系的重要性	-16628
积极推动本国企业参与	-16629
繁荣的亚洲而共同努力	-16630
经济和文化方面的安全	-16631
经济结构的战略性调整	-16632
给我留下了深刻的印象	-16633
维护中日关系政治基础	-16634
自杀是严重的犯罪行为	-16635
致函台湾海基会对台风	-16636
质量是三峡工程的生命	-16637
进一步扩大两国在经济	-16638
进入全面建设小康社会	-16639
遵守中美三个联合公报	-16640
领导干部廉洁自律工作	-16641
▁中国愿与其他成员一道	-16642
▁他呼吁亚洲各国为建设	-16643
▁党和国家领导人江泽民	-16644
▁全国政协副主席叶选平	-16645
▁我们必须充分做好长期	-16646
▁李鹏委员长的夫人朱琳	-16647
▁正在此间参加中华文化	-16648
▁美国的邪教是邪教问题	-16649
▁要坚持社会主义价值观	-16650
▁这项工作要在各级党委	-16651
▁首先是军队的作战原则	-16652
与会两岸记者的联合采访	-16653
世界军事领域的深刻变革	-16654
两位领导人需费一番周折	-16655
两国人民之间的传统友谊	-16656
两国关系既面临发展机遇	-16657
中方机场向中方深表歉意	-16658
也是人类文明进步的动力	-16659
也是我国监督的最大优势	-16660
事关中日关系的政治基础	-16661
以及中国政府在台湾问题	-16662
优势一是庞大的市场潜力	-16663
体制启动的各项准备工作	-16664
依照国家有关税收的规定	-16665
便捷的经贸环境作出努力	-16666
共同关心的国际问题广泛	-16667
军事代表工作改革的思路	-16668
发展有中国特色社会主义	-16669
台湾同胞在推动两岸直接	-16670
台湾有关方面称必须符合	-16671
向美方表明了自己的立场	-16672
和实践的深化而不断丰富	-16673
和平不能依靠武力来实现	-16674
国防委员会委员长金正日	-16675
在会上作了全国政协九届	-16676
坚决反对美国这一意在挑	-16677
坚定对马克思主义的信仰	-16678
始终坚持一个中国的原则	-16679
实现中华民族的伟大复兴	-16680
尽最大努力争取和平统一	-16681
并回答了他们提出的问题	-16682
应共同努力解决边界问题	-16683
必须共同加强而不能削弱	-16684
持续发展和人民生活水平	-16685
改革开放和法制建设方面	-16686
新疆的民族分裂主义活动	-16687
欧洲国家在内的国际社会	-16688
正确认识中国政治制度是	-16689
江泽民主席和李鹏委员长	-16690
独立于企业事业单位之外	-16691
社会化等项改革积极推进	-16692
繁荣与稳定是相辅相成的	-16693
经济发展和社会全面进步	-16694
经济发展遇到了严重困难	-16695
继续坚持和平发展的道路	-16696
腐败现象滋生蔓延的土壤	-16697
西部的战略地位十分重要	-16698
诚心诚意地希望南北和解	-16699
进行的产品质量监督检查	-16700
限制市场经济的消极影响	-16701
青少年学生校外活动场所	-16702
领导干部廉洁自律的工作	-16703
▁全国人大常委会副委员长	-16704
一个中国的原则与台湾问题	-16705
两国是山水相连的友好邻邦	-16706
中伊友谊又翻开了新的篇章	-16707
中国的领土和主权不容分割	-16708
中美关系经历过的波折起伏	-16709
九届全国人大常委会第二十	-16710
亚酞经合组织领导人非正式	-16711
促进共同繁荣负有重要责任	-16712
党风廉政建设和反腐败斗争	-16713
共同关心的国际和地区问题	-16714
关系中国的主权和领土完整	-16715
参谋长联席会议主席谢尔顿	-16716
友好合作关系不断推向前进	-16717
台湾问题终将得到妥善解决	-16718
合理的国际政治经济新秩序	-16719
和厦门是同一个国家的谈话	-16720
外商投资企业到中西部地区	-16721
强化海关的打私权限及对其	-16722
支持中国加入世界贸易组织	-16723
是两国关系的重要组成部分	-16724
是中华民族的宝贵精神财富	-16725
是建设有中国特色社会主义	-16726
更不能依靠军事同盟来维持	-16727
民族权力机构主席阿拉法特	-16728
派飞机到中国近海进行侦察	-16729
现代化建设第三步战略目标	-16730
经营性互联网信息服务实行	-16731
袭击造成台胞伤亡深表关切	-16732
许可而进入中国领空并降落	-16733
追求和平统一目标表示赞赏	-16734
▁中国政府已经通过各种途径	-16735
▁对会议期间代表提出的建议	-16736
▁没有稳定的政治和社会环境	-16737
▁究竟这场战争给谁带来好处	-16738
▁随着中国加入世界贸易组织	-16739
不仅是受危害国家的紧迫任务	-16740
也是维护亚洲稳定的重要力量	-16741
又遭受了金融危机的强烈冲击	-16742
只会加剧台湾海峡局势的紧张	-16743
各有关部门也缺乏深入的研究	-16744
如何解决两国在军事领域合作	-16745
对与中国开展的合作感到满意	-16746
并继续发生深刻而巨大的变化	-16747
性战略武器是一个重要的成果	-16748
我国已进入全面建设小康社会	-16749
战争的最基本甚至最起码手段	-16750
海峡两岸均坚持一个中国原则	-16751
经过包括台湾同胞在内的全体	-16752
维护而不能损害安理会的权威	-16753
致以亲切的问候和良好的祝愿	-16754
起新一轮军备竞赛的危险步骤	-16755
重要思想学习教育活动的重要	-16756
▁以江泽民同志为核心的党中央	-16757
▁台湾当局花巨额资金购买武器	-16758
▁在实现祖国统一的共同目标下	-16759
▁在记者问到中国的政党制度时	-16760
▁客人们也反映了台湾工商界和	-16761
▁马克思主义是随着时代的前进	-16762
中国是推动亚洲发展的重要力量	-16763
也都将办理结果逐件答复了代表	-16764
亿多人口不同程度受缺水的影响	-16765
从事分裂祖国活动的政治流亡者	-16766
使他们真正从经济全球化中受益	-16767
依靠人民是我国监督的根本特点	-16768
保持半岛的和平与稳定继续发挥	-16769
克服了亚洲金融危机带来的困难	-16770
共同为在亚酞地区建立更为高效	-16771
其国内存在严重违反人权的状况	-16772
利益和两国人民的福祉密切相关	-16773
加大金融对经济发展的支持力度	-16774
加强与中国在国际事务中的合作	-16775
加快推进现代化的新的发展阶段	-16776
参与国际分工和经济全球化进程	-16777
发展马克思主义做出应有的贡献	-16778
台湾竟然购买了其中的十分之一	-16779
国有及国有控股大中型亏损企业	-16780
国民经济和社会发展第十个五年	-16781
实施西部大开发的若干政策措施	-16782
平等互利基础上的新型国家关系	-16783
是一篇马克思主义的纲领性文献	-16784
此间举行的外交部记者招待会上	-16785
没有中国共产党就没有中国妇女	-16786
社会主义改革开放和现代化建设	-16787
社会面貌发生了翻天覆地的变化	-16788
科技和人力资源开发方面的合作	-16789
符合两国和两国人民的根本利益	-16790
▁我们有实现和平统一的最大诚意	-16791
▁钱其琛对新党坚持一个中国原则	-16792
中国坚持独立自主的和平外交政策	-16793
亚洲金融危机中坚持人民币不贬值	-16794
交换实控线地图就是一个积极举措	-16795
俄美两国总统赞成大规模裁减进攻	-16796
利用人权问题干涉中国内政的图谋	-16797
参谋长巴卢耶夫斯基将率专家小组	-16798
受邪教危害的一些国家相继采取了	-16799
台湾当局领导人承认一个中国原则	-16800
同机抵达的还有美国国务院发言人	-16801
后所应采取的对策措施和法律法规	-16802
庆祝中国共产党成立八十周年大会	-16803
改革开放和社会主义现代化建设中	-16804
特别是伊朗伊斯兰共和国成立以来	-16805
的关键是处理好历史和台湾的问题	-16806
社会主义精神文明的重要组成部分	-16807
祖国的完全统一是一定能够实现的	-16808
遵守中美三个联合公报和有关承诺	-16809
▁他呼吁亚洲各国为建设新世纪和平	-16810
▁后勤保障社会化等项改革积极推进	-16811
▁在开展整顿市场经济秩序的工作中	-16812
▁广大发展中国家的合理主张和要求	-16813
与两岸关系论坛的王在希今天接受了	-16814
包括台湾同胞在内的全体中国人民的	-16815
历来是影响我国安全的重要战略方向	-16816
已经注意到高雄市长谢长廷关于高雄	-16817
当局能许台湾人民一个什么样的未来	-16818
我们担心此举会造成一系列消极影响	-16819
改革开放和法制建设方面取得的进步	-16820
是中国政府解决台湾问题的基本方针	-16821
科学的发展和实践的深化而不断丰富	-16822
符合两国人民的根本利益和共同愿望	-16823
%、0	-16824
-2”	-16825
0·4	-16826
0·8	-16827
41)	-16828
7.5	-16829
cim	-16830
imf	-16831
npt	-16832
▁下周	-16833
▁两家	-16834
▁卢树	-16835
▁印巴	-16836
▁卷入	-16837
▁品质	-16838
▁唐树	-16839
▁定为	-16840
▁已订	-16841
▁彩门	-16842
▁打通	-16843
▁投影	-16844
▁按常	-16845
▁掩盖	-16846
▁普理	-16847
▁杨立	-16848
▁横向	-16849
▁沙阿	-16850
▁法派	-16851
▁着力	-16852
▁素有	-16853
▁编者	-16854
▁范国	-16855
▁萧灼	-16856
▁谁搞	-16857
▁那时	-16858
▁那气	-16859
▁邯钢	-16860
▁长老	-16861
▁陆宗	-16862
▁频频	-16863
一介布	-16864
一十米	-16865
一根稻	-16866
一浪高	-16867
三步走	-16868
上几千	-16869
上游刃	-16870
上重任	-16871
下大海	-16872
下雄师	-16873
不化者	-16874
不受本	-16875
不堪言	-16876
不失为	-16877
不息的	-16878
不肯再	-16879
不言而	-16880
与此正	-16881
与燃油	-16882
与舰船	-16883
专心致	-16884
专程来	-16885
且成交	-16886
世的侯	-16887
丝绸等	-16888
丝香皂	-16889
严惩不	-16890
严明的	-16891
个个过	-16892
个中原	-16893
个税目	-16894
中起着	-16895
中间靠	-16896
丹麦在	-16897
为中文	-16898
为四千	-16899
为所至	-16900
为日朝	-16901
为杜马	-16902
为死难	-16903
为贵州	-16904
之上对	-16905
之争中	-16906
之大不	-16907
乘之机	-16908
乘员志	-16909
也可与	-16910
也向印	-16911
也抹煞	-16912
也随之	-16913
乡定居	-16914
书写了	-16915
了几大	-16916
了呼兰	-16917
了滩头	-16918
了美好	-16919
了这起	-16920
争不已	-16921
争中脱	-16922
事要做	-16923
五亿亩	-16924
亚音速	-16925
亟待破	-16926
亦难幸	-16927
亲笔信	-16928
人分手	-16929
人受伤	-16930
人团票	-16931
人团聚	-16932
人间惨	-16933
仍不时	-16934
从创建	-16935
从外表	-16936
从正规	-16937
从武汉	-16938
从获奖	-16939
从谷底	-16940
从里根	-16941
他只说	-16942
他大义	-16943
他曾去	-16944
以专心	-16945
以削减	-16946
以快助	-16947
以满腔	-16948
以特首	-16949
以罕见	-16950
以至更	-16951
以避开	-16952
件纸箱	-16953
会传递	-16954
会场外	-16955
会长韩	-16956
伸出援	-16957
伽马时	-16958
但亲眼	-16959
但他不	-16960
但又想	-16961
住东城	-16962
何处去	-16963
何感想	-16964
余额为	-16965
余额占	-16966
作价入	-16967
你和我	-16968
使驻韩	-16969
例行公	-16970
供求中	-16971
依次编	-16972
侵害他	-16973
俘生涯	-16974
停建拆	-16975
元帅冤	-16976
元旦日	-16977
克敌致	-16978
党制或	-16979
公理自	-16980
公益性	-16981
六七十	-16982
兰茨贝	-16983
关押了	-16984
其害误	-16985
具死难	-16986
养出一	-16987
写进党	-16988
写进需	-16989
军装的	-16990
农场场	-16991
农牧区	-16992
减幅度	-16993
出实绩	-16994
出租和	-16995
分布上	-16996
则必规	-16997
刚才我	-16998
创一流	-16999
初生婴	-17000
利等人	-17001
到一篇	-17002
到多维	-17003
到极致	-17004
到省里	-17005
制药厂	-17006
力整肃	-17007
力疏散	-17008
办奥德	-17009
加宣扬	-17010
加州的	-17011
务者为	-17012
动乱将	-17013
动物防	-17014
劫杀人	-17015
匡迪向	-17016
十余年	-17017
华文报	-17018
占据了	-17019
历时近	-17020
原先的	-17021
厢情愿	-17022
县六个	-17023
县县长	-17024
又个个	-17025
又来戏	-17026
反腐倡	-17027
发了言	-17028
发端于	-17029
取其辱	-17030
受其害	-17031
变数而	-17032
口市进	-17033
另一手	-17034
另有他	-17035
叫你是	-17036
召县城	-17037
可抵台	-17038
台演出	-17039
史为鉴	-17040
吃吃喝	-17041
吃大锅	-17042
各执收	-17043
各省市	-17044
同伙于	-17045
同宣讲	-17046
名旅居	-17047
名部下	-17048
向获奖	-17049
向萨尔	-17050
君权与	-17051
含糊过	-17052
听获取	-17053
周恩来	-17054
和为贵	-17055
和克敌	-17056
和切尼	-17057
和大韩	-17058
和张柏	-17059
和敌意	-17060
和旅日	-17061
和旅法	-17062
和无数	-17063
和洪水	-17064
和洲际	-17065
和热源	-17066
和申诉	-17067
和陈毅	-17068
和随他	-17069
和高规	-17070
哥斯达	-17071
商界共	-17072
喜悦与	-17073
器热控	-17074
嚓嚓嚓	-17075
四千户	-17076
因受贺	-17077
国体是	-17078
国宾馆	-17079
土豆栽	-17080
土豆种	-17081
在三藩	-17082
在任内	-17083
在办案	-17084
在围攻	-17085
在张家	-17086
在新修	-17087
在新德	-17088
在立功	-17089
在遭敌	-17090
在重振	-17091
地面到	-17092
均被扑	-17093
堕落为	-17094
塔吉克	-17095
塔的细	-17096
塞族人	-17097
壁江山	-17098
壮丽的	-17099
外汇存	-17100
外表的	-17101
多做于	-17102
多前就	-17103
多听听	-17104
多维化	-17105
大屠杀	-17106
大杰出	-17107
大自助	-17108
大财团	-17109
大起大	-17110
天外天	-17111
天天喊	-17112
天天在	-17113
夫所指	-17114
夷群岛	-17115
奉命率	-17116
女同行	-17117
女性自	-17118
好回顾	-17119
妙应答	-17120
始建于	-17121
孕育了	-17122
安保是	-17123
安林说	-17124
安装天	-17125
完备了	-17126
定名为	-17127
定瞄准	-17128
实证性	-17129
害或被	-17130
害者们	-17131
宴请了	-17132
宴请或	-17133
家所持	-17134
容自如	-17135
容遣送	-17136
对他为	-17137
对奥德	-17138
对峙的	-17139
对承办	-17140
对敌方	-17141
对罗马	-17142
封均被	-17143
将中芬	-17144
将同俄	-17145
将陷于	-17146
小雪中	-17147
少得多	-17148
尔克里	-17149
尘莫及	-17150
就在板	-17151
就得花	-17152
就筹建	-17153
尸体已	-17154
尸体肢	-17155
尽量减	-17156
层层加	-17157
层面看	-17158
届二次	-17159
山林和	-17160
山的雪	-17161
崇高人	-17162
巡防舰	-17163
工验收	-17164
已整整	-17165
市进修	-17166
带巨款	-17167
幕僚外	-17168
幕惊心	-17169
干管道	-17170
干脆封	-17171
年为我	-17172
年递增	-17173
并实用	-17174
并激化	-17175
并热切	-17176
并祝参	-17177
并称以	-17178
并请扎	-17179
庄村的	-17180
应足额	-17181
庸置疑	-17182
建于花	-17183
开学始	-17184
开阔了	-17185
弟子与	-17186
张宏喜	-17187
强迫清	-17188
归根结	-17189
形而上	-17190
征的税	-17191
很是感	-17192
很棘手	-17193
徐匡迪	-17194
徐文良	-17195
得上是	-17196
心潮难	-17197
心里很	-17198
心里踏	-17199
开工充	-17200
忠禹说	-17201
性越高	-17202
恪尽职	-17203
悔不已	-17204
悖而自	-17205
悲痛万	-17206
惠国牌	-17207
惨遭奴	-17208
惨遭杀	-17209
想抹煞	-17210
我不怕	-17211
我哪里	-17212
房间时	-17213
所坚守	-17214
所未曾	-17215
所罕见	-17216
手的山	-17217
手致意	-17218
才之责	-17219
才更有	-17220
打三发	-17221
打完的	-17222
打算在	-17223
把搜集	-17224
抗旱保	-17225
报章指	-17226
报章洽	-17227
招商月	-17228
招商绩	-17229
拼命往	-17230
挂上阵	-17231
挑重担	-17232
挖幕后	-17233
换装的	-17234
排污的	-17235
接着一	-17236
提议极	-17237
播出一	-17238
收效也	-17239
收效甚	-17240
收音机	-17241
敌前沿	-17242
整整等	-17243
断交三	-17244
断交后	-17245
斯洛文	-17246
新三党	-17247
新战果	-17248
新西兰	-17249
施加了	-17250
族音乐	-17251
无一例	-17252
无理取	-17253
无生还	-17254
无线电	-17255
旱情也	-17256
时全场	-17257
时处处	-17258
时效性	-17259
明上将	-17260
是刑罚	-17261
是台大	-17262
是漠视	-17263
曲虽短	-17264
曾任向	-17265
曾有幸	-17266
最惠国	-17267
最紧要	-17268
月开通	-17269
有公论	-17270
有公道	-17271
有兴致	-17272
有失公	-17273
有失其	-17274
有定论	-17275
有意将	-17276
有雄厚	-17277
朝仍会	-17278
朱丽兰	-17279
李万燮	-17280
林深处	-17281
林绿化	-17282
枪击案	-17283
架构下	-17284
栏目也	-17285
案据和	-17286
欠款和	-17287
款和给	-17288
此人间	-17289
殷切的	-17290
比喻说	-17291
民航总	-17292
气十足	-17293
气温高	-17294
气逼人	-17295
水也哭	-17296
水预报	-17297
永南请	-17298
求大同	-17299
捷报传	-17300
汉等人	-17301
沉船的	-17302
洒自如	-17303
活剧来	-17304
流氓成	-17305
浑身的	-17306
淮河的	-17307
深切的	-17308
深埋在	-17309
淹没在	-17310
清白白	-17311
温饱尚	-17312
满载着	-17313
演唱了	-17314
潜逃到	-17315
激战中	-17316
炮制的	-17317
烈之势	-17318
物品起	-17319
物是人	-17320
物资运	-17321
狂热的	-17322
猎物咬	-17323
王国贤	-17324
王英凡	-17325
甘情愿	-17326
生不息	-17327
生机和	-17328
生涯和	-17329
用高新	-17330
由单项	-17331
留了几	-17332
痪或被	-17333
痴心妄	-17334
的冰毒	-17335
的几宗	-17336
的卑鄙	-17337
的含义	-17338
的基点	-17339
的基调	-17340
的堕落	-17341
的墓前	-17342
的学风	-17343
的岁月	-17344
的拉大	-17345
的敌意	-17346
的根源	-17347
的比喻	-17348
的浓厚	-17349
的症结	-17350
的盟友	-17351
的目光	-17352
的眼中	-17353
的职权	-17354
的航舰	-17355
的象征	-17356
的财力	-17357
的通话	-17358
的钥匙	-17359
的阴谋	-17360
的面包	-17361
的面越	-17362
的鬼话	-17363
目光一	-17364
看了看	-17365
看了阅	-17366
看整改	-17367
真空的	-17368
着去做	-17369
破张君	-17370
破旧的	-17371
碌而又	-17372
社上班	-17373
社保局	-17374
社科界	-17375
祉所系	-17376
祝中老	-17377
神父曾	-17378
票据和	-17379
积较大	-17380
称南南	-17381
空倒置	-17382
第六届	-17383
等文艺	-17384
等谬论	-17385
答覆说	-17386
简直有	-17387
箱涉足	-17388
精兵把	-17389
级宾馆	-17390
级舰配	-17391
纳斯达	-17392
线程控	-17393
组合事	-17394
织包围	-17395
结晶物	-17396
绯闻始	-17397
绯闻案	-17398
缔结的	-17399
在制药	-17400
末倒置	-17401
编师的	-17402
缴获易	-17403
罗当即	-17404
署版权	-17405
美两家	-17406
群岛夸	-17407
群抢滩	-17408
老板兰	-17409
老板让	-17410
者为各	-17411
者心存	-17412
而消散	-17413
而轻易	-17414
而轻率	-17415
肺的哀	-17416
胡世祥	-17417
胺薄膜	-17418
能不让	-17419
能信守	-17420
能打住	-17421
能聚众	-17422
能说会	-17423
能远航	-17424
脱钩的	-17425
腐朽没	-17426
自孕育	-17427
自私性	-17428
致辞说	-17429
舍得花	-17430
船的顶	-17431
若在我	-17432
英勇的	-17433
莲香皂	-17434
董事局	-17435
薄膜和	-17436
行证件	-17437
衍红在	-17438
表水源	-17439
被关押	-17440
被埋在	-17441
西带领	-17442
西洋乐	-17443
要勤政	-17444
要尽职	-17445
要着力	-17446
要紧紧	-17447
见过长	-17448
警备区	-17449
警报报	-17450
讲究众	-17451
证实了	-17452
说上几	-17453
说情的	-17454
赔偿我	-17455
起大红	-17456
起死伤	-17457
跳跃式	-17458
踏实了	-17459
蹄动物	-17460
身即是	-17461
转型为	-17462
转播车	-17463
较深的	-17464
辛处处	-17465
过上好	-17466
过多地	-17467
过杰出	-17468
迎头赶	-17469
运到新	-17470
运圆木	-17471
还为时	-17472
还同澳	-17473
还私下	-17474
还聘请	-17475
这仅是	-17476
这句让	-17477
进军号	-17478
进而有	-17479
远大于	-17480
远航的	-17481
连接的	-17482
连接葡	-17483
迷不振	-17484
适用性	-17485
途中和	-17486
造谣过	-17487
逼迫着	-17488
那咱们	-17489
都还留	-17490
配股无	-17491
配额制	-17492
酞可悲	-17493
酞遇难	-17494
里借机	-17495
里江山	-17496
里的折	-17497
重担又	-17498
金华县	-17499
可飞到	-17500
吴黎明	-17501
和飞到	-17502
和驾驶	-17503
夫饭店	-17504
新鲜血	-17505
鉴别中	-17506
铁木尔	-17507
铧辞去	-17508
长久的	-17509
长和系	-17510
长老向	-17511
长赵春	-17512
门店曾	-17513
队员被	-17514
阿加特	-17515
附近偷	-17516
陈旧的	-17517
除另外	-17518
随沿袭	-17519
雪中送	-17520
霜毒害	-17521
靡不振	-17522
预报的	-17523
饭店沿	-17524
饱受四	-17525
香里的	-17526
骇客侵	-17527
高新区	-17528
高精度	-17529
鸣得意	-17530
黄河小	-17531
黑人便	-17532
黑人被	-17533
齐上阵	-17534
龙酞郎	-17535
.1%,	-17536
1.6%	-17537
36.1	-17538
3648	-17539
4.26	-17540
41%,	-17541
7509	-17542
82·9	-17543
8·2%	-17544
9·58	-17545
·2%。	-17546
▁不论是	-17547
▁两家人	-17548
▁中俄应	-17549
▁他和张	-17550
▁会见时	-17551
▁但与此	-17552
▁做生意	-17553
▁像这次	-17554
▁元旦日	-17555
▁全年共	-17556
▁冲绳之	-17557
▁冲绳县	-17558
▁几年前	-17559
▁几年的	-17560
▁出生于	-17561
▁前者于	-17562
▁前者已	-17563
▁卢树民	-17564
▁发生在	-17565
▁台军方	-17566
▁品质较	-17567
▁哈斯特	-17568
▁哈达姆	-17569
▁唐树备	-17570
▁善良的	-17571
▁国际台	-17572
▁在一席	-17573
▁如此急	-17574
▁妻子随	-17575
▁学员刘	-17576
▁审计署	-17577
▁尤其使	-17578
▁已订立	-17579
▁建交后	-17580
▁当天的	-17581
▁当局又	-17582
▁或者说	-17583
▁戴相龙	-17584
▁所有这	-17585
▁打国际	-17586
▁把大财	-17587
▁报告说	-17588
▁报告通	-17589
▁报导说	-17590
▁报道称	-17591
▁拉合尔	-17592
▁据赵宇	-17593
▁政治品	-17594
▁无独有	-17595
▁是役后	-17596
▁普理赫	-17597
▁曲格平	-17598
▁最后在	-17599
▁钢铁	-17600
中队长	-17601
以金钱	-17602
加权后	-17603
只限于	-17604
在金马	-17605
将锨起	-17606
尔加特	-17607
局限于	-17608
星钻石	-17609
独零售	-17610
的金钱	-17611
的钢铁	-17612
的隐蔽	-17613
的预备	-17614
重组与	-17615
钢铁是	-17616
锨起一	-17617
锨起了	-17618
限于在	-17619
随后也	-17620
随后该	-17621
顺序是	-17622
预备役	-17623
▁朱丽兰	-17624
▁李长春	-17625
▁杰福兹	-17626
▁欧洲议	-17627
▁毒品还	-17628
▁沙滩上	-17629
▁河北省	-17630
▁法派服	-17631
▁满足其	-17632
▁演练的	-17633
▁热心的	-17634
▁特别要	-17635
▁甚至在	-17636
▁监事会	-17637
▁直到两	-17638
▁相对的	-17639
▁短期内	-17640
▁祝中老	-17641
▁科学和	-17642
▁第十九	-17643
▁组建了	-17644
▁结果两	-17645
▁而道教	-17646
▁若初生	-17647
▁范国祥	-17648
▁萨塔尔	-17649
▁藏语文	-17650
▁虚拟的	-17651
▁要召集	-17652
▁该级舰	-17653
▁调整和	-17654
▁这两项	-17655
▁违反了	-17656
▁适应新	-17657
▁那气冲	-17658
▁郭金龙	-17659
▁重庆市	-17660
▁铁木尔	-17661
▁长老会	-17662
▁阿罗约	-17663
▁阿罗育	-17664
▁阿达米	-17665
▁陆委会	-17666
▁革命老	-17667
▁韩文藻	-17668
▁首次以	-17669
▁鲍尔还	-17670
一七公报	-17671
一些评述	-17672
一介布衣	-17673
一位神父	-17674
一切便利	-17675
一定不失	-17676
一批黑恶	-17677
一旦被寄	-17678
一根稻草	-17679
一浪高过	-17680
一篇批评	-17681
一脉相承	-17682
一艘俄制	-17683
万元巨款	-17684
万多公里	-17685
万官兵的	-17686
万诺维奇	-17687
三不支持	-17688
三期工程	-17689
三点一倍	-17690
三至四月	-17691
上万名伞	-17692
上世纪末	-17693
上几千元	-17694
上旬他在	-17695
上校表示	-17696
上游刃有	-17697
上百亿元	-17698
上的棋子	-17699
▁熊光	-17700
▁酞阳	-17701
于重建	-17702
亲近的	-17703
他还未	-17704
又迈出	-17705
在近代	-17706
地选用	-17707
常运转	-17708
时得出	-17709
是迫害	-17710
是重建	-17711
洲过境	-17712
臼里面	-17713
迈出大	-17714
近代史	-17715
还未到	-17716
还需附	-17717
远见的	-17718
违规和	-17719
酞阳能	-17720
重心在	-17721
附近的	-17722
零部件	-17723
▁熊光楷	-17724
▁酞阳之	-17725
上的火焰	-17726
上的雄风	-17727
上重任在	-17728
下一步是	-17729
下一阶段	-17730
下可兑换	-17731
下大演兵	-17732
下榻的华	-17733
下的罪行	-17734
下达各种	-17735
不做任何	-17736
不可估量	-17737
不同时期	-17738
不少人有	-17739
不战而屈	-17740
不战而胜	-17741
不能只看	-17742
不良风气	-17743
不被中华	-17744
不要违背	-17745
不言而喻	-17746
不让对方	-17747
不足以打	-17748
与交往的	-17749
与亲民党	-17750
与传统所	-17751
与其他友	-17752
与其他黑	-17753
与北京的	-17754
与反潜机	-17755
与国外同	-17756
与国际接	-17757
与海军官	-17758
与海协会	-17759
与特殊性	-17760
丐集中在	-17761
专程前来	-17762
且布什在	-17763
且成交近	-17764
业进入了	-17765
丝香皂成	-17766
两千五百	-17767
两国都自	-17768
两地民众	-17769
两百一十	-17770
两者冲突	-17771
严厉批驳	-17772
严安林说	-17773
严惩不贷	-17774
严格把好	-17775
个中目的	-17776
个人逃避	-17777
个县开展	-17778
个工作日	-17779
个省区市	-17780
中东特使	-17781
中具有了	-17782
中加关系	-17783
中匈两国	-17784
中和执政	-17785
中国前几	-17786
中国愿为	-17787
中宣部所	-17788
中心不受	-17789
中心的东	-17790
中的坎坷	-17791
中纪委门	-17792
中美就美	-17793
中西部腹	-17794
中造成了	-17795
丸公园的	-17796
丹麦在可	-17797
为大财团	-17798
为战斗员	-17799
▁诸如	-17800
儿跑到	-17801
和警觉	-17802
和载体	-17803
日要点	-17804
果累累	-17805
篇论文	-17806
言之有	-17807
认知和	-17808
论文数	-17809
设有烟	-17810
访俄的	-17811
贝尔用	-17812
转机所	-17813
过于拘	-17814
▁在越战	-17815
▁自从乔	-17816
中国证监	-17817
为的设计	-17818
为自己扩	-17819
主义论调	-17820
举行盛大	-17821
之中的事	-17822
之后起诉	-17823
之大不韪	-17824
之间转换	-17825
乘员一起	-17826
九时半才	-17827
也不例外	-17828
也加剧了	-17829
也十分惊	-17830
也可增加	-17831
也就越大	-17832
也打破了	-17833
也救不了	-17834
也有粉碎	-17835
也经不起	-17836
也获得了	-17837
也表示将	-17838
也进入到	-17839
也配备有	-17840
也酞多了	-17841
也随之由	-17842
也隐含着	-17843
书写形式	-17844
乱收费的	-17845
了全党的	-17846
了反倾销	-17847
了指挥部	-17848
了数亿多	-17849
了数千名	-17850
了深圳市	-17851
了美好前	-17852
了解重庆	-17853
了预定的	-17854
争中脱出	-17855
事儿跑到	-17856
事情办得	-17857
事故应急	-17858
二十九票	-17859
二十二时	-17860
二十四名	-17861
二千六百	-17862
二战期间	-17863
于事实的	-17864
互动情谊	-17865
五个因素	-17866
五十余名	-17867
五条要求	-17868
亚洲区内	-17869
些什么人	-17870
亟待破除	-17871
亟待解决	-17872
亡在外的	-17873
亡的边缘	-17874
交流始于	-17875
交给英方	-17876
交通部已	-17877
亦将发出	-17878
亦难成行	-17879
京在回答	-17880
人人有成	-17881
人员行贿	-17882
人员返回	-17883
人意料地	-17884
人才紧缺	-17885
人散布的	-17886
人有法律	-17887
人的年龄	-17888
人群多样	-17889
人能说会	-17890
人间惨剧	-17891
今天一大	-17892
今年前三	-17893
仍会出现	-17894
仍是南北	-17895
从严治官	-17896
从中吸取	-17897
从中汲取	-17898
从事党务	-17899
了金顶	-17900
内蒙古	-17901
听者称	-17902
和网民	-17903
在花圈	-17904
完美的	-17905
幻色彩	-17906
按考试	-17907
晚获益	-17908
有网民	-17909
的舞台	-17910
的花圈	-17911
真能有	-17912
网民是	-17913
群体或	-17914
致富奔	-17915
舞台是	-17916
荷兰海	-17917
葡萄酒	-17918
蔬菜大	-17919
藉此案	-17920
藏着割	-17921
都获悉	-17922
▁内蒙古	-17923
▁群体或	-17924
▁蔡英文	-17925
主义色彩	-17926
产葡萄酒	-17927
今天致电	-17928
从地下冒	-17929
从富裕的	-17930
从政是最	-17931
他不鼓励	-17932
他信总理	-17933
他只承认	-17934
他和随他	-17935
他国为敌	-17936
他大义凛	-17937
他总是把	-17938
他把全部	-17939
他第四次	-17940
他访日本	-17941
他还未有	-17942
代不一样	-17943
代替宇航	-17944
代表韩方	-17945
以下几项	-17946
以及国军	-17947
以史为鉴	-17948
以增加对	-17949
以开放促	-17950
以开放的	-17951
以快助反	-17952
以此来蛊	-17953
以种种藉	-17954
以议会而	-17955
以辉煌的	-17956
们很是感	-17957
们的提问	-17958
企业更快	-17959
伊两党和	-17960
众议员的	-17961
优化重组	-17962
优秀创作	-17963
会晤时请	-17964
会要不断	-17965
会议员博	-17966
会谈前让	-17967
传来喜人	-17968
传递环节	-17969
估价问题	-17970
伸出手去	-17971
伸出援手	-17972
但也不要	-17973
但仍有十	-17974
但在军事	-17975
但始终未	-17976
但它现在	-17977
但总体是	-17978
但是到处	-17979
但没有人	-17980
但没有明	-17981
但这不只	-17982
但这并不	-17983
位电视和	-17984
低将主要	-17985
住东城区	-17986
体制也还	-17987
余价值的	-17988
余年历史	-17989
作为联结	-17990
作充分地	-17991
作出澄清	-17992
作出答覆	-17993
作此论断	-17994
作用与被	-17995
你见过长	-17996
供求还是	-17997
依次编定	-17998
依法办案	-17999
▁科恩	-18000
▁笔者	-18001
加税的	-18002
已缴纳	-18003
现端倪	-18004
相称的	-18005
立刻向	-18006
管制以	-18007
篇幅最	-18008
约有十	-18009
约翰内	-18010
级别的	-18011
纽带的	-18012
终止和	-18013
终止时	-18014
绝于耳	-18015
编辑部	-18016
编队从	-18017
邱维的	-18018
▁科恩说	-18019
不绝于耳	-18020
企业约为	-18021
依法查询	-18022
依赖性大	-18023
侦破张君	-18024
侵害韩国	-18025
侵略罪行	-18026
便热情地	-18027
促其发展	-18028
俄与中亚	-18029
俄朝关系	-18030
俄美两家	-18031
保持沉默	-18032
信息直通	-18033
信赖的镇	-18034
修养的外	-18035
修复工程	-18036
倒是日本	-18037
借口而已	-18038
借此机会	-18039
做什么和	-18040
做到以快	-18041
做过统计	-18042
做过贡献	-18043
偶发事件	-18044
偿债能力	-18045
像王伟和	-18046
先受其害	-18047
先的抗拒	-18048
克兰水域	-18049
党主席直	-18050
党定名为	-18051
全体起立	-18052
全国纠风	-18053
全国约有	-18054
全家人心	-18055
全家出动	-18056
全省最低	-18057
全省铺开	-18058
全面估量	-18059
公共物品	-18060
公司董事	-18061
公平的很	-18062
公斤白色	-18063
公理自在	-18064
公益事业	-18065
公路维修	-18066
公里的路	-18067
六点二一	-18068
六点二九	-18069
其停建拆	-18070
其害误入	-18071
具备两栖	-18072
具死难者	-18073
内容保密	-18074
内涵所指	-18075
再添动力	-18076
再生利用	-18077
再造一个	-18078
写进党章	-18079
军乐队奏	-18080
军事天地	-18081
军区的首	-18082
军和朝鲜	-18083
军线程控	-18084
农场场部	-18085
农村电网	-18086
冰箱涉足	-18087
决断给予	-18088
决策幕僚	-18089
准备金的	-18090
减债行动	-18091
减到十六	-18092
几乎在一	-18093
几十年间	-18094
凯利等人	-18095
出动装甲	-18096
出口冰毒	-18097
出多少力	-18098
出姬胜德	-18099
▁社评	-18100
决的那	-18101
后离境	-18102
员在张	-18103
和磨难	-18104
想秋天	-18105
更看清	-18106
术的病	-18107
的丑恶	-18108
的女儿	-18109
的成因	-18110
的火舌	-18111
的真相	-18112
的福音	-18113
的那段	-18114
直航前	-18115
直航应	-18116
看清其	-18117
真相的	-18118
磨难而	-18119
祗有七	-18120
祗能是	-18121
经磨难	-18122
▁他的病	-18123
▁据目击	-18124
▁李福祥	-18125
一带的福	-18126
主体的每	-18127
产品短缺	-18128
人员离境	-18129
人祗有七	-18130
他们离境	-18131
似乎的确	-18132
体育盛会	-18133
决的那天	-18134
出席上周	-18135
出现失误	-18136
出生于芝	-18137
分别在众	-18138
分界线沿	-18139
切实选准	-18140
切断外国	-18141
刑警队长	-18142
划分的墓	-18143
则可想而	-18144
则必准绳	-18145
则必规矩	-18146
则有步骤	-18147
则预示着	-18148
刚才委员	-18149
刚才我和	-18150
创作质量	-18151
初现端倪	-18152
利益所系	-18153
利益着想	-18154
别的理论	-18155
到北京时	-18156
到北京郊	-18157
到现在快	-18158
到省电网	-18159
到饭店沿	-18160
制品批发	-18161
制定单项	-18162
制药厂等	-18163
制造事端	-18164
削减军费	-18165
前不久俄	-18166
前进的雄	-18167
剥夺了这	-18168
力整肃吏	-18169
劝至今还	-18170
功绩往往	-18171
加勒比海	-18172
加州大学	-18173
加强与伊	-18174
务等日本	-18175
动和满意	-18176
动物防疫	-18177
劳务收入	-18178
势力操纵	-18179
势必没有	-18180
勇于创新	-18181
勉励军校	-18182
化战场上	-18183
化生产和	-18184
北京释法	-18185
北约的英	-18186
北约盟友	-18187
北美中国	-18188
区内公路	-18189
区在战争	-18190
十三点九	-18191
十二月生	-18192
十五大将	-18193
十四条对	-18194
千夫所指	-18195
升空拦截	-18196
半壁江山	-18197
华文媒体	-18198
卓越贡献	-18199
勇献身	-18200
卖给费	-18201
和生前	-18202
好用好	-18203
对激光	-18204
张王牌	-18205
必留给	-18206
是父亲	-18207
曾留学	-18208
最好是	-18209
漏洞和	-18210
灿烂的	-18211
烟草商	-18212
生动地	-18213
生效后	-18214
疏导下	-18215
论点是	-18216
主要由他	-18217
也是由他	-18218
传媒炒作	-18219
军队文艺	-18220
卖给费因	-18221
南北在板	-18222
南南合作	-18223
南召县城	-18224
占东山岛	-18225
占了台湾	-18226
占在那里	-18227
卫星转播	-18228
印尼中加	-18229
印度知名	-18230
即使在不	-18231
即是破坏	-18232
却不平静	-18233
却不这么	-18234
却把自己	-18235
历史最好	-18236
历史遗留	-18237
历经风浪	-18238
厚的优越	-18239
原子弹的	-18240
去世的侯	-18241
去年夏天	-18242
去年秋季	-18243
县乡一级	-18244
县县长黄	-18245
县社保局	-18246
县长陈水	-18247
又以中国	-18248
又必须在	-18249
又来戏弄	-18250
友谊之旅	-18251
双城论坛	-18252
双方参演	-18253
双方更应	-18254
反动荒谬	-18255
反对里根	-18256
反法西斯	-18257
反舰飞弹	-18258
发现的几	-18259
发的文件	-18260
发表社评	-18261
取中共的	-18262
取得车臣	-18263
受害者们	-18264
受的苦难	-18265
变得格外	-18266
变成了死	-18267
古代文明	-18268
另一个是	-18269
另一涉案	-18270
另有他图	-18271
只写进需	-18272
只局限于	-18273
只是外界	-18274
只能寄望	-18275
召到首相	-18276
可信赖的	-18277
可喜的是	-18278
可对理论	-18279
可概括为	-18280
可能隐藏	-18281
台演出这	-18282
吃吃喝喝	-18283
吃大锅饭	-18284
吃惊的是	-18285
各单位在	-18286
各型化学	-18287
各成员更	-18288
各成员的	-18289
各执一词	-18290
各执收执	-18291
各种虚假	-18292
合作中意	-18293
合并缴纳	-18294
合肥地区	-18295
同中方的	-18296
同兰茨贝	-18297
同同伙于	-18298
同哈瓦那	-18299
▁孙运	-18300
上泅渡	-18301
也多有	-18302
伦比亚	-18303
土流失	-18304
往江西	-18305
某残忍	-18306
残害生	-18307
残忍而	-18308
毒贩子	-18309
泉州看	-18310
法理上	-18311
活生生	-18312
消灭了	-18313
滋生了	-18314
特派团	-18315
的法理	-18316
种气象	-18317
要比赛	-18318
间泅渡	-18319
▁孙运璇	-18320
▁我此访	-18321
也滋生了	-18322
人才流失	-18323
从泉州看	-18324
分子的反	-18325
即将步入	-18326
受到沉重	-18327
同处亚洲	-18328
同宣讲团	-18329
同极少数	-18330
同老挝的	-18331
名县处级	-18332
名县水利	-18333
名护市施	-18334
名旅居法	-18335
名牌大学	-18336
后也强调	-18337
后人感到	-18338
后备资源	-18339
后形成的	-18340
后提高对	-18341
向他们交	-18342
向发射架	-18343
向巴平措	-18344
向数字化	-18345
向生产者	-18346
向萨尔迪	-18347
向该项目	-18348
向鲅鱼圈	-18349
君权与一	-18350
听任南北	-18351
听证会上	-18352
启动前期	-18353
员在张学	-18354
周年庆典	-18355
周年盛典	-18356
咄咄逼人	-18357
和冷战后	-18358
和匈牙利	-18359
和反侦察	-18360
和土豆栽	-18361
和姐妹们	-18362
和工商联	-18363
和巴尔干	-18364
和平之弥	-18365
和平宇宙	-18366
和无党派	-18367
和正常的	-18368
和毛主席	-18369
和深层次	-18370
和网民就	-18371
和英国前	-18372
和规范性	-18373
和通信等	-18374
和飞到眼	-18375
和香港停	-18376
和高昂的	-18377
和鼓励正	-18378
咱们团的	-18379
哥伦比亚	-18380
哥斯达黎	-18381
商联谊会	-18382
嘉手纳町	-18383
器和伽马	-18384
嚓嚓嚓噪	-18385
嚣张气焰	-18386
四届二次	-18387
四川省的	-18388
四菜一汤	-18389
回房间时	-18390
因纺织品	-18391
团副团长	-18392
团里借机	-18393
困扰该师	-18394
围攻新闻	-18395
国内政务	-18396
国家安保	-18397
国家杜马	-18398
国家缔结	-18399
举查获	-18400
也横加	-18401
促正视	-18402
八时许	-18403
场查获	-18404
廷有时	-18405
役期的	-18406
文歌曲	-18407
星期日	-18408
晚宴并	-18409
暂时向	-18410
最快的	-18411
服从于	-18412
本土属	-18413
来得好	-18414
某国开	-18415
某国警	-18416
校外辅	-18417
核实后	-18418
正好碰	-18419
蒋正华	-18420
里有时	-18421
一个星期	-18422
一举查获	-18423
三月十二	-18424
到某国开	-18425
国家运到	-18426
国就所有	-18427
国的沉默	-18428
土地的两	-18429
在一些不	-18430
在三亚市	-18431
在三藩市	-18432
在人们心	-18433
在任期间	-18434
在会议室	-18435
在哈尔滨	-18436
在塔吉克	-18437
在我沿海	-18438
在更高层	-18439
在本土属	-18440
在澳门也	-18441
在现阶段	-18442
在电子战	-18443
在立法院	-18444
在纽约州	-18445
在经济上	-18446
在自己手	-18447
在花圈前	-18448
在鲅鱼圈	-18449
地下水水	-18450
地会带来	-18451
地区和特	-18452
地区旱情	-18453
地和神社	-18454
地放弃了	-18455
地理分布	-18456
地缘相近	-18457
地询问了	-18458
场合都不	-18459
均亚音速	-18460
均居世界	-18461
均应予以	-18462
均应强调	-18463
均由军队	-18464
[...]
