<unk>	0
<s>	0
</s>	0
▁t	-0
in	-1
▁a	-2
▁th	-3
▁the	-4
on	-5
re	-6
▁s	-7
▁c	-8
en	-9
at	-10
er	-11
▁o	-12
nd	-13
▁p	-14
it	-15
es	-16
is	-17
an	-18
▁.	-19
▁,	-20
▁w	-21
▁and	-22
or	-23
ion	-24
▁of	-25
al	-26
ed	-27
▁in	-28
ing	-29
▁f	-30
▁h	-31
▁m	-32
▁b	-33
ar	-34
ent	-35
ic	-36
▁to	-37
▁d	-38
ou	-39
▁re	-40
le	-41
ation	-42
ve	-43
om	-44
as	-45
▁e	-46
▁n	-47
il	-48
▁st	-49
op	-50
▁"	-51
st	-52
ly	-53
▁ch	-54
ct	-55
▁u	-56
ment	-57
▁be	-58
▁g	-59
▁is	-60
▁de	-61
ro	-62
id	-63
ce	-64
▁l	-65
th	-66
▁on	-67
ur	-68
▁chin	-69
▁for	-70
ol	-71
ri	-72
ad	-73
▁con	-74
▁that	-75
ch	-76
ut	-77
▁'	-78
ir	-79
im	-80
ver	-81
▁al	-82
ter	-83
res	-84
ill	-85
▁china	-86
se	-87
ul	-88
ld	-89
ot	-90
nt	-91
ig	-92
ci	-93
▁com	-94
▁it	-95
et	-96
ra	-97
▁we	-98
▁pro	-99
▁ex	-100
vel	-101
▁as	-102
ort	-103
ang	-104
▁j	-105
▁he	-106
ow	-107
▁ha	-108
ith	-109
▁sh	-110
▁cou	-111
ist	-112
ity	-113
▁with	-114
ong	-115
▁v	-116
ate	-117
▁wh	-118
▁ne	-119
▁at	-120
▁pe	-121
▁has	-122
ive	-123
▁y	-124
em	-125
ay	-126
velop	-127
▁develop	-128
▁su	-129
ies	-130
ations	-131
ain	-132
art	-133
▁an	-134
▁ta	-135
ore	-136
▁will	-137
and	-138
▁this	-139
▁im	-140
▁se	-141
▁un	-142
ers	-143
us	-144
port	-145
▁have	-146
if	-147
▁are	-148
est	-149
▁le	-150
un	-151
▁by	-152
con	-153
▁sa	-154
▁count	-155
▁wor	-156
rom	-157
ess	-158
ant	-159
iz	-160
end	-161
ust	-162
▁peop	-163
pe	-164
▁r	-165
te	-166
ther	-167
▁so	-168
qu	-169
ical	-170
▁people	-171
ary	-172
▁go	-173
ab	-174
iw	-175
ese	-176
▁not	-177
▁part	-178
iwan	-179
▁k	-180
conom	-181
▁taiwan	-182
▁development	-183
ous	-184
ould	-185
gh	-186
ge	-187
▁econom	-188
ational	-189
ap	-190
ie	-191
▁me	-192
▁res	-193
▁rel	-194
od	-195
cial	-196
ear	-197
▁us	-198
▁all	-199
▁1	-200
▁new	-201
▁or	-202
▁comm	-203
▁ad	-204
os	-205
ard	-206
▁:	-207
ff	-208
▁said	-209
ries	-210
▁pol	-211
cc	-212
▁tw	-213
um	-214
ip	-215
ia	-216
▁two	-217
ions	-218
▁chinese	-219
so	-220
▁z	-221
ry	-222
▁ma	-223
▁cont	-224
▁countries	-225
iv	-226
ress	-227
▁ar	-228
ited	-229
ru	-230
▁en	-231
▁also	-232
ance	-233
ure	-234
▁was	-235
▁op	-236
int	-237
ult	-238
▁should	-239
▁from	-240
▁co	-241
ome	-242
▁pl	-243
▁year	-244
▁stat	-245
igh	-246
▁their	-247
tern	-248
▁relations	-249
ian	-250
▁ind	-251
ade	-252
▁exp	-253
ign	-254
▁its	-255
ue	-256
▁comp	-257
▁economic	-258
▁reg	-259
ide	-260
reat	-261
▁ag	-262
▁out	-263
▁fa	-264
▁pr	-265
▁imp	-266
orm	-267
og	-268
ud	-269
ial	-270
ere	-271
king	-272
ction	-273
ke	-274
▁tr	-275
ities	-276
▁united	-277
ments	-278
▁ab	-279
▁one	-280
▁import	-281
ast	-282
vern	-283
▁states	-284
ated	-285
▁up	-286
oper	-287
▁bet	-288
fic	-289
▁can	-290
▁our	-291
▁govern	-292
ence	-293
▁party	-294
ish	-295
oint	-296
ace	-297
ious	-298
▁ent	-299
we	-300
▁man	-301
▁und	-302
form	-303
▁pres	-304
▁cent	-305
ces	-306
ib	-307
ich	-308
all	-309
ks	-310
▁la	-311
rou	-312
▁sin	-313
oc	-314
▁2	-315
▁under	-316
▁inc	-317
am	-318
ween	-319
▁between	-320
pr	-321
▁iss	-322
▁work	-323
el	-324
▁att	-325
ree	-326
▁cooper	-327
du	-328
▁sy	-329
pl	-330
▁sup	-331
ep	-332
▁acc	-333
▁government	-334
▁his	-335
ect	-336
ident	-337
ght	-338
▁lead	-339
▁they	-340
ding	-341
ilit	-342
ire	-343
▁more	-344
▁mo	-345
▁state	-346
▁must	-347
▁over	-348
00	-349
ual	-350
iang	-351
▁main	-352
age	-353
stem	-354
▁system	-355
▁per	-356
▁national	-357
▁mar	-358
▁milit	-359
▁there	-360
ans	-361
▁te	-362
ific	-363
▁str	-364
▁vis	-365
▁intern	-366
▁eff	-367
▁social	-368
▁pre	-369
▁been	-370
▁military	-371
olog	-372
▁rep	-373
▁cooperation	-374
ization	-375
▁dis	-376
▁important	-377
▁act	-378
▁tim	-379
▁qu	-380
▁li	-381
▁sec	-382
▁some	-383
▁world	-384
▁polic	-385
pt	-386
▁which	-387
ition	-388
▁great	-389
▁zh	-390
to	-391
▁af	-392
out	-393
▁bec	-394
▁spe	-395
eng	-396
ine	-397
▁sp	-398
▁am	-399
▁other	-400
ach	-401
▁ri	-402
▁how	-403
ren	-404
▁only	-405
hip	-406
ory	-407
ile	-408
▁fore	-409
▁polit	-410
ll	-411
ens	-412
▁meet	-413
▁but	-414
ub	-415
our	-416
uss	-417
apan	-418
▁cons	-419
ern	-420
▁prom	-421
cent	-422
▁fir	-423
▁international	-424
ms	-425
able	-426
▁country	-427
tain	-428
▁dep	-429
▁war	-430
▁visit	-431
land	-432
▁min	-433
▁jiang	-434
min	-435
▁high	-436
ac	-437
▁ser	-438
▁years	-439
me	-440
ons	-441
▁foreign	-442
act	-443
▁inte	-444
ice	-445
▁gu	-446
ater	-447
▁bas	-448
ative	-449
▁three	-450
ound	-451
ility	-452
lic	-453
ber	-454
▁peace	-455
▁made	-456
ful	-457
ism	-458
▁ro	-459
▁enter	-460
▁japan	-461
ag	-462
pect	-463
▁19	-464
▁cl	-465
▁do	-466
▁president	-467
▁no	-468
▁commit	-469
▁contin	-470
air	-471
ven	-472
▁ap	-473
▁plan	-474
uc	-475
ass	-476
▁law	-477
▁point	-478
▁right	-479
ural	-480
very	-481
▁def	-482
▁meeting	-483
iss	-484
▁time	-485
▁who	-486
ise	-487
au	-488
▁bo	-489
▁fri	-490
▁political	-491
ays	-492
▁inv	-493
▁stren	-494
▁sit	-495
▁were	-496
gth	-497
▁strength	-498
▁prov	-499
ced	-500
old	-501
ose	-502
uring	-503
▁after	-504
▁offic	-505
▁friend	-506
ides	-507
inci	-508
▁org	-509
fere	-510
▁princi	-511
chn	-512
anding	-513
▁promot	-514
▁region	-515
ward	-516
ving	-517
▁first	-518
▁conc	-519
▁techn	-520
are	-521
ense	-522
▁secur	-523
▁enterpr	-524
▁dem	-525
▁leaders	-526
▁committe	-527
ved	-528
ises	-529
▁pos	-530
▁hist	-531
▁support	-532
emin	-533
▁situ	-534
lement	-535
▁bu	-536
▁mark	-537
▁since	-538
▁fin	-539
▁policy	-540
▁long	-541
▁issue	-542
▁pers	-543
lish	-544
und	-545
ury	-546
▁const	-547
▁security	-548
ao	-549
ever	-550
ple	-551
▁ed	-552
reas	-553
▁had	-554
▁var	-555
▁than	-556
▁reform	-557
own	-558
cess	-559
▁car	-560
▁dif	-561
▁mem	-562
▁make	-563
ressed	-564
▁about	-565
ality	-566
▁zemin	-567
▁em	-568
▁again	-569
ble	-570
ision	-571
ight	-572
gress	-573
▁situation	-574
rit	-575
ating	-576
▁effort	-577
▁however	-578
▁x	-579
ral	-580
ening	-581
rough	-582
▁accor	-583
▁trade	-584
ract	-585
▁bus	-586
chang	-587
▁buil	-588
▁these	-589
▁market	-590
rait	-591
ateg	-592
rest	-593
▁au	-594
▁chang	-595
duct	-596
▁good	-597
▁russ	-598
▁them	-599
▁economy	-600
▁ra	-601
▁dec	-602
ublic	-603
▁exchang	-604
ors	-605
ues	-606
chie	-607
▁achie	-608
▁century	-609
▁technolog	-610
ted	-611
ung	-612
ures	-613
▁organ	-614
▁if	-615
▁est	-616
▁both	-617
▁strateg	-618
pc	-619
▁fe	-620
▁fur	-621
▁cult	-622
▁committee	-623
man	-624
ause	-625
▁sci	-626
▁tal	-627
resent	-628
▁central	-629
▁further	-630
ric	-631
▁into	-632
▁many	-633
▁sides	-634
▁through	-635
▁represent	-636
wn	-637
▁educ	-638
▁rights	-639
ification	-640
▁hum	-641
▁maj	-642
▁level	-643
▁enterprises	-644
▁ob	-645
▁adv	-646
▁sino	-647
▁various	-648
▁human	-649
iew	-650
les	-651
ning	-652
▁aff	-653
ution	-654
▁when	-655
▁major	-656
▁developing	-657
urre	-658
▁arm	-659
▁would	-660
▁increas	-661
▁gen	-662
uan	-663
▁ful	-664
ablish	-665
ij	-666
lect	-667
▁cor	-668
▁impro	-669
▁establish	-670
der	-671
ally	-672
ized	-673
ject	-674
▁during	-675
▁interest	-676
--	-677
▁still	-678
▁proble	-679
▁efforts	-680
ss	-681
ope	-682
▁mod	-683
ability	-684
▁fund	-685
▁principle	-686
▁air	-687
▁bel	-688
▁hong	-689
▁such	-690
▁implement	-691
▁i	-692
day	-693
oll	-694
▁ac	-695
▁199	-696
▁defense	-697
lo	-698
one	-699
ross	-700
▁stru	-701
▁gener	-702
▁forces	-703
ak	-704
ijing	-705
▁beijing	-706
ite	-707
arly	-708
▁auth	-709
vers	-710
▁fact	-711
▁pointed	-712
▁q	-713
▁held	-714
▁miss	-715
▁well	-716
ention	-717
▁ide	-718
▁pract	-719
▁depart	-720
oy	-721
bers	-722
▁author	-723
▁person	-724
▁underst	-725
ui	-726
ics	-727
▁pow	-728
▁even	-729
▁reun	-730
urrent	-731
ai	-732
gg	-733
ts	-734
▁zhu	-735
▁form	-736
▁current	-737
rain	-738
▁lar	-739
ost	-740
ible	-741
▁cap	-742
▁last	-743
▁indust	-744
▁invest	-745
▁public	-746
▁according	-747
▁report	-748
ok	-749
▁)	-750
ind	-751
ize	-752
row	-753
▁stud	-754
▁resol	-755
▁become	-756
▁concern	-757
its	-758
sel	-759
fore	-760
▁very	-761
▁cad	-762
epend	-763
▁inter	-764
cy	-765
▁now	-766
▁resp	-767
▁joint	-768
▁inform	-769
▁app	-770
▁real	-771
▁education	-772
▁--	-773
ters	-774
▁any	-775
▁put	-776
▁set	-777
▁you	-778
▁reunification	-779
erv	-780
ively	-781
illion	-782
mental	-783
▁independ	-784
ft	-785
▁(	-786
ack	-787
ied	-788
▁gr	-789
▁ext	-790
▁cond	-791
▁five	-792
▁issues	-793
▁members	-794
▁interests	-795
atic	-796
▁hand	-797
itions	-798
▁modern	-799
▁against	-800
ina	-801
ship	-802
▁ter	-803
▁dire	-804
▁being	-805
▁exper	-806
▁may	-807
▁rem	-808
▁use	-809
▁prop	-810
▁view	-811
▁commun	-812
▁russia	-813
▁maintain	-814
▁?	-815
▁requ	-816
▁cross	-817
▁today	-818
▁recent	-819
▁result	-820
ccess	-821
▁bush	-822
▁inst	-823
▁force	-824
▁success	-825
lud	-826
ret	-827
ways	-828
▁fal	-829
ually	-830
▁kong	-831
▁order	-832
▁strengthen	-833
▁building	-834
ked	-835
led	-836
cept	-837
▁disc	-838
▁;	-839
istr	-840
▁most	-841
ilater	-842
▁activ	-843
▁admin	-844
▁belie	-845
▁large	-846
▁stand	-847
▁present	-848
▁information	-849
ount	-850
▁oper	-851
▁side	-852
▁finan	-853
▁minis	-854
▁cadres	-855
ute	-856
cing	-857
ough	-858
▁fut	-859
▁see	-860
▁partic	-861
▁5	-862
ings	-863
▁sub	-864
▁grow	-865
▁what	-866
strait	-867
ph	-868
ves	-869
▁sign	-870
▁always	-871
▁effect	-872
▁improve	-873
▁financial	-874
▁stability	-875
▁independence	-876
▁ins	-877
▁pri	-878
feren	-879
▁future	-880
▁percent	-881
cil	-882
ict	-883
rib	-884
▁ke	-885
▁sm	-886
ield	-887
▁art	-888
▁end	-889
▁past	-890
ilateral	-891
▁achieve	-892
▁administr	-893
▁authorities	-894
ety	-895
ered	-896
iron	-897
▁own	-898
china	-899
▁coun	-900
estern	-901
▁areas	-902
▁common	-903
▁regard	-904
▁history	-905
▁mainland	-906
he	-907
▁[	-908
▁]	-909
▁leg	-910
ollow	-911
▁grou	-912
▁meas	-913
ungong	-914
▁while	-915
▁affair	-916
▁follow	-917
▁continue	-918
▁friendly	-919
▁official	-920
▁expressed	-921
ron	-922
▁quest	-923
▁falungong	-924
▁rev	-925
▁respons	-926
▁western	-927
ier	-928
lev	-929
red	-930
▁env	-931
▁num	-932
▁strategic	-933
▁10	-934
▁hu	-935
▁cer	-936
▁equ	-937
▁play	-938
▁direct	-939
▁strong	-940
▁importance	-941
pp	-942
leg	-943
▁chair	-944
▁because	-945
ov	-946
ath	-947
irc	-948
ned	-949
▁kn	-950
▁lo	-951
ists	-952
▁conf	-953
▁role	-954
▁same	-955
▁prote	-956
▁includ	-957
▁necess	-958
▁activities	-959
par	-960
ling	-961
▁cpc	-962
▁deep	-963
▁carry	-964
▁power	-965
▁talks	-966
ological	-967
▁affairs	-968
▁environ	-969
▁problems	-970
▁sc	-971
▁pur	-972
▁conditions	-973
ech	-974
▁med	-975
▁nat	-976
▁tas	-977
▁funda	-978
av	-979
▁3	-980
mit	-981
▁far	-982
▁mother	-983
▁technology	-984
gr	-985
ji	-986
ase	-987
ene	-988
outh	-989
▁int	-990
▁circ	-991
▁democ	-992
▁trans	-993
▁require	-994
▁bilateral	-995
▁4	-996
iod	-997
▁him	-998
▁char	-999
▁down	-1000
▁comple	-1001
▁histor	-1002
▁manage	-1003
▁period	-1004
▁certain	-1005
▁continu	-1006
▁minister	-1007
▁progress	-1008
▁friendship	-1009
ided	-1010
▁ass	-1011
▁loc	-1012
▁mat	-1013
▁opp	-1014
▁need	-1015
ame	-1016
▁ann	-1017
▁way	-1018
▁cour	-1019
▁just	-1020
▁contro	-1021
▁toward	-1022
▁serious	-1023
▁chairman	-1024
000	-1025
▁jo	-1026
▁exchanges	-1027
▁necessary	-1028
zh	-1029
▁mut	-1030
ession	-1031
▁speech	-1032
▁respect	-1033
▁fundamental	-1034
ady	-1035
cond	-1036
ibet	-1037
osed	-1038
▁exer	-1039
ficult	-1040
▁found	-1041
▁constru	-1042
▁difficult	-1043
▁represents	-1044
▁br	-1045
▁ant	-1046
▁des	-1047
▁sum	-1048
▁wto	-1049
▁show	-1050
▁study	-1051
▁tibet	-1052
▁nation	-1053
▁promote	-1054
▁measures	-1055
▁departments	-1056
sp	-1057
com	-1058
▁ev	-1059
ives	-1060
▁every	-1061
▁field	-1062
▁group	-1063
▁means	-1064
▁provin	-1065
▁scient	-1066
▁superv	-1067
▁socialist	-1068
ds	-1069
arch	-1070
year	-1071
▁add	-1072
▁tur	-1073
▁basic	-1074
▁produ	-1075
▁product	-1076
▁systems	-1077
bal	-1078
nel	-1079
lear	-1080
ting	-1081
▁col	-1082
▁inf	-1083
▁ref	-1084
ivers	-1085
ongji	-1086
▁adop	-1087
▁asia	-1088
▁thin	-1089
▁regul	-1090
▁growth	-1091
▁rongji	-1092
▁peaceful	-1093
▁management	-1094
▁motherland	-1095
▁beg	-1096
▁glo	-1097
▁hel	-1098
▁take	-1099
▁global	-1100
▁making	-1101
▁conduct	-1102
▁practice	-1103
gu	-1104
not	-1105
prk	-1106
▁open	-1107
▁weap	-1108
ferent	-1109
ference	-1110
▁secret	-1111
▁special	-1112
▁promoting	-1113
ploy	-1114
▁lin	-1115
▁tre	-1116
▁forward	-1117
als	-1118
irit	-1119
▁artic	-1120
▁spirit	-1121
ck	-1122
ots	-1123
ital	-1124
▁nor	-1125
▁sch	-1126
▁wang	-1127
▁repor	-1128
▁train	-1129
▁quality	-1130
▁scientific	-1131
ily	-1132
▁saf	-1133
itive	-1134
▁army	-1135
▁back	-1136
▁bene	-1137
portun	-1138
▁control	-1139
▁opportun	-1140
▁understanding	-1141
ien	-1142
lom	-1143
▁ban	-1144
▁chen	-1145
▁help	-1146
▁mass	-1147
▁soci	-1148
levant	-1149
ources	-1150
▁treat	-1151
▁second	-1152
▁missile	-1153
▁project	-1154
▁relevant	-1155
▁ir	-1156
▁ur	-1157
vere	-1158
▁sur	-1159
▁dprk	-1160
▁prem	-1161
▁agree	-1162
▁could	-1163
▁cannot	-1164
▁number	-1165
▁general	-1166
▁opening	-1167
▁society	-1168
▁investment	-1169
▁modernization	-1170
get	-1171
ates	-1172
▁dra	-1173
▁rec	-1174
▁whe	-1175
iplom	-1176
▁peng	-1177
▁reas	-1178
▁ties	-1179
▁yuan	-1180
▁local	-1181
▁those	-1182
▁times	-1183
▁levels	-1184
▁discuss	-1185
▁organiz	-1186
▁question	-1187
▁stressed	-1188
▁environment	-1189
wor	-1190
eric	-1191
ering	-1192
▁each	-1193
▁hard	-1194
▁know	-1195
▁exerc	-1196
▁fully	-1197
▁south	-1198
▁diplom	-1199
▁struct	-1200
▁attention	-1201
▁bl	-1202
just	-1203
▁ele	-1204
▁mon	-1205
▁hold	-1206
▁basis	-1207
▁mutual	-1208
▁council	-1209
uty	-1210
▁20	-1211
▁hop	-1212
ached	-1213
aking	-1214
▁four	-1215
▁kore	-1216
▁prof	-1217
▁serv	-1218
▁among	-1219
▁compet	-1220
▁process	-1221
▁policies	-1222
▁supervision	-1223
ife	-1224
ried	-1225
▁enh	-1226
▁neg	-1227
anced	-1228
▁views	-1229
▁strugg	-1230
▁japanese	-1231
▁developed	-1232
▁construction	-1233
▁ph	-1234
iven	-1235
▁inn	-1236
▁xin	-1237
ately	-1238
ricult	-1239
▁start	-1240
▁americ	-1241
▁billion	-1242
▁whether	-1243
▁agricult	-1244
▁secretary	-1245
▁vi	-1246
ents	-1247
iness	-1248
other	-1249
▁come	-1250
▁rese	-1251
▁never	-1252
▁article	-1253
▁increase	-1254
▁regional	-1255
▁different	-1256
▁historical	-1257
ants	-1258
▁dom	-1259
ously	-1260
ically	-1261
▁attend	-1262
▁office	-1263
▁another	-1264
▁science	-1265
▁personnel	-1266
▁leadership	-1267
▁ideological	-1268
xt	-1269
ale	-1270
men	-1271
unch	-1272
▁pay	-1273
▁tot	-1274
▁corre	-1275
▁training	-1276
▁following	-1277
▁including	-1278
▁administration	-1279
ular	-1280
▁cri	-1281
▁key	-1282
▁sol	-1283
istics	-1284
▁strait	-1285
▁weapons	-1286
ell	-1287
med	-1288
ivil	-1289
self	-1290
▁eng	-1291
▁ens	-1292
▁npc	-1293
alled	-1294
▁civil	-1295
▁change	-1296
pa	-1297
hai	-1298
reh	-1299
cific	-1300
urope	-1301
▁poss	-1302
ensive	-1303
▁legal	-1304
▁integr	-1305
▁leading	-1306
▁exchange	-1307
ged	-1308
▁fl	-1309
▁her	-1310
▁say	-1311
acter	-1312
▁dist	-1313
▁rest	-1314
utions	-1315
▁cause	-1316
▁deleg	-1317
▁exist	-1318
▁water	-1319
▁before	-1320
▁results	-1321
▁resources	-1322
▁therefore	-1323
hu	-1324
ness	-1325
ront	-1326
▁anti	-1327
▁dial	-1328
▁emph	-1329
▁hope	-1330
▁kind	-1331
▁indic	-1332
▁demand	-1333
▁sovere	-1334
▁compreh	-1335
▁correct	-1336
▁premier	-1337
▁congress	-1338
▁incident	-1339
▁concerned	-1340
ying	-1341
▁big	-1342
▁day	-1343
▁rap	-1344
▁alth	-1345
▁does	-1346
▁territ	-1347
▁without	-1348
▁although	-1349
▁industry	-1350
▁character	-1351
▁responsib	-1352
ird	-1353
▁po	-1354
▁comb	-1355
▁comr	-1356
▁like	-1357
▁opin	-1358
▁close	-1359
▁rapid	-1360
▁compan	-1361
▁fields	-1362
▁theory	-1363
▁particip	-1364
▁positive	-1365
▁research	-1366
▁conference	-1367
ty	-1368
rupt	-1369
▁jud	-1370
iding	-1371
▁arms	-1372
▁along	-1373
▁appro	-1374
▁innov	-1375
▁space	-1376
▁whole	-1377
▁nations	-1378
▁overall	-1379
▁complete	-1380
▁cultural	-1381
▁struggle	-1382
▁achievements	-1383
▁organizations	-1384
arm	-1385
ord	-1386
▁es	-1387
ared	-1388
rial	-1389
thod	-1390
▁did	-1391
▁occ	-1392
▁ret	-1393
▁xia	-1394
ained	-1395
thing	-1396
▁news	-1397
▁safe	-1398
▁stri	-1399
▁third	-1400
▁course	-1401
▁democr	-1402
▁changes	-1403
▁strategy	-1404
ush	-1405
▁lee	-1406
▁mor	-1407
▁par	-1408
ently	-1409
▁full	-1410
▁trad	-1411
▁wish	-1412
▁launch	-1413
▁leader	-1414
▁method	-1415
▁problem	-1416
▁business	-1417
▁position	-1418
▁signific	-1419
▁diplomatic	-1420
▁technological	-1421
lf	-1422
su	-1423
▁6	-1424
nty	-1425
ove	-1426
uch	-1427
reme	-1428
road	-1429
used	-1430
▁cre	-1431
▁mid	-1432
▁tax	-1433
▁tru	-1434
ignty	-1435
pects	-1436
ready	-1437
round	-1438
▁lear	-1439
▁prev	-1440
selves	-1441
▁india	-1442
▁trend	-1443
▁dialog	-1444
▁europe	-1445
▁instit	-1446
▁matter	-1447
▁proper	-1448
▁reason	-1449
▁already	-1450
▁capital	-1451
▁sovereignty	-1452
ix	-1453
md	-1454
ior	-1455
▁off	-1456
▁pat	-1457
ising	-1458
▁city	-1459
▁deal	-1460
▁head	-1461
▁marx	-1462
▁press	-1463
▁contact	-1464
▁protect	-1465
▁established	-1466
hui	-1467
ken	-1468
▁pa	-1469
ages	-1470
alth	-1471
ceed	-1472
▁val	-1473
erity	-1474
estic	-1475
guard	-1476
izing	-1477
▁join	-1478
▁shui	-1479
▁media	-1480
▁rural	-1481
▁total	-1482
▁units	-1483
▁advanced	-1484
▁thinking	-1485
▁safeguard	-1486
▁successful	-1487
▁understand	-1488
ee	-1489
ner	-1490
bian	-1491
ices	-1492
▁200	-1493
▁jun	-1494
▁vig	-1495
▁wel	-1496
inton	-1497
▁life	-1498
▁bring	-1499
▁creat	-1500
▁north	-1501
▁action	-1502
▁emphas	-1503
▁impact	-1504
▁clinton	-1505
▁russian	-1506
▁willing	-1507
▁effective	-1508
▁increasing	-1509
▁strengthening	-1510
hua	-1511
,000	-1512
ised	-1513
itud	-1514
▁sal	-1515
utely	-1516
▁crit	-1517
▁infl	-1518
▁self	-1519
▁task	-1520
anghai	-1521
▁equip	-1522
▁masses	-1523
▁member	-1524
▁contrib	-1525
▁univers	-1526
▁constant	-1527
▁domestic	-1528
▁shanghai	-1529
▁officials	-1530
term	-1531
▁ago	-1532
▁pop	-1533
▁move	-1534
▁step	-1535
▁accom	-1536
▁allow	-1537
▁benef	-1538
▁things	-1539
▁believe	-1540
▁reached	-1541
▁organization	-1542
aly	-1543
erg	-1544
atis	-1545
▁nmd	-1546
▁pal	-1547
▁tra	-1548
▁exam	-1549
▁expl	-1550
▁firm	-1551
▁vice	-1552
olding	-1553
▁armed	-1554
▁zhang	-1555
▁summit	-1556
▁decision	-1557
▁standard	-1558
▁standing	-1559
▁foundation	-1560
▁operations	-1561
▁21	-1562
ider	-1563
▁met	-1564
▁net	-1565
atisf	-1566
jiang	-1567
ctions	-1568
▁chall	-1569
▁elect	-1570
ination	-1571
ulation	-1572
▁adopted	-1573
▁agreement	-1574
▁delegation	-1575
ail	-1576
oun	-1577
▁cam	-1578
▁del	-1579
▁fam	-1580
istic	-1581
▁land	-1582
▁line	-1583
▁your	-1584
ission	-1585
▁asian	-1586
▁small	-1587
▁trust	-1588
▁ensure	-1589
▁stress	-1590
▁circles	-1591
▁visited	-1592
▁election	-1593
▁reporter	-1594
▁democratic	-1595
▁industrial	-1596
ng	-1597
wh	-1598
alf	-1599
ave	-1600
gra	-1601
▁ear	-1602
itude	-1603
ledge	-1604
ought	-1605
▁fail	-1606
▁early	-1607
▁influ	-1608
▁separ	-1609
▁shall	-1610
▁where	-1611
▁carried	-1612
▁command	-1613
▁addition	-1614
▁exercise	-1615
▁structure	-1616
▁cooperative	-1617
▁agricultural	-1618
ins	-1619
pic	-1620
por	-1621
▁ca	-1622
chan	-1623
▁cle	-1624
▁mac	-1625
▁uph	-1626
ified	-1627
iving	-1628
▁1999	-1629
▁decl	-1630
▁give	-1631
▁issu	-1632
▁read	-1633
▁given	-1634
▁remar	-1635
▁young	-1636
▁entire	-1637
▁mechan	-1638
▁minist	-1639
▁object	-1640
▁million	-1641
▁session	-1642
▁regulations	-1643
▁implementation	-1644
sh	-1645
dle	-1646
ool	-1647
▁ju	-1648
ping	-1649
ples	-1650
▁fre	-1651
▁old	-1652
orial	-1653
▁able	-1654
▁east	-1655
▁laws	-1656
▁norm	-1657
▁sect	-1658
▁soon	-1659
▁viol	-1660
▁west	-1661
▁build	-1662
▁prosp	-1663
▁better	-1664
▁export	-1665
▁higher	-1666
▁taking	-1667
▁treaty	-1668
▁account	-1669
▁peoples	-1670
▁working	-1671
▁dialogue	-1672
▁possible	-1673
▁equipment	-1674
▁tradition	-1675
▁department	-1676
▁protection	-1677
▁themselves	-1678
▁requirements	-1679
▁establishment	-1680
▁responsibility	-1681
way	-1682
▁my	-1683
rael	-1684
work	-1685
▁abs	-1686
▁cas	-1687
▁let	-1688
▁low	-1689
▁ori	-1690
▁wei	-1691
▁grad	-1692
▁here	-1693
▁once	-1694
▁qian	-1695
▁teng	-1696
▁want	-1697
uclear	-1698
▁asked	-1699
▁facts	-1700
▁oppos	-1701
▁plane	-1702
▁relig	-1703
▁tasks	-1704
▁expand	-1705
▁experi	-1706
▁nature	-1707
▁express	-1708
▁achieved	-1709
▁significance	-1710
▁characteristics	-1711
ef	-1712
sc	-1713
ick	-1714
ium	-1715
ange	-1716
ouse	-1717
▁adh	-1718
▁eth	-1719
▁mom	-1720
▁sim	-1721
arant	-1722
istan	-1723
veral	-1724
▁then	-1725
▁thus	-1726
▁begin	-1727
▁retur	-1728
▁short	-1729
▁stage	-1730
olution	-1731
▁organs	-1732
▁palest	-1733
▁enhance	-1734
▁nuclear	-1735
▁several	-1736
▁ministry	-1737
▁socialism	-1738
▁production	-1739
▁relationship	-1740
▁globalization	-1741
▁8	-1742
bod	-1743
▁er	-1744
▁lu	-1745
aged	-1746
▁enc	-1747
▁few	-1748
▁sen	-1749
▁she	-1750
▁spl	-1751
ather	-1752
owned	-1753
▁espe	-1754
▁face	-1755
▁feel	-1756
▁pass	-1757
▁peas	-1758
▁turn	-1759
cially	-1760
ending	-1761
▁forum	-1762
▁invol	-1763
▁deputy	-1764
▁moment	-1765
▁guarant	-1766
▁parties	-1767
▁provide	-1768
▁recently	-1769
▁especially	-1770
▁responsible	-1771
▁opportunities	-1772
mar	-1773
ops	-1774
▁50	-1775
▁cr	-1776
empt	-1777
ines	-1778
less	-1779
line	-1780
raft	-1781
▁aut	-1782
▁half	-1783
▁init	-1784
▁july	-1785
▁mean	-1786
▁redu	-1787
▁repe	-1788
▁test	-1789
erated	-1790
▁speed	-1791
▁taken	-1792
▁accept	-1793
▁accord	-1794
▁attach	-1795
▁commer	-1796
▁crimin	-1797
▁expect	-1798
▁middle	-1799
▁prepar	-1800
▁propag	-1801
▁series	-1802
▁threat	-1803
▁within	-1804
▁constit	-1805
▁extreme	-1806
▁reports	-1807
▁consider	-1808
▁revolution	-1809
▁competition	-1810
ec	-1811
▁$	-1812
att	-1813
ief	-1814
ood	-1815
oss	-1816
str	-1817
ened	-1818
ighb	-1819
iles	-1820
▁dri	-1821
▁fav	-1822
▁foc	-1823
▁gra	-1824
▁pen	-1825
▁tro	-1826
ances	-1827
ensus	-1828
uties	-1829
▁brit	-1830
▁place	-1831
atively	-1832
▁korean	-1833
▁progra	-1834
▁propos	-1835
justment	-1836
▁culture	-1837
▁greater	-1838
▁realize	-1839
▁contacts	-1840
▁indicated	-1841
▁influence	-1842
▁innovation	-1843
aq	-1844
sw	-1845
xi	-1846
for	-1847
joy	-1848
ten	-1849
head	-1850
medi	-1851
racy	-1852
ruct	-1853
▁bri	-1854
▁rok	-1855
ended	-1856
▁conv	-1857
▁used	-1858
atives	-1859
ential	-1860
iously	-1861
▁analy	-1862
▁clear	-1863
▁guang	-1864
▁vigor	-1865
▁health	-1866
▁school	-1867
▁stable	-1868
▁status	-1869
▁carrying	-1870
▁products	-1871
▁province	-1872
▁consensus	-1873
▁knowledge	-1874
▁governments	-1875
▁administrative	-1876
▁7	-1877
▁9	-1878
avy	-1879
emy	-1880
oti	-1881
▁el	-1882
ades	-1883
come	-1884
ency	-1885
over	-1886
▁bor	-1887
▁bre	-1888
▁nin	-1889
▁rul	-1890
erous	-1891
ished	-1892
▁2000	-1893
▁days	-1894
▁dest	-1895
▁iraq	-1896
▁much	-1897
▁sett	-1898
▁suff	-1899
rought	-1900
▁deter	-1901
▁enjoy	-1902
▁facing	-1903
▁groups	-1904
▁issued	-1905
▁negoti	-1906
▁comrade	-1907
▁marxism	-1908
▁attitude	-1909
▁repeated	-1910
▁commission	-1911
▁enterprise	-1912
ne	-1913
oo	-1914
ime	-1915
nic	-1916
ogn	-1917
▁fu	-1918
▁sl	-1919
▁wu	-1920
ably	-1921
▁cpp	-1922
▁eas	-1923
▁ess	-1924
▁urg	-1925
scale	-1926
▁arri	-1927
▁left	-1928
▁push	-1929
▁tang	-1930
▁favor	-1931
▁hopes	-1932
▁prime	-1933
▁split	-1934
▁affect	-1935
▁create	-1936
▁deploy	-1937
▁recogn	-1938
▁remain	-1939
▁satisf	-1940
▁clearly	-1941
▁collect	-1942
▁methods	-1943
▁regions	-1944
▁profound	-1945
▁democracy	-1946
▁territory	-1947
▁constantly	-1948
▁prosperity	-1949
▁comprehensive	-1950
up	-1951
ock	-1952
▁15	-1953
▁av	-1954
anda	-1955
ased	-1956
ored	-1957
▁beh	-1958
▁bud	-1959
▁cru	-1960
▁get	-1961
▁jia	-1962
craft	-1963
ences	-1964
▁disp	-1965
▁june	-1966
▁paid	-1967
▁post	-1968
▁toge	-1969
▁took	-1970
▁cppcc	-1971
▁fight	-1972
▁funds	-1973
▁links	-1974
▁march	-1975
▁ninth	-1976
▁noted	-1977
▁putin	-1978
▁unity	-1979
itation	-1980
▁combat	-1981
▁ethnic	-1982
▁formul	-1983
▁israel	-1984
▁normal	-1985
▁xinhua	-1986
▁attempt	-1987
▁workers	-1988
▁handling	-1989
▁experience	-1990
▁opportunity	-1991
▁ru	-1992
aper	-1993
omen	-1994
qing	-1995
unic	-1996
▁obs	-1997
▁tri	-1998
▁win	-1999
cient	-2000
ichen	-2001
ology	-2002
riots	-2003
tical	-2004
▁appe	-2005
▁cold	-2006
▁core	-2007
▁less	-2008
▁mult	-2009
▁next	-2010
idence	-2011
▁broad	-2012
▁mater	-2013
▁recon	-2014
▁center	-2015
▁compat	-2016
▁intens	-2017
▁island	-2018
▁mainly	-2019
▁qichen	-2020
▁material	-2021
▁together	-2022
▁extremely	-2023
▁improvement	-2024
▁contributions	-2025
acy	-2026
ban	-2027
iqu	-2028
kes	-2029
nam	-2030
atch	-2031
iber	-2032
▁job	-2033
▁non	-2034
▁ste	-2035
▁tar	-2036
onstr	-2037
▁care	-2038
▁case	-2039
▁goal	-2040
▁happ	-2041
▁rece	-2042
▁sent	-2043
▁town	-2044
▁upon	-2045
called	-2046
▁above	-2047
▁guide	-2048
▁needs	-2049
▁pursu	-2050
▁sales	-2051
ruption	-2052
▁assist	-2053
▁fourth	-2054
▁immedi	-2055
▁interv	-2056
▁itself	-2057
▁played	-2058
▁points	-2059
▁strict	-2060
▁troops	-2061
▁accompl	-2062
▁company	-2063
▁experts	-2064
▁learned	-2065
▁aircraft	-2066
▁demonstr	-2067
▁missiles	-2068
▁provided	-2069
▁republic	-2070
▁continued	-2071
▁capability	-2072
▁committees	-2073
▁principles	-2074
▁propaganda	-2075
▁provincial	-2076
▁compatriots	-2077
▁maintaining	-2078
zhi	-2079
▁ty	-2080
▁yu	-2081
comm	-2082
seas	-2083
wing	-2084
▁apr	-2085
▁div	-2086
▁oct	-2087
▁sea	-2088
▁sha	-2089
aring	-2090
intao	-2091
level	-2092
oring	-2093
thers	-2094
▁call	-2095
▁based	-2096
▁cases	-2097
▁doing	-2098
▁month	-2099
▁critic	-2100
▁jintao	-2101
▁concept	-2102
▁factors	-2103
▁opinion	-2104
▁service	-2105
▁thought	-2106
▁american	-2107
▁experien	-2108
▁officers	-2109
▁overseas	-2110
▁projects	-2111
▁community	-2112
▁accordance	-2113
▁maintained	-2114
▁relatively	-2115
na	-2116
ild	-2117
oub	-2118
▁fr	-2119
fect	-2120
ging	-2121
ners	-2122
rely	-2123
side	-2124
tech	-2125
▁100	-2126
▁bur	-2127
▁cra	-2128
▁fun	-2129
▁gre	-2130
▁lab	-2131
▁lim	-2132
▁ren	-2133
▁why	-2134
oming	-2135
▁coll	-2136
▁fall	-2137
▁parl	-2138
▁pros	-2139
▁warm	-2140
action	-2141
isions	-2142
▁front	-2143
▁grain	-2144
▁house	-2145
▁plans	-2146
▁sense	-2147
▁words	-2148
igation	-2149
▁amount	-2150
▁announ	-2151
▁counter	-2152
▁jointly	-2153
▁program	-2154
▁actively	-2155
▁challeng	-2156
▁improving	-2157
▁religious	-2158
▁reporters	-2159
▁generation	-2160
▁resolutely	-2161
▁implementing	-2162
▁negotiations	-2163
aff	-2164
ats	-2165
gem	-2166
ula	-2167
cipl	-2168
ison	-2169
mber	-2170
▁aug	-2171
▁feb	-2172
▁mob	-2173
▁run	-2174
gemon	-2175
lying	-2176
▁answ	-2177
▁area	-2178
▁batt	-2179
▁ever	-2180
▁host	-2181
▁keep	-2182
▁absol	-2183
▁advoc	-2184
▁afric	-2185
▁chief	-2186
▁actual	-2187
▁budget	-2188
▁cities	-2189
▁firmly	-2190
▁neighb	-2191
▁parlia	-2192
▁welcom	-2193
▁hegemon	-2194
▁criminal	-2195
▁majority	-2196
▁peasants	-2197
▁communist	-2198
▁guarantee	-2199
▁increased	-2200
▁mechanism	-2201
▁representatives	-2202
ex	-2203
cel	-2204
den	-2205
mon	-2206
ped	-2207
ton	-2208
▁dr	-2209
ient	-2210
oura	-2211
read	-2212
▁bal	-2213
▁cho	-2214
▁den	-2215
▁ger	-2216
▁hon	-2217
fully	-2218
ggest	-2219
range	-2220
▁acad	-2221
▁appl	-2222
▁laid	-2223
▁look	-2224
▁sing	-2225
ancing	-2226
▁contr	-2227
▁grass	-2228
▁macao	-2229
pacific	-2230
pection	-2231
▁advant	-2232
▁rather	-2233
ensively	-2234
standing	-2235
▁brought	-2236
▁consult	-2237
▁network	-2238
▁perform	-2239
▁reflect	-2240
▁related	-2241
▁started	-2242
▁suggest	-2243
▁european	-2244
▁internet	-2245
▁beginning	-2246
▁objective	-2247
▁operation	-2248
▁questions	-2249
▁emphasized	-2250
iy	-2251
ash	-2252
gin	-2253
ify	-2254
lus	-2255
oon	-2256
ume	-2257
vey	-2258
▁ce	-2259
▁ge	-2260
ator	-2261
fill	-2262
ober	-2263
ooth	-2264
utes	-2265
▁dev	-2266
▁due	-2267
▁fig	-2268
▁ple	-2269
oping	-2270
while	-2271
▁bure	-2272
▁deng	-2273
▁fair	-2274
▁prot	-2275
▁purp	-2276
▁stip	-2277
ground	-2278
insula	-2279
ublish	-2280
▁accel	-2281
▁ahead	-2282
▁coord	-2283
▁event	-2284
▁hoped	-2285
▁korea	-2286
▁raise	-2287
▁share	-2288
▁shows	-2289
▁called	-2290
▁compon	-2291
▁employ	-2292
▁highly	-2293
▁smooth	-2294
▁stance	-2295
▁consist	-2296
▁greatly	-2297
▁october	-2298
▁outside	-2299
▁station	-2300
▁internal	-2301
▁currently	-2302
▁expanding	-2303
▁peninsula	-2304
▁challenges	-2305
▁commercial	-2306
▁localities	-2307
▁effectively	-2308
▁traditional	-2309
▁constitution	-2310
▁difficulties	-2311
go	-2312
ars	-2313
▁sw	-2314
cell	-2315
ians	-2316
imin	-2317
ived	-2318
▁six	-2319
▁sty	-2320
aging	-2321
iting	-2322
ority	-2323
▁asse	-2324
▁fine	-2325
▁harm	-2326
▁name	-2327
▁reit	-2328
▁seek	-2329
▁stop	-2330
▁text	-2331
ularly	-2332
▁april	-2333
▁brief	-2334
▁entry	-2335
▁going	-2336
▁initi	-2337
▁urban	-2338
akistan	-2339
ication	-2340
ilities	-2341
▁consum	-2342
▁others	-2343
▁saying	-2344
▁theore	-2345
▁decided	-2346
▁fulfill	-2347
▁holding	-2348
▁hongzhi	-2349
▁natural	-2350
▁publish	-2351
▁remarks	-2352
▁confront	-2353
▁deputies	-2354
▁determin	-2355
▁gradually	-2356
▁integrity	-2357
▁meanwhile	-2358
ev	-2359
wa	-2360
lym	-2361
pal	-2362
roy	-2363
▁16	-2364
▁40	-2365
gest	-2366
ined	-2367
most	-2368
zhou	-2369
▁bid	-2370
▁loo	-2371
▁mot	-2372
▁wen	-2373
▁yet	-2374
ented	-2375
ource	-2376
paign	-2377
roots	-2378
▁agre	-2379
▁olym	-2380
▁priv	-2381
▁rate	-2382
▁repl	-2383
▁rich	-2384
▁road	-2385
▁tele	-2386
▁thor	-2387
▁wars	-2388
▁went	-2389
▁zhao	-2390
▁adopt	-2391
▁began	-2392
▁class	-2393
▁energ	-2394
▁staff	-2395
▁using	-2396
▁adhere	-2397
▁caused	-2398
▁comput	-2399
▁excell	-2400
▁having	-2401
▁living	-2402
▁origin	-2403
▁stated	-2404
▁target	-2405
▁uphold	-2406
ferences	-2407
▁advance	-2408
▁aggress	-2409
▁benefit	-2410
▁created	-2411
▁healthy	-2412
▁reality	-2413
▁campaign	-2414
▁opinions	-2415
▁pakistan	-2416
▁services	-2417
▁visiting	-2418
▁xinjiang	-2419
▁companies	-2420
▁practical	-2421
▁regarding	-2422
▁inspection	-2423
▁productive	-2424
▁repeatedly	-2425
▁immediately	-2426
▁theoretical	-2427
▁continuously	-2428
▁particularly	-2429
▁safeguarding	-2430
aim	-2431
iet	-2432
ond	-2433
pir	-2434
▁eu	-2435
▁ey	-2436
▁km	-2437
bass	-2438
erve	-2439
isis	-2440
rict	-2441
wide	-2442
▁cub	-2443
▁deb	-2444
▁ord	-2445
▁ris	-2446
ament	-2447
aster	-2448
ators	-2449
ember	-2450
icial	-2451
japan	-2452
▁duty	-2453
▁farm	-2454
▁jian	-2455
▁prec	-2456
▁sold	-2457
▁spok	-2458
▁vict	-2459
▁break	-2460
▁draft	-2461
▁enemy	-2462
▁kinds	-2463
▁paper	-2464
▁terms	-2465
▁think	-2466
▁white	-2467
▁attack	-2468
▁august	-2469
▁circum	-2470
▁crisis	-2471
▁energy	-2472
▁stipul	-2473
▁undert	-2474
▁ability	-2475
▁changed	-2476
▁discipl	-2477
▁morning	-2478
▁popular	-2479
▁purpose	-2480
▁rapidly	-2481
▁reforms	-2482
▁resolve	-2483
▁sectors	-2484
▁subject	-2485
▁actually	-2486
▁attended	-2487
▁becoming	-2488
▁expected	-2489
▁moreover	-2490
▁partners	-2491
▁stresses	-2492
▁certainly	-2493
▁prospects	-2494
▁seriously	-2495
▁technical	-2496
▁accomplish	-2497
▁completely	-2498
▁particular	-2499
▁structural	-2500
▁increasingly	-2501
▁preparations	-2502
eed	-2503
ges	-2504
isc	-2505
▁ut	-2506
▁wa	-2507
eder	-2508
ired	-2509
ivid	-2510
olid	-2511
uted	-2512
▁198	-2513
▁ang	-2514
▁deg	-2515
▁fra	-2516
▁lan	-2517
▁pot	-2518
▁san	-2519
▁top	-2520
ories	-2521
ruary	-2522
▁came	-2523
▁late	-2524
▁pred	-2525
▁shen	-2526
▁tour	-2527
▁trem	-2528
aching	-2529
ficial	-2530
ifying	-2531
▁added	-2532
▁effic	-2533
▁frequ	-2534
▁grand	-2535
▁labor	-2536
▁quite	-2537
▁sound	-2538
ciation	-2539
iveness	-2540
▁agreed	-2541
▁around	-2542
▁powell	-2543
▁select	-2544
▁aspects	-2545
▁closely	-2546
▁himself	-2547
▁proceed	-2548
▁elements	-2549
▁february	-2550
▁politics	-2551
▁properly	-2552
▁studying	-2553
▁thorough	-2554
▁xiaoping	-2555
▁accession	-2556
▁standards	-2557
▁conducting	-2558
▁discussion	-2559
▁invitation	-2560
▁university	-2561
▁continually	-2562
▁implemented	-2563
▁outstanding	-2564
▁comprehensively	-2565
uf	-2566
oke	-2567
▁18	-2568
cies	-2569
ests	-2570
xuan	-2571
▁ara	-2572
▁guo	-2573
▁har	-2574
▁jin	-2575
▁obv	-2576
▁pla	-2577
▁prc	-2578
▁too	-2579
atory	-2580
centr	-2581
iency	-2582
point	-2583
▁asso	-2584
▁best	-2585
▁exec	-2586
▁find	-2587
▁idea	-2588
▁nato	-2589
▁qing	-2590
▁rule	-2591
▁says	-2592
▁seen	-2593
▁court	-2594
▁eight	-2595
▁facil	-2596
▁later	-2597
▁rules	-2598
▁border	-2599
▁design	-2600
▁german	-2601
▁nearly	-2602
▁planes	-2603
▁proced	-2604
▁really	-2605
▁signed	-2606
▁spokes	-2607
▁thanks	-2608
▁arrange	-2609
▁tremend	-2610
▁concentr	-2611
▁historic	-2612
▁negative	-2613
▁palestin	-2614
▁strictly	-2615
▁conducted	-2616
▁spiritual	-2617
▁transform	-2618
▁corruption	-2619
▁facilities	-2620
▁industries	-2621
▁opposition	-2622
▁reiterated	-2623
▁resolution	-2624
▁vigorously	-2625
▁agriculture	-2626
▁differences	-2627
▁educational	-2628
▁requirement	-2629
▁territorial	-2630
▁strengthened	-2631
▁confrontation	-2632
.2	-2633
by	-2634
mb	-2635
▁!	-2636
ger	-2637
hib	-2638
▁12	-2639
▁30	-2640
aled	-2641
kind	-2642
onom	-2643
opri	-2644
ured	-2645
▁bar	-2646
▁bra	-2647
▁lat	-2648
▁led	-2649
▁pun	-2650
▁ran	-2651
atell	-2652
etnam	-2653
force	-2654
ither	-2655
▁bang	-2656
▁cere	-2657
▁dang	-2658
▁evil	-2659
▁gave	-2660
▁gras	-2661
▁lies	-2662
▁mill	-2663
▁ship	-2664
▁tian	-2665
▁told	-2666
▁writ	-2667
▁yang	-2668
▁yong	-2669
ourage	-2670
▁claim	-2671
▁coast	-2672
▁drive	-2673
▁forms	-2674
▁occas	-2675
▁round	-2676
▁serve	-2677
▁truth	-2678
▁value	-2679
ception	-2680
▁across	-2681
▁battle	-2682
▁became	-2683
▁behind	-2684
▁deeply	-2685
▁family	-2686
▁manner	-2687
▁obtain	-2688
▁police	-2689
▁return	-2690
▁strive	-2691
▁wishes	-2692
japanese	-2693
▁arrived	-2694
▁autonom	-2695
▁ceremon	-2696
▁essence	-2697
▁jiaxuan	-2698
▁looking	-2699
▁markets	-2700
▁separat	-2701
▁vietnam	-2702
▁welcome	-2703
▁attaches	-2704
▁circumst	-2705
▁comrades	-2706
▁consolid	-2707
▁judicial	-2708
▁planning	-2709
▁proposed	-2710
▁rational	-2711
▁received	-2712
▁component	-2713
▁favorable	-2714
▁functions	-2715
▁interview	-2716
▁organized	-2717
▁population	-2718
▁throughout	-2719
▁tremendous	-2720
be	-2721
ih	-2722
io	-2723
ery	-2724
isl	-2725
oms	-2726
per	-2727
sts	-2728
tim	-2729
val	-2730
▁da	-2731
ayed	-2732
ffic	-2733
iers	-2734
ming	-2735
oney	-2736
xing	-2737
▁aim	-2738
▁avo	-2739
▁bes	-2740
▁cal	-2741
▁fle	-2742
▁kim	-2743
▁pil	-2744
▁sac	-2745
▁try	-2746
▁vot	-2747
eless	-2748
empor	-2749
ester	-2750
ronic	-2751
ufact	-2752
▁done	-2753
▁iran	-2754
▁phen	-2755
▁proc	-2756
▁sust	-2757
▁unit	-2758
▁ways	-2759
▁weak	-2760
ension	-2761
iation	-2762
propri	-2763
urance	-2764
▁scale	-2765
▁simil	-2766
▁style	-2767
essions	-2768
itality	-2769
ividual	-2770
ternoon	-2771
▁bureau	-2772
▁county	-2773
▁former	-2774
▁income	-2775
▁legisl	-2776
▁visits	-2777
iversary	-2778
▁acceler	-2779
▁allowed	-2780
▁appoint	-2781
▁britain	-2782
▁complic	-2783
▁conflic	-2784
▁destroy	-2785
▁distrib	-2786
▁entered	-2787
▁perfect	-2788
▁reconna	-2789
ilization	-2790
▁computer	-2791
▁launched	-2792
▁manufact	-2793
▁momentum	-2794
▁personal	-2795
▁phenomen	-2796
▁pressure	-2797
▁promoted	-2798
▁students	-2799
▁afternoon	-2800
▁statement	-2801
▁assistance	-2802
▁beneficial	-2803
▁concerning	-2804
▁individual	-2805
▁initiative	-2806
▁anniversary	-2807
▁circumstances	-2808
si	-2809
ply	-2810
put	-2811
ugg	-2812
▁17	-2813
▁23	-2814
▁24	-2815
▁il	-2816
▁yi	-2817
ique	-2818
sequ	-2819
▁bom	-2820
▁cit	-2821
▁dam	-2822
▁dpp	-2823
▁kmt	-2824
▁lot	-2825
▁sun	-2826
acity	-2827
duous	-2828
iance	-2829
inite	-2830
ouble	-2831
ption	-2832
▁1998	-2833
▁2001	-2834
▁desc	-2835
▁earn	-2836
▁feat	-2837
▁guid	-2838
▁list	-2839
▁loss	-2840
▁port	-2841
▁sept	-2842
▁trip	-2843
verage	-2844
▁bound	-2845
▁child	-2846
▁final	-2847
▁heavy	-2848
▁illeg	-2849
▁intro	-2850
▁light	-2851
▁money	-2852
▁scope	-2853
lection	-2854
▁failed	-2855
▁flight	-2856
▁handle	-2857
▁indeed	-2858
▁instru	-2859
▁search	-2860
▁senior	-2861
▁submar	-2862
▁arduous	-2863
▁demands	-2864
▁guiding	-2865
▁mankind	-2866
▁matters	-2867
▁olympic	-2868
▁persist	-2869
▁precise	-2870
▁schools	-2871
▁existing	-2872
▁guidance	-2873
▁previous	-2874
▁specific	-2875
▁americans	-2876
▁direction	-2877
▁published	-2878
▁september	-2879
▁something	-2880
▁spokesman	-2881
▁absolutely	-2882
▁background	-2883
▁collective	-2884
▁electronic	-2885
▁protecting	-2886
▁palestinian	-2887
▁undertaking	-2888
▁institutions	-2889
▁readjustment	-2890
▁successfully	-2891
▁representative	-2892
br	-2893
bs	-2894
ocu	-2895
osp	-2896
▁11	-2897
▁22	-2898
▁ec	-2899
aced	-2900
hing	-2901
ills	-2902
ones	-2903
▁---	-2904
▁det	-2905
▁jan	-2906
▁lit	-2907
▁rad	-2908
aries	-2909
imate	-2910
urred	-2911
▁cust	-2912
▁docu	-2913
▁doub	-2914
▁gain	-2915
▁mind	-2916
▁tact	-2917
mitted	-2918
▁abide	-2919
▁appre	-2920
▁crack	-2921
▁displ	-2922
▁ideas	-2923
▁imper	-2924
▁price	-2925
▁quick	-2926
▁stock	-2927
▁super	-2928
▁thing	-2929
▁treas	-2930
▁active	-2931
▁corpor	-2932
▁cultiv	-2933
▁elimin	-2934
▁engage	-2935
▁ground	-2936
▁longer	-2937
▁opened	-2938
▁passed	-2939
▁reduce	-2940
▁renmin	-2941
▁though	-2942
▁xiamen	-2943
▁yester	-2944
communic	-2945
▁attract	-2946
▁content	-2947
▁earnest	-2948
▁include	-2949
▁introdu	-2950
▁mission	-2951
▁opposed	-2952
▁prevent	-2953
▁private	-2954
▁reasons	-2955
▁approved	-2956
▁believed	-2957
▁benefits	-2958
▁directly	-2959
▁founding	-2960
▁greatest	-2961
▁property	-2962
▁reported	-2963
▁achieving	-2964
▁attending	-2965
▁authority	-2966
▁insurance	-2967
▁ministers	-2968
▁palestine	-2969
▁precisely	-2970
▁upholding	-2971
▁yesterday	-2972
▁communists	-2973
▁efficiency	-2974
▁complicated	-2975
▁civilization	-2976
▁technologies	-2977
▁telecommunic	-2978
▁environmental	-2979
kn	-2980
alt	-2981
cip	-2982
eds	-2983
ems	-2984
fer	-2985
sis	-2986
use	-2987
▁gl	-2988
ames	-2989
lood	-2990
ring	-2991
riot	-2992
uary	-2993
will	-2994
▁bod	-2995
▁cur	-2996
▁dal	-2997
▁era	-2998
▁nar	-2999
▁pra	-3000
▁squ	-3001
▁won	-3002
right	-3003
siung	-3004
verty	-3005
works	-3006
▁1997	-3007
▁bank	-3008
▁chan	-3009
▁cuba	-3010
▁eyes	-3011
▁sell	-3012
erving	-3013
▁aspir	-3014
▁banks	-3015
▁cheng	-3016
▁equal	-3017
▁guard	-3018
▁heads	-3019
▁heart	-3020
▁liber	-3021
▁purch	-3022
▁reach	-3023
▁risks	-3024
▁solve	-3025
▁theme	-3026
▁truly	-3027
hington	-3028
uggling	-3029
▁academ	-3030
▁arrest	-3031
▁belief	-3032
▁deepen	-3033
▁oppose	-3034
▁safety	-3035
▁sector	-3036
emporary	-3037
▁besides	-3038
▁british	-3039
▁conclus	-3040
▁crucial	-3041
▁finally	-3042
▁january	-3043
▁mention	-3044
▁patriot	-3045
▁poverty	-3046
▁regards	-3047
▁seeking	-3048
▁accident	-3049
▁believes	-3050
▁capacity	-3051
▁director	-3052
▁division	-3053
▁equality	-3054
▁meetings	-3055
▁announced	-3056
▁conscient	-3057
▁exercises	-3058
▁potential	-3059
▁realizing	-3060
▁recognize	-3061
▁accounting	-3062
▁adjustment	-3063
▁advantages	-3064
▁aggression	-3065
▁confidence	-3066
▁procedures	-3067
▁washington	-3068
▁distribution	-3069
▁establishing	-3070
bi	-3071
bu	-3072
fe	-3073
ky	-3074
aoh	-3075
elt	-3076
hus	-3077
orn	-3078
dial	-3079
enge	-3080
enth	-3081
husi	-3082
isms	-3083
ival	-3084
olar	-3085
ream	-3086
rete	-3087
▁195	-3088
▁ase	-3089
▁bon	-3090
▁bro	-3091
▁fuj	-3092
▁liu	-3093
▁nav	-3094
▁son	-3095
▁vir	-3096
inent	-3097
ribed	-3098
▁base	-3099
▁clos	-3100
▁desp	-3101
▁figh	-3102
▁fire	-3103
▁home	-3104
▁huge	-3105
▁lack	-3106
▁live	-3107
▁navy	-3108
▁poor	-3109
▁reve	-3110
▁rise	-3111
▁room	-3112
▁talk	-3113
▁wife	-3114
▁zhou	-3115
▁built	-3116
▁chile	-3117
▁focus	-3118
▁freed	-3119
▁holds	-3120
▁lives	-3121
▁model	-3122
▁reven	-3123
▁solid	-3124
▁subst	-3125
▁taxes	-3126
▁teach	-3127
▁telev	-3128
▁union	-3129
ictions	-3130
quality	-3131
▁abroad	-3132
▁almost	-3133
▁attain	-3134
▁defend	-3135
▁letter	-3136
▁medium	-3137
▁respon	-3138
▁review	-3139
▁spread	-3140
▁actions	-3141
▁consequ	-3142
▁cordial	-3143
▁customs	-3144
▁dealing	-3145
▁eastern	-3146
▁enthusi	-3147
▁lanqing	-3148
▁persons	-3149
▁appropri	-3150
▁attached	-3151
▁concrete	-3152
▁declared	-3153
▁ideology	-3154
▁proposal	-3155
▁restruct	-3156
▁speaking	-3157
▁transfer	-3158
▁vitality	-3159
▁basically	-3160
▁challenge	-3161
▁collision	-3162
▁deepening	-3163
▁economies	-3164
▁enhancing	-3165
▁intensify	-3166
▁principal	-3167
▁resolving	-3168
▁supported	-3169
▁agreements	-3170
▁discipline	-3171
▁application	-3172
▁partnership	-3173
▁unification	-3174
▁arrangements	-3175
▁investigation	-3176
apt	-3177
mos	-3178
pan	-3179
pec	-3180
▁ve	-3181
body	-3182
fare	-3183
ires	-3184
ores	-3185
part	-3186
uous	-3187
vert	-3188
▁abm	-3189
▁chi	-3190
▁gap	-3191
▁gun	-3192
▁log	-3193
▁unf	-3194
▁unp	-3195
▁unt	-3196
arian	-3197
endit	-3198
erted	-3199
inary	-3200
ining	-3201
iscal	-3202
mosph	-3203
south	-3204
utive	-3205
▁away	-3206
▁debt	-3207
▁dece	-3208
▁gang	-3209
▁jour	-3210
▁nove	-3211
▁obst	-3212
▁plen	-3213
▁rele	-3214
▁sinc	-3215
▁vill	-3216
▁virt	-3217
ansion	-3218
employ	-3219
icians	-3220
▁bonds	-3221
▁boost	-3222
▁cadre	-3223
▁death	-3224
▁deeds	-3225
▁feder	-3226
▁leave	-3227
▁obser	-3228
▁often	-3229
▁ready	-3230
▁shown	-3231
▁wants	-3232
initely	-3233
issance	-3234
theless	-3235
▁adjust	-3236
▁convey	-3237
▁depend	-3238
▁disarm	-3239
▁fiscal	-3240
▁gained	-3241
▁months	-3242
▁perman	-3243
▁please	-3244
▁predic	-3245
▁proven	-3246
▁showed	-3247
▁talent	-3248
▁weapon	-3249
▁african	-3250
▁atmosph	-3251
▁bearing	-3252
▁contrad	-3253
▁despite	-3254
▁enforce	-3255
▁example	-3256
▁freedom	-3257
▁largest	-3258
▁limited	-3259
▁measure	-3260
▁partner	-3261
▁pattern	-3262
▁similar	-3263
▁warfare	-3264
▁alliance	-3265
▁ceremony	-3266
▁comments	-3267
▁expendit	-3268
▁fighting	-3269
▁improved	-3270
▁involved	-3271
▁mutually	-3272
▁november	-3273
▁produced	-3274
▁restrict	-3275
▁sessions	-3276
▁soldiers	-3277
▁construct	-3278
▁expansion	-3279
▁generally	-3280
▁occasions	-3281
▁sincerity	-3282
▁separatist	-3283
▁statistics	-3284
▁supporting	-3285
▁examination	-3286
▁presidential	-3287
▁restructuring	-3288
bo	-3289
de	-3290
dp	-3291
ma	-3292
rug	-3293
sec	-3294
the	-3295
zao	-3296
▁1.	-3297
▁13	-3298
▁27	-3299
▁29	-3300
▁ji	-3301
▁ku	-3302
▁mr	-3303
▁ul	-3304
acks	-3305
fund	-3306
llig	-3307
▁197	-3308
▁chr	-3309
▁exc	-3310
▁fru	-3311
▁ign	-3312
▁mao	-3313
▁mer	-3314
▁shi	-3315
▁suc	-3316
▁vol	-3317
ivity	-3318
thern	-3319
▁apec	-3320
▁bill	-3321
▁card	-3322
▁coal	-3323
▁dead	-3324
▁diss	-3325
▁drug	-3326
▁fier	-3327
▁poll	-3328
▁purs	-3329
▁sens	-3330
▁tell	-3331
▁type	-3332
▁vari	-3333
▁vast	-3334
ceeded	-3335
funded	-3336
ivered	-3337
unicip	-3338
▁amend	-3339
▁bases	-3340
▁cults	-3341
▁famil	-3342
▁goals	-3343
▁goods	-3344
▁greet	-3345
▁happy	-3346
▁hence	-3347
▁journ	-3348
▁mount	-3349
▁sched	-3350
▁seven	-3351
▁speak	-3352
▁topic	-3353
ocation	-3354
through	-3355
▁conven	-3356
▁degree	-3357
▁fujian	-3358
▁imposs	-3359
▁linked	-3360
▁millen	-3361
▁powers	-3362
▁remark	-3363
▁resist	-3364
▁satell	-3365
▁source	-3366
▁strike	-3367
▁america	-3368
▁ancient	-3369
▁average	-3370
▁balance	-3371
▁comment	-3372
▁conserv	-3373
▁coordin	-3374
▁engaged	-3375
▁failure	-3376
▁highest	-3377
▁judging	-3378
▁municip	-3379
▁nothing	-3380
▁revised	-3381
▁supreme	-3382
▁tibetan	-3383
▁analysis	-3384
▁civilian	-3385
▁communic	-3386
▁ensuring	-3387
▁intellig	-3388
▁powerful	-3389
▁pursuing	-3390
▁regarded	-3391
▁resolved	-3392
▁respects	-3393
▁response	-3394
▁revealed	-3395
▁smoothly	-3396
▁strongly	-3397
▁suffered	-3398
▁supports	-3399
▁welcomed	-3400
▁commander	-3401
▁committed	-3402
▁condition	-3403
▁delivered	-3404
▁discussed	-3405
▁intention	-3406
▁permanent	-3407
▁promotion	-3408
▁atmosphere	-3409
▁conclusion	-3410
▁deployment	-3411
▁determined	-3412
▁ecological	-3413
▁formulated	-3414
▁grassroots	-3415
▁parliament	-3416
▁profession	-3417
▁provisions	-3418
▁television	-3419
▁consumption	-3420
▁disarmament	-3421
▁experiences	-3422
▁parliaments	-3423
▁breakthrough	-3424
▁nevertheless	-3425
▁stipulations	-3426
▁consideration	-3427
▁consultations	-3428
▁participating	-3429
▁participation	-3430
▁reconnaissance	-3431
-8	-3432
az	-3433
uo	-3434
ank	-3435
aps	-3436
ead	-3437
equ	-3438
ift	-3439
mes	-3440
▁14	-3441
▁25	-3442
aded	-3443
cive	-3444
cont	-3445
down	-3446
ette	-3447
hold	-3448
ixed	-3449
ware	-3450
wise	-3451
▁esc	-3452
▁mag	-3453
▁oil	-3454
▁rej	-3455
▁typ	-3456
▁zed	-3457
arent	-3458
asing	-3459
aying	-3460
ested	-3461
iment	-3462
▁arab	-3463
▁dong	-3464
▁free	-3465
▁kaoh	-3466
▁kill	-3467
▁near	-3468
▁path	-3469
▁phil	-3470
▁site	-3471
▁sole	-3472
▁song	-3473
making	-3474
orious	-3475
▁adapt	-3476
▁apart	-3477
▁arats	-3478
▁avoid	-3479
▁devot	-3480
▁doubt	-3481
▁exact	-3482
▁grasp	-3483
▁honor	-3484
▁huang	-3485
▁newsp	-3486
▁spoke	-3487
▁vigil	-3488
▁withd	-3489
ression	-3490
▁africa	-3491
▁annual	-3492
▁assign	-3493
▁belong	-3494
▁choice	-3495
▁crimes	-3496
▁formal	-3497
▁moving	-3498
▁orient	-3499
▁paying	-3500
▁punish	-3501
▁turned	-3502
▁urgent	-3503
▁values	-3504
▁worked	-3505
▁zedong	-3506
▁airport	-3507
▁annette	-3508
▁bangzao	-3509
▁channel	-3510
▁complex	-3511
▁element	-3512
▁exports	-3513
▁finance	-3514
▁focused	-3515
▁growing	-3516
▁illegal	-3517
▁instead	-3518
▁journal	-3519
▁medical	-3520
▁neither	-3521
▁pacific	-3522
▁planned	-3523
▁plenary	-3524
▁talking	-3525
▁written	-3526
▁children	-3527
▁investig	-3528
▁networks	-3529
▁numerous	-3530
▁occurred	-3531
▁ordinary	-3532
▁priority	-3533
▁concerted	-3534
▁correctly	-3535
▁diplomacy	-3536
▁displayed	-3537
▁earnestly	-3538
▁essential	-3539
▁excellent	-3540
▁exchanged	-3541
▁kaohsiung	-3542
▁launching	-3543
▁proposals	-3544
▁provinces	-3545
▁smuggling	-3546
▁autonomous	-3547
▁eventually	-3548
▁impossible	-3549
▁association	-3550
▁generations	-3551
▁innovations	-3552
▁institution	-3553
▁suggestions	-3554
▁consistently	-3555
▁contemporary	-3556
▁intelligence	-3557
▁contradictions	-3558
▁conscientiously	-3559
.7	-3560
af	-3561
gy	-3562
li	-3563
mn	-3564
tt	-3565
aut	-3566
cot	-3567
cue	-3568
dom	-3569
ees	-3570
gos	-3571
han	-3572
off	-3573
urs	-3574
▁26	-3575
▁ye	-3576
ador	-3577
ains	-3578
avor	-3579
cast	-3580
held	-3581
imul	-3582
long	-3583
nium	-3584
raph	-3585
resp	-3586
stan	-3587
zhen	-3588
▁ask	-3589
▁aud	-3590
▁enl	-3591
▁men	-3592
▁obl	-3593
▁pan	-3594
▁rat	-3595
▁rum	-3596
▁sud	-3597
▁ten	-3598
▁unc	-3599
▁wit	-3600
ancip	-3601
going	-3602
itled	-3603
otian	-3604
▁1995	-3605
▁body	-3606
▁crew	-3607
▁date	-3608
▁emer	-3609
▁gone	-3610
▁ment	-3611
▁mess	-3612
▁send	-3613
▁soft	-3614
▁syri	-3615
▁upgr	-3616
▁wide	-3617
ailand	-3618
coming	-3619
ducive	-3620
emical	-3621
pected	-3622
▁appra	-3623
▁carri	-3624
▁chong	-3625
▁citiz	-3626
▁drawn	-3627
▁faced	-3628
▁forth	-3629
▁frame	-3630
▁hands	-3631
▁ident	-3632
▁incom	-3633
▁known	-3634
▁lower	-3635
▁macro	-3636
▁might	-3637
▁monit	-3638
▁pilot	-3639
▁seize	-3640
▁sober	-3641
▁stead	-3642
▁tests	-3643
▁unpre	-3644
▁until	-3645
▁watch	-3646
▁women	-3647
▁zhong	-3648
mitting	-3649
▁ambass	-3650
▁assemb	-3651
▁declar	-3652
▁exists	-3653
▁fairly	-3654
▁figure	-3655
▁france	-3656
▁height	-3657
▁losses	-3658
▁multip	-3659
▁placed	-3660
▁procur	-3661
▁raised	-3662
▁reserv	-3663
▁ruling	-3664
▁senate	-3665
▁splitt	-3666
▁square	-3667
▁stands	-3668
▁steady	-3669
▁unable	-3670
atically	-3671
▁briefed	-3672
▁emancip	-3673
▁evening	-3674
▁figures	-3675
▁initial	-3676
▁landing	-3677
▁marxist	-3678
▁possess	-3679
▁produce	-3680
▁raising	-3681
▁revenue	-3682
▁sources	-3683
▁turning	-3684
▁warning	-3685
▁accompan	-3686
▁activity	-3687
▁approval	-3688
▁frequent	-3689
▁jianxing	-3690
▁movement	-3691
▁required	-3692
▁resident	-3693
▁substant	-3694
▁thailand	-3695
▁treasury	-3696
▁conducive	-3697
▁decisions	-3698
▁eliminate	-3699
▁executive	-3700
▁extensive	-3701
▁institute	-3702
▁neighbors	-3703
▁operating	-3704
▁sanctions	-3705
▁sustained	-3706
▁treatment	-3707
▁consistent	-3708
▁continuing	-3709
▁employment	-3710
▁everything	-3711
▁hegemonism	-3712
▁millennium	-3713
▁personally	-3714
▁respective	-3715
▁settlement	-3716
▁thoroughly	-3717
▁concentrate	-3718
▁consolidate	-3719
▁enforcement	-3720
▁experienced	-3721
▁independent	-3722
▁integration	-3723
▁operational	-3724
▁orientation	-3725
▁significant	-3726
▁coordination	-3727
▁respectively	-3728
▁undertakings	-3729
▁manufacturing	-3730
▁nationalities	-3731
▁communications	-3732
▁transformation	-3733
ei	-3734
mp	-3735
sy	-3736
ald	-3737
dep	-3738
let	-3739
oph	-3740
pow	-3741
reg	-3742
rem	-3743
rog	-3744
ror	-3745
ull	-3746
▁1,	-3747
▁28	-3748
▁80	-3749
angu	-3750
hong	-3751
huan	-3752
inan	-3753
know	-3754
lebr	-3755
look	-3756
orts	-3757
pled	-3758
rong	-3759
uven	-3760
yang	-3761
▁196	-3762
▁awa	-3763
▁bad	-3764
▁che	-3765
▁gri	-3766
▁hot	-3767
▁nan	-3768
▁qiy	-3769
▁red	-3770
▁ver	-3771
▁yan	-3772
ading	-3773
arted	-3774
based	-3775
bassy	-3776
cious	-3777
depth	-3778
ilize	-3779
iques	-3780
irmed	-3781
ister	-3782
party	-3783
pring	-3784
riage	-3785
▁1992	-3786
▁chec	-3787
▁crac	-3788
▁edit	-3789
▁gath	-3790
▁hosp	-3791
▁laos	-3792
▁rein	-3793
▁rely	-3794
▁summ	-3795
▁surv	-3796
▁tack	-3797
▁tend	-3798
▁term	-3799
▁zeng	-3800
▁zone	-3801
econom	-3802
ichuan	-3803
iction	-3804
illery	-3805
▁autom	-3806
▁calls	-3807
▁dalai	-3808
▁explo	-3809
▁learn	-3810
▁makes	-3811
▁optim	-3812
▁posts	-3813
▁prior	-3814
▁sacri	-3815
istence	-3816
itarian	-3817
version	-3818
▁acknow	-3819
▁aspect	-3820
▁assets	-3821
▁celebr	-3822
▁charge	-3823
▁coming	-3824
▁compar	-3825
▁criter	-3826
▁detail	-3827
▁duties	-3828
▁enjoys	-3829
▁expert	-3830
▁hainan	-3831
▁indian	-3832
▁indign	-3833
▁mainst	-3834
▁marked	-3835
▁openly	-3836
▁record	-3837
▁severe	-3838
▁single	-3839
▁stimul	-3840
▁supply	-3841
▁surely	-3842
▁survey	-3843
allistic	-3844
cedented	-3845
▁claimed	-3846
▁deliber	-3847
▁drawing	-3848
▁elected	-3849
▁embassy	-3850
▁joining	-3851
▁lessons	-3852
▁practic	-3853
▁putting	-3854
▁regular	-3855
▁rejuven	-3856
▁signing	-3857
▁solving	-3858
▁targets	-3859
▁totally	-3860
▁unified	-3861
▁variety	-3862
▁victory	-3863
▁witness	-3864
ferential	-3865
▁accepted	-3866
▁approach	-3867
▁arrested	-3868
▁bringing	-3869
▁commerce	-3870
▁contents	-3871
▁contract	-3872
▁december	-3873
▁engaging	-3874
▁entering	-3875
▁entitled	-3876
▁everyone	-3877
▁expanded	-3878
▁extended	-3879
▁goodwill	-3880
▁minority	-3881
▁original	-3882
▁readjust	-3883
▁speeding	-3884
▁starting	-3885
▁superior	-3886
▁unemploy	-3887
▁artillery	-3888
▁encourage	-3889
▁followers	-3890
▁governing	-3891
▁greetings	-3892
▁intercept	-3893
▁involving	-3894
▁municipal	-3895
▁obviously	-3896
▁phenomena	-3897
▁presented	-3898
▁providing	-3899
▁reflected	-3900
▁stationed	-3901
▁worldwide	-3902
▁continuous	-3903
▁convention	-3904
▁excellency	-3905
▁expression	-3906
▁mechanisms	-3907
▁republican	-3908
▁submarines	-3909
▁declaration	-3910
▁politicians	-3911
▁participants	-3912
▁preferential	-3913
▁satisfaction	-3914
▁revolutionary	-3915
▁unprecedented	-3916
ek	-3917
ha	-3918
ii	-3919
ps	-3920
▁0	-3921
add	-3922
aks	-3923
alu	-3924
aug	-3925
bao	-3926
ieh	-3927
nan	-3928
oud	-3929
ovo	-3930
raw	-3931
rew	-3932
ulg	-3933
xic	-3934
▁31	-3935
▁ko	-3936
▁sk	-3937
▁xu	-3938
atul	-3939
bing	-3940
born	-3941
dong	-3942
east	-3943
emen	-3944
evit	-3945
face	-3946
here	-3947
iant	-3948
ites	-3949
lled	-3950
orge	-3951
orly	-3952
raid	-3953
rine	-3954
russ	-3955
shan	-3956
time	-3957
▁adm	-3958
▁alb	-3959
▁hua	-3960
▁kos	-3961
▁rui	-3962
▁sar	-3963
▁sou	-3964
eping	-3965
heres	-3966
idden	-3967
lines	-3968
omint	-3969
oused	-3970
state	-3971
▁acts	-3972
▁book	-3973
▁calm	-3974
▁draw	-3975
▁earl	-3976
▁fell	-3977
▁lost	-3978
▁save	-3979
▁true	-3980
▁unre	-3981
▁valu	-3982
▁word	-3983
▁ying	-3984
▁zhen	-3985
cotics	-3986
fering	-3987
gratul	-3988
ishing	-3989
ograph	-3990
ousand	-3991
overed	-3992
▁agend	-3993
▁comes	-3994
▁costs	-3995
▁earth	-3996
▁embod	-3997
▁emerg	-3998
▁ended	-3999
▁exhib	-4000
▁faith	-4001
▁fixed	-4002
▁grant	-4003
▁inaug	-4004
▁intel	-4005
▁least	-4006
▁legit	-4007
▁mayor	-4008
▁monop	-4009
▁moral	-4010
▁moves	-4011
▁newly	-4012
▁occup	-4013
▁parts	-4014
▁prove	-4015
▁qiyue	-4016
▁semin	-4017
▁works	-4018
▁worth	-4019
▁wrong	-4020
▁analyz	-4021
▁answer	-4022
▁assess	-4023
▁cambod	-4024
▁enable	-4025
▁explor	-4026
▁fierce	-4027
▁george	-4028
▁giving	-4029
▁inevit	-4030
▁kosovo	-4031
▁output	-4032
▁proved	-4033
▁pursue	-4034
▁remove	-4035
▁rescue	-4036
▁shares	-4037
▁terror	-4038
▁trends	-4039
▁trying	-4040
▁wanted	-4041
omintang	-4042
▁academy	-4043
▁appreci	-4044
▁aroused	-4045
▁coastal	-4046
▁conclud	-4047
▁corresp	-4048
▁driving	-4049
▁exactly	-4050
▁farmers	-4051
▁feeling	-4052
▁haotian	-4053
▁israeli	-4054
▁obvious	-4055
▁peasant	-4056
▁remains	-4057
▁request	-4058
▁ruihuan	-4059
▁studies	-4060
▁thanked	-4061
▁tourism	-4062
▁trouble	-4063
▁urgency	-4064
▁winning	-4065
▁worried	-4066
▁albright	-4067
▁articles	-4068
▁assembly	-4069
▁competit	-4070
▁conflict	-4071
▁contrary	-4072
▁creating	-4073
▁enhanced	-4074
▁features	-4075
▁feelings	-4076
▁marriage	-4077
▁opposing	-4078
▁overcome	-4079
▁reaction	-4080
▁realized	-4081
▁renminbi	-4082
▁resource	-4083
▁returned	-4084
▁sacrific	-4085
▁sciences	-4086
▁shenzhen	-4087
▁advantage	-4088
▁appointed	-4089
▁congratul	-4090
▁dangerous	-4091
▁described	-4092
▁dissatisf	-4093
▁framework	-4094
▁guideline	-4095
▁interfere	-4096
▁mentioned	-4097
▁otherwise	-4098
▁ourselves	-4099
▁prominent	-4100
▁publicity	-4101
▁reporting	-4102
▁satisfact	-4103
▁sincerely	-4104
▁transport	-4105
▁vigilance	-4106
▁accelerate	-4107
▁ambassador	-4108
▁criticized	-4109
▁definitely	-4110
▁frequently	-4111
▁imperative	-4112
▁integrated	-4113
▁kuomintang	-4114
▁legitimate	-4115
▁nationwide	-4116
▁originally	-4117
▁securities	-4118
▁situations	-4119
▁appropriate	-4120
▁macroeconom	-4121
▁participate	-4122
▁realization	-4123
▁demonstrated	-4124
▁humanitarian	-4125
-1	-4126
-3	-4127
cl	-4128
asm	-4129
lav	-4130
lin	-4131
mol	-4132
ntr	-4133
oot	-4134
rel	-4135
rol	-4136
run	-4137
zer	-4138
zil	-4139
▁di	-4140
▁dy	-4141
▁hs	-4142
▁ky	-4143
▁uk	-4144
▁vo	-4145
abao	-4146
anxi	-4147
ases	-4148
ayan	-4149
gone	-4150
pted	-4151
uang	-4152
uses	-4153
▁aer	-4154
▁age	-4155
▁aid	-4156
▁cab	-4157
▁doz	-4158
▁err	-4159
▁fac	-4160
▁fif	-4161
▁gdp	-4162
▁hom	-4163
▁lia	-4164
▁lif	-4165
▁mis	-4166
▁pie	-4167
▁tan	-4168
▁wis	-4169
▁zhe	-4170
apore	-4171
arily	-4172
earth	-4173
field	-4174
iated	-4175
idesp	-4176
leges	-4177
licit	-4178
lling	-4179
ocked	-4180
olars	-4181
rency	-4182
sheng	-4183
ships	-4184
sized	-4185
space	-4186
veill	-4187
▁1990	-4188
▁1996	-4189
▁abol	-4190
▁aust	-4191
▁cast	-4192
▁defe	-4193
▁enab	-4194
▁entr	-4195
▁felt	-4196
▁hang	-4197
▁hour	-4198
▁jing	-4199
▁note	-4200
▁pace	-4201
▁pntr	-4202
▁prim	-4203
▁qual	-4204
▁slow	-4205
▁stub	-4206
▁team	-4207
▁wage	-4208
▁webs	-4209
▁yuxi	-4210
arters	-4211
goslav	-4212
ounded	-4213
ration	-4214
ternal	-4215
▁angle	-4216
▁asean	-4217
▁assum	-4218
▁begun	-4219
▁below	-4220
▁board	-4221
▁chrts	-4222
▁compl	-4223
▁cover	-4224
▁crime	-4225
▁defic	-4226
▁depth	-4227
▁discl	-4228
▁domin	-4229
▁fleet	-4230
▁fruit	-4231
▁games	-4232
▁heret	-4233
▁manif	-4234
▁minds	-4235
▁quiet	-4236
▁scene	-4237
▁syria	-4238
▁takes	-4239
▁tenth	-4240
▁xiang	-4241
hearted	-4242
lectual	-4243
pective	-4244
russian	-4245
▁agenda	-4246
▁anyone	-4247
▁closed	-4248
▁closer	-4249
▁divers	-4250
▁easily	-4251
▁extent	-4252
▁formed	-4253
▁guests	-4254
▁helped	-4255
▁hosted	-4256
▁ideals	-4257
▁jiabao	-4258
▁latest	-4259
▁likely	-4260
▁master	-4261
▁owners	-4262
▁prohib	-4263
▁resume	-4264
▁spring	-4265
▁sudden	-4266
▁upheld	-4267
▁volume	-4268
▁warmly	-4269
▁widesp	-4270
mination	-4271
▁amended	-4272
▁conform	-4273
▁distort	-4274
▁emerged	-4275
▁fighter	-4276
▁germany	-4277
▁headway	-4278
▁message	-4279
▁numbers	-4280
▁playing	-4281
▁praised	-4282
▁prefect	-4283
▁quickly	-4284
▁relying	-4285
▁replace	-4286
▁replied	-4287
▁schedul	-4288
▁seminar	-4289
▁sending	-4290
▁showing	-4291
▁sincere	-4292
▁straits	-4293
▁tension	-4294
▁traffic	-4295
▁village	-4296
condition	-4297
veillance	-4298
▁absolute	-4299
▁affected	-4300
▁airspace	-4301
▁announce	-4302
▁answered	-4303
▁attempts	-4304
▁backward	-4305
▁channels	-4306
▁citizens	-4307
▁colleges	-4308
▁compared	-4309
▁composed	-4310
▁dispatch	-4311
▁entirely	-4312
▁glorious	-4313
▁instance	-4314
▁learning	-4315
▁purchase	-4316
▁reducing	-4317
▁scholars	-4318
▁settling	-4319
▁stubborn	-4320
▁teachers	-4321
▁theories	-4322
▁thousand	-4323
▁treaties	-4324
▁weaponry	-4325
▁withdraw	-4326
▁yugoslav	-4327
▁zhejiang	-4328
▁advancing	-4329
▁advocated	-4330
▁affecting	-4331
▁broadcast	-4332
▁completed	-4333
▁conflicts	-4334
▁criminals	-4335
▁dialogues	-4336
▁documents	-4337
▁emphasize	-4338
▁entourage	-4339
▁existence	-4340
▁narcotics	-4341
▁patriotic	-4342
▁practices	-4343
▁reforming	-4344
▁residents	-4345
▁singapore	-4346
▁universal	-4347
▁welcoming	-4348
▁aspiration	-4349
▁complement	-4350
▁difficulty	-4351
▁impression	-4352
▁liberation	-4353
▁statements	-4354
▁widespread	-4355
▁businessmen	-4356
▁exploration	-4357
▁formulating	-4358
▁journalists	-4359
▁unremitting	-4360
▁utilization	-4361
▁constructive	-4362
▁consultation	-4363
▁contribution	-4364
▁developments	-4365
▁intellectual	-4366
▁mobilization	-4367
▁restrictions	-4368
▁universities	-4369
▁macroeconomic	-4370
▁competitiveness	-4371
,5	-4372
.1	-4373
.5	-4374
ba	-4375
rs	-4376
akh	-4377
ata	-4378
chi	-4379
cor	-4380
hic	-4381
ipp	-4382
nce	-4383
ork	-4384
ows	-4385
pei	-4386
sid	-4387
ugh	-4388
umi	-4389
xim	-4390
▁cy	-4391
▁ii	-4392
alta	-4393
anch	-4394
arus	-4395
chin	-4396
enin	-4397
irth	-4398
isal	-4399
ords	-4400
oses	-4401
plus	-4402
quet	-4403
quis	-4404
rees	-4405
udal	-4406
xico	-4407
▁500	-4408
▁coh	-4409
▁don	-4410
▁fil	-4411
▁hit	-4412
▁ill	-4413
▁kil	-4414
▁lie	-4415
▁pet	-4416
▁reb	-4417
▁wid	-4418
afric	-4419
ature	-4420
cheng	-4421
izumi	-4422
power	-4423
using	-4424
wards	-4425
▁1980	-4426
▁bear	-4427
▁bold	-4428
▁chun	-4429
▁cost	-4430
▁cred	-4431
▁door	-4432
▁drop	-4433
▁ende	-4434
▁grat	-4435
▁hear	-4436
▁hero	-4437
▁hund	-4438
▁jobs	-4439
▁king	-4440
▁leap	-4441
▁link	-4442
▁mine	-4443
▁ming	-4444
▁race	-4445
▁susp	-4446
▁swit	-4447
▁tran	-4448
▁tung	-4449
▁vent	-4450
▁week	-4451
aments	-4452
andong	-4453
arents	-4454
asters	-4455
ilized	-4456
kistan	-4457
neighb	-4458
▁beaut	-4459
▁birth	-4460
▁blood	-4461
▁brill	-4462
▁disap	-4463
▁enorm	-4464
▁frank	-4465
▁gradu	-4466
▁heard	-4467
▁judge	-4468
▁manag	-4469
▁night	-4470
▁occur	-4471
▁older	-4472
▁prete	-4473
▁radio	-4474
▁range	-4475
▁ribao	-4476
▁sorts	-4477
▁storm	-4478
▁tight	-4479
▁touch	-4480
▁tough	-4481
▁towns	-4482
▁trial	-4483
▁ultim	-4484
▁urged	-4485
▁vehic	-4486
entions	-4487
ruction	-4488
▁associ	-4489
▁casual	-4490
▁convin	-4491
▁cruise	-4492
▁damage	-4493
▁danger	-4494
▁desire	-4495
▁engine	-4496
▁feudal	-4497
▁hidden	-4498
▁inside	-4499
▁listed	-4500
▁mexico	-4501
▁notice	-4502
▁refuse	-4503
▁resett	-4504
▁sacred	-4505
▁solemn	-4506
▁suffer	-4507
▁tackle	-4508
▁timely	-4509
▁wisdom	-4510
▁withst	-4511
▁banquet	-4512
▁careful	-4513
▁charges	-4514
▁contain	-4515
▁corrupt	-4516
▁decades	-4517
▁earlier	-4518
▁exposed	-4519
▁facilit	-4520
▁handled	-4521
▁helping	-4522
▁hundred	-4523
▁imposed	-4524
▁indones	-4525
▁koizumi	-4526
▁militar	-4527
▁parents	-4528
▁primary	-4529
▁profess	-4530
▁reserve	-4531
▁running	-4532
▁section	-4533
▁setting	-4534
▁sichuan	-4535
▁stopped	-4536
▁studied	-4537
▁succeed	-4538
▁tactics	-4539
▁typical	-4540
ciliation	-4541
▁adhering	-4542
▁briefing	-4543
▁conveyed	-4544
▁cracking	-4545
▁disaster	-4546
▁disputes	-4547
▁document	-4548
▁examples	-4549
▁exceeded	-4550
▁explicit	-4551
▁external	-4552
▁followed	-4553
▁fruitful	-4554
▁function	-4555
▁geograph	-4556
▁managing	-4557
▁northern	-4558
▁regiment	-4559
▁resolute	-4560
▁selected	-4561
▁shortage	-4562
▁stronger	-4563
▁township	-4564
▁trillion	-4565
corruption	-4566
▁abolished	-4567
▁adherence	-4568
▁appraisal	-4569
▁guangdong	-4570
▁heretical	-4571
▁incidents	-4572
▁investors	-4573
▁mentality	-4574
▁mountains	-4575
▁newspaper	-4576
▁ownership	-4577
▁predicted	-4578
▁reception	-4579
▁returning	-4580
▁scheduled	-4581
▁sensitive	-4582
▁splittist	-4583
▁successes	-4584
▁witnessed	-4585
▁creativity	-4586
▁enthusiasm	-4587
▁guidelines	-4588
▁introduced	-4589
▁monitoring	-4590
▁objectives	-4591
▁phenomenon	-4592
▁practition	-4593
▁principled	-4594
▁recognized	-4595
▁regulation	-4596
▁discussions	-4597
▁indignation	-4598
▁interfering	-4599
▁legislative	-4600
▁ministerial	-4601
▁performance	-4602
▁perspective	-4603
▁consequences	-4604
▁emphatically	-4605
▁expenditures	-4606
▁intervention	-4607
▁professional	-4608
▁rejuvenation	-4609
▁surveillance	-4610
▁accomplishing	-4611
▁breakthroughs	-4612
▁characteristic	-4613
▁organizational	-4614
▁reconciliation	-4615
-2	-4616
.4	-4617
.8	-4618
ax	-4619
eg	-4620
ew	-4621
ik	-4622
tu	-4623
ys	-4624
ake	-4625
ann	-4626
bit	-4627
bur	-4628
ept	-4629
fat	-4630
gan	-4631
gue	-4632
guo	-4633
iao	-4634
iar	-4635
ims	-4636
ita	-4637
jie	-4638
kun	-4639
kyo	-4640
new	-4641
ony	-4642
osc	-4643
rep	-4644
ses	-4645
tle	-4646
urd	-4647
wei	-4648
win	-4649
▁45	-4650
▁60	-4651
▁hi	-4652
aihe	-4653
buil	-4654
fang	-4655
gent	-4656
ghui	-4657
iate	-4658
iful	-4659
inet	-4660
ingu	-4661
ints	-4662
pass	-4663
rang	-4664
rast	-4665
rene	-4666
resh	-4667
ties	-4668
type	-4669
ubei	-4670
usal	-4671
▁cao	-4672
▁cut	-4673
▁emb	-4674
▁hun	-4675
▁inj	-4676
▁jie	-4677
▁luo	-4678
▁mus	-4679
▁sil	-4680
▁tem	-4681
▁ush	-4682
▁vac	-4683
▁wal	-4684
▁yao	-4685
▁yas	-4686
▁yun	-4687
0,000	-4688
arter	-4689
astic	-4690
enses	-4691
gment	-4692
illar	-4693
immol	-4694
iring	-4695
matic	-4696
ordin	-4697
organ	-4698
osing	-4699
raine	-4700
tered	-4701
uting	-4702
verse	-4703
▁amid	-4704
▁beid	-4705
▁blue	-4706
▁chap	-4707
▁clar	-4708
▁coex	-4709
▁dign	-4710
▁feng	-4711
▁flow	-4712
▁food	-4713
▁fost	-4714
▁goes	-4715
▁grim	-4716
▁iron	-4717
▁irre	-4718
▁lian	-4719
▁lien	-4720
▁lose	-4721
▁mode	-4722
▁onto	-4723
▁pain	-4724
▁prob	-4725
▁rare	-4726
▁rect	-4727
▁rose	-4728
▁scen	-4729
▁star	-4730
▁symp	-4731
▁tons	-4732
▁unce	-4733
▁unsw	-4734
▁vote	-4735
▁wart	-4736
▁xiao	-4737
▁york	-4738
active	-4739
commer	-4740
earing	-4741
encies	-4742
europe	-4743
idered	-4744
ighted	-4745
israel	-4746
lusive	-4747
onding	-4748
reness	-4749
requis	-4750
ulated	-4751
vested	-4752
▁accum	-4753
▁aimed	-4754
▁alone	-4755
▁antis	-4756
▁apply	-4757
▁blair	-4758
▁canad	-4759
▁capab	-4760
▁chung	-4761
▁decis	-4762
▁enlar	-4763
▁extra	-4764
▁false	-4765
▁fifth	-4766
▁flood	-4767
▁focal	-4768
▁fresh	-4769
▁input	-4770
▁iraqi	-4771
▁knows	-4772
▁lines	-4773
▁liter	-4774
▁malta	-4775
▁minim	-4776
▁moved	-4777
▁naval	-4778
▁nepal	-4779
▁oblig	-4780
▁phase	-4781
▁plays	-4782
▁proud	-4783
▁quant	-4784
▁rally	-4785
▁refer	-4786
▁resum	-4787
▁river	-4788
▁seems	-4789
▁shift	-4790
▁ships	-4791
▁sixth	-4792
▁steps	-4793
▁stick	-4794
▁tokyo	-4795
▁tried	-4796
▁turns	-4797
▁vital	-4798
ainable	-4799
chinese	-4800
ibility	-4801
istered	-4802
keeping	-4803
mission	-4804
reprene	-4805
ructure	-4806
termine	-4807
▁acting	-4808
▁afraid	-4809
▁arafat	-4810
▁assume	-4811
▁attrib	-4812
▁burden	-4813
▁chance	-4814
▁choose	-4815
▁condem	-4816
▁courts	-4817
▁double	-4818
▁explan	-4819
▁forced	-4820
▁forget	-4821
▁honest	-4822
▁insist	-4823
▁interp	-4824
▁latter	-4825
▁merely	-4826
▁namely	-4827
▁obstac	-4828
▁pillar	-4829
▁regime	-4830
▁rising	-4831
▁rivers	-4832
▁shrine	-4833
▁slight	-4834
▁suffic	-4835
▁summer	-4836
▁traged	-4837
▁yongtu	-4838
building	-4839
mentally	-4840
ountered	-4841
reaching	-4842
▁austral	-4843
▁belarus	-4844
▁biggest	-4845
▁cabinet	-4846
▁capable	-4847
▁conting	-4848
▁devoted	-4849
▁dignity	-4850
▁drought	-4851
▁effects	-4852
▁existed	-4853
▁federal	-4854
▁friends	-4855
▁getting	-4856
▁infrast	-4857
▁infring	-4858
▁inspect	-4859
▁justice	-4860
▁located	-4861
▁manager	-4862
▁minutes	-4863
▁motions	-4864
▁observe	-4865
▁orderly	-4866
▁outlook	-4867
▁promulg	-4868
▁protest	-4869
▁pursued	-4870
▁pursuit	-4871
▁pushing	-4872
▁reorgan	-4873
▁serving	-4874
▁settled	-4875
▁surface	-4876
▁surplus	-4877
▁thereby	-4878
▁towards	-4879
▁ukraine	-4880
▁violent	-4881
▁virtual	-4882
▁wartime	-4883
requisite	-4884
▁appeared	-4885
▁auditing	-4886
▁autonomy	-4887
▁aviation	-4888
▁changing	-4889
▁concerns	-4890
▁counties	-4891
▁emphasis	-4892
▁endeavor	-4893
▁enormous	-4894
▁families	-4895
▁imperial	-4896
▁obtained	-4897
▁pressing	-4898
▁programs	-4899
▁reflects	-4900
▁released	-4901
▁requires	-4902
▁reserves	-4903
▁spending	-4904
▁stepping	-4905
▁taxation	-4906
▁undermin	-4907
▁vehicles	-4908
▁vigorous	-4909
▁warships	-4910
neighborly	-4911
▁amendment	-4912
▁awareness	-4913
▁concluded	-4914
▁determine	-4915
▁editorial	-4916
▁exception	-4917
▁formulate	-4918
▁increases	-4919
▁pollution	-4920
▁positions	-4921
▁satellite	-4922
▁satisfied	-4923
▁splitting	-4924
▁submarine	-4925
▁unceasing	-4926
olarization	-4927
▁additional	-4928
▁considered	-4929
▁destroyers	-4930
▁determines	-4931
▁entreprene	-4932
▁exhibition	-4933
▁federation	-4934
▁percentage	-4935
▁personages	-4936
▁practicing	-4937
▁preserving	-4938
▁remarkable	-4939
▁ultimately	-4940
▁understood	-4941
▁unswerving	-4942
▁acknowledge	-4943
▁battlefield	-4944
▁communiques	-4945
▁corporation	-4946
▁destruction	-4947
▁encountered	-4948
▁intensified	-4949
▁investments	-4950
▁neighboring	-4951
▁preparatory	-4952
▁superiority	-4953
▁sustainable	-4954
▁underground	-4955
▁willingness	-4956
▁accelerating	-4957
▁accomplished	-4958
▁appreciation	-4959
▁capabilities	-4960
▁continuation	-4961
▁instructions	-4962
▁interference	-4963
▁multilateral	-4964
▁peacekeeping	-4965
▁persistently	-4966
▁precondition	-4967
▁prerequisite	-4968
▁urbanization	-4969
▁corresponding	-4970
▁effectiveness	-4971
▁institutional	-4972
▁infrastructure	-4973
.3	-4974
.9	-4975
ob	-4976
xs	-4977
▁&	-4978
asc	-4979
bin	-4980
gen	-4981
ils	-4982
isp	-4983
odd	-4984
oto	-4985
pay	-4986
ray	-4987
sfe	-4988
thy	-4989
tra	-4990
urb	-4991
▁je	-4992
▁qi	-4993
▁sn	-4994
▁tv	-4995
▁ug	-4996
▁va	-4997
akes	-4998
ancy	-4999
anov	-5000
conf	-5001
ctor	-5002
egis	-5003
fast	-5004
felt	-5005
ghan	-5006
hard	-5007
iced	-5008
kuni	-5009
mans	-5010
meas	-5011
mine	-5012
more	-5013
ocol	-5014
olic	-5015
omed	-5016
omin	-5017
rets	-5018
sych	-5019
viet	-5020
▁600	-5021
▁amb	-5022
▁ast	-5023
▁cha	-5024
▁cop	-5025
▁cot	-5026
▁dau	-5027
▁eld	-5028
▁fan	-5029
▁fee	-5030
▁gan	-5031
▁gas	-5032
▁han	-5033
▁hui	-5034
▁jul	-5035
▁lay	-5036
▁mil	-5037
▁mir	-5038
▁nam	-5039
▁sef	-5040
▁sus	-5041
▁tai	-5042
▁uns	-5043
▁zxs	-5044
acies	-5045
addam	-5046
agers	-5047
aters	-5048
azakh	-5049
chung	-5050
edged	-5051
erget	-5052
iable	-5053
icate	-5054
ional	-5055
ioned	-5056
oscow	-5057
osium	-5058
osoph	-5059
pared	-5060
ports	-5061
rison	-5062
sfeld	-5063
tedly	-5064
ukuni	-5065
ushed	-5066
usion	-5067
where	-5068
▁1970	-5069
▁1991	-5070
▁1994	-5071
▁2005	-5072
▁2008	-5073
▁acqu	-5074
▁asem	-5075
▁born	-5076
▁cath	-5077
▁cert	-5078
▁chee	-5079
▁data	-5080
▁dism	-5081
▁easy	-5082
▁erad	-5083
▁fash	-5084
▁fast	-5085
▁fill	-5086
▁game	-5087
▁guam	-5088
▁hall	-5089
▁inqu	-5090
▁insp	-5091
▁love	-5092
▁magn	-5093
▁mist	-5094
▁nine	-5095
▁plat	-5096
▁plot	-5097
▁pool	-5098
▁rail	-5099
▁rock	-5100
▁shar	-5101
▁stab	-5102
▁supp	-5103
▁uses	-5104
▁vary	-5105
▁wild	-5106
elling	-5107
icheng	-5108
icious	-5109
ieties	-5110
ooting	-5111
▁5,000	-5112
▁accur	-5113
▁advis	-5114
▁aegis	-5115
▁armen	-5116
▁arrog	-5117
▁behav	-5118
▁blind	-5119
▁block	-5120
▁burea	-5121
▁cance	-5122
▁cited	-5123
▁colon	-5124
▁color	-5125
▁depos	-5126
▁dream	-5127
▁evalu	-5128
▁exert	-5129
▁fores	-5130
▁hours	-5131
▁hsieh	-5132
▁image	-5133
▁indef	-5134
▁italy	-5135
▁joins	-5136
▁langu	-5137
▁loans	-5138
▁miner	-5139
▁minor	-5140
▁oppon	-5141
▁owing	-5142
▁petro	-5143
▁piece	-5144
▁psych	-5145
▁spend	-5146
▁spons	-5147
israeli	-5148
itative	-5149
related	-5150
▁afghan	-5151
▁allies	-5152
▁appeal	-5153
▁argent	-5154
▁branch	-5155
▁brazil	-5156
▁credit	-5157
▁dozens	-5158
▁extend	-5159
▁factor	-5160
▁fuzhou	-5161
▁guided	-5162
▁hardly	-5163
▁joined	-5164
▁killed	-5165
▁lesson	-5166
▁little	-5167
▁looked	-5168
▁mobile	-5169
▁moscow	-5170
▁motion	-5171
▁poison	-5172
▁prices	-5173
▁prosec	-5174
▁regret	-5175
▁relies	-5176
▁resort	-5177
▁scored	-5178
▁servic	-5179
▁shared	-5180
▁simply	-5181
▁skills	-5182
▁speaks	-5183
▁talked	-5184
▁twists	-5185
▁undoub	-5186
▁unique	-5187
▁unless	-5188
▁utmost	-5189
▁vision	-5190
▁weaken	-5191
▁wealth	-5192
atellite	-5193
commerce	-5194
invested	-5195
measures	-5196
▁accused	-5197
▁adhered	-5198
▁attacks	-5199
▁bangguo	-5200
▁bombing	-5201
▁carrier	-5202
▁confron	-5203
▁deficit	-5204
▁degrees	-5205
▁denghui	-5206
▁dispute	-5207
▁disturb	-5208
▁divided	-5209
▁encoura	-5210
▁energet	-5211
▁explore	-5212
▁fashion	-5213
▁flights	-5214
▁funding	-5215
▁hearing	-5216
▁involve	-5217
▁islands	-5218
▁keeping	-5219
▁lasting	-5220
▁minimum	-5221
▁neglect	-5222
▁optical	-5223
▁periods	-5224
▁philipp	-5225
▁pleased	-5226
▁pledged	-5227
▁premise	-5228
▁profits	-5229
▁promise	-5230
▁refused	-5231
▁release	-5232
▁respond	-5233
▁shaanxi	-5234
▁younger	-5235
mentioned	-5236
▁academic	-5237
▁affirmed	-5238
▁analysts	-5239
▁anything	-5240
▁assigned	-5241
▁cambodia	-5242
▁chemical	-5243
▁combined	-5244
▁concepts	-5245
▁consumer	-5246
▁critical	-5247
▁decisive	-5248
▁deployed	-5249
▁district	-5250
▁equipped	-5251
▁familiar	-5252
▁fighters	-5253
▁granting	-5254
▁grasping	-5255
▁happened	-5256
▁hospital	-5257
▁included	-5258
▁millions	-5259
▁mobilize	-5260
▁observed	-5261
▁obstruct	-5262
▁precious	-5263
▁presided	-5264
▁probably	-5265
▁promises	-5266
▁protests	-5267
▁protocol	-5268
▁provides	-5269
▁punished	-5270
▁religion	-5271
▁remained	-5272
▁resulted	-5273
▁rumsfeld	-5274
▁separate	-5275
▁shandong	-5276
▁steadily	-5277
▁striving	-5278
▁suddenly	-5279
▁supervis	-5280
▁survival	-5281
▁teaching	-5282
▁valuable	-5283
▁yasukuni	-5284
▁attracted	-5285
▁beautiful	-5286
▁brilliant	-5287
▁crackdown	-5288
▁criticism	-5289
▁delegates	-5290
▁depending	-5291
▁disasters	-5292
▁disclosed	-5293
▁everybody	-5294
▁exclusive	-5295
▁explained	-5296
▁expounded	-5297
▁guangzhou	-5298
▁household	-5299
▁identical	-5300
▁immediate	-5301
▁indicates	-5302
▁indonesia	-5303
▁interpret	-5304
▁nationals	-5305
▁philosoph	-5306
▁realistic	-5307
▁respected	-5308
▁reversion	-5309
▁selection	-5310
▁southeast	-5311
▁struggles	-5312
▁symposium	-5313
▁thousands	-5314
▁undergone	-5315
▁undermine	-5316
▁upgrading	-5317
▁varieties	-5318
▁violating	-5319
▁casualties	-5320
▁collection	-5321
▁conviction	-5322
▁designated	-5323
▁discussing	-5324
▁dispatched	-5325
▁expressing	-5326
▁guarantees	-5327
▁hegemonist	-5328
▁inevitably	-5329
▁mainstream	-5330
▁proceeding	-5331
▁prosperous	-5332
▁regulatory	-5333
▁reunifying	-5334
▁satellites	-5335
▁threatened	-5336
▁unemployed	-5337
▁accelerated	-5338
▁accompanied	-5339
▁aspirations	-5340
▁coexistence	-5341
▁commitments	-5342
▁competitive	-5343
▁congressmen	-5344
▁controlling	-5345
▁coordinated	-5346
▁cultivation	-5347
▁expenditure	-5348
▁fulfillment	-5349
▁furthermore	-5350
▁individuals	-5351
▁integrating	-5352
▁interviewed	-5353
▁publication	-5354
▁undoubtedly	-5355
▁conservative	-5356
▁expectations	-5357
▁satisfactory	-5358
▁demonstration	-5359
▁energetically	-5360
▁entrepreneurs	-5361
▁fundamentally	-5362
▁normalization	-5363
▁protectionism	-5364
▁congratulations	-5365
▁countermeasures	-5366
▁internationally	-5367
99	-5368
di	-5369
eu	-5370
fl	-5371
ka	-5372
ny	-5373
po	-5374
ta	-5375
ze	-5376
aka	-5377
ami	-5378
bot	-5379
bre	-5380
cco	-5381
ert	-5382
gyz	-5383
hwa	-5384
inc	-5385
izh	-5386
key	-5387
mun	-5388
nor	-5389
olk	-5390
oly	-5391
rad	-5392
ran	-5393
rok	-5394
uck	-5395
udi	-5396
uel	-5397
ule	-5398
ulf	-5399
ump	-5400
unt	-5401
war	-5402
you	-5403
▁52	-5404
▁57	-5405
▁75	-5406
▁cm	-5407
▁du	-5408
▁iv	-5409
▁jr	-5410
▁ok	-5411
▁ts	-5412
book	-5413
brit	-5414
dent	-5415
dprk	-5416
ears	-5417
gypt	-5418
ibly	-5419
icts	-5420
idge	-5421
ijan	-5422
ione	-5423
iong	-5424
jpay	-5425
lege	-5426
like	-5427
mind	-5428
oned	-5429
pics	-5430
rage	-5431
rgyz	-5432
rote	-5433
rown	-5434
rugu	-5435
sels	-5436
step	-5437
urch	-5438
vage	-5439
whel	-5440
▁ben	-5441
▁box	-5442
▁buy	-5443
▁ded	-5444
▁dil	-5445
▁eye	-5446
▁gor	-5447
▁got	-5448
▁hat	-5449
▁imm	-5450
▁lag	-5451
▁lea	-5452
▁mal	-5453
▁rom	-5454
▁sky	-5455
▁tae	-5456
▁tao	-5457
▁tol	-5458
▁ves	-5459
▁zts	-5460
andid	-5461
anmen	-5462
antly	-5463
apers	-5464
backs	-5465
board	-5466
class	-5467
cture	-5468
eding	-5469
equal	-5470
erate	-5471
essed	-5472
etary	-5473
fered	-5474
iling	-5475
known	-5476
lands	-5477
north	-5478
olved	-5479
pping	-5480
ronts	-5481
stric	-5482
techn	-5483
ulate	-5484
vered	-5485
▁1960	-5486
▁anth	-5487
▁argu	-5488
▁azer	-5489
▁ball	-5490
▁bent	-5491
▁caut	-5492
▁clam	-5493
▁deli	-5494
▁ease	-5495
▁emot	-5496
▁evas	-5497
▁fake	-5498
▁fate	-5499
▁flag	-5500
▁flex	-5501
▁grew	-5502
▁gulf	-5503
▁guns	-5504
▁hung	-5505
▁imag	-5506
▁item	-5507
▁kept	-5508
▁lawy	-5509
▁mach	-5510
▁merg	-5511
▁mori	-5512
▁moro	-5513
▁park	-5514
▁pict	-5515
▁prag	-5516
▁pure	-5517
▁quan	-5518
▁quot	-5519
▁root	-5520
▁snow	-5521
▁soil	-5522
▁stay	-5523
▁sure	-5524
▁taji	-5525
▁tide	-5526
▁unex	-5527
▁wann	-5528
▁whom	-5529
▁wind	-5530
▁wise	-5531
▁wood	-5532
▁wors	-5533
▁xuan	-5534
atever	-5535
govern	-5536
isance	-5537
ispens	-5538
jpayee	-5539
marily	-5540
rupted	-5541
worthy	-5542
▁adequ	-5543
▁afore	-5544
▁award	-5545
▁aware	-5546
▁barri	-5547
▁batch	-5548
▁biden	-5549
▁brand	-5550
▁categ	-5551
▁chain	-5552
▁cites	-5553
▁conne	-5554
▁cruel	-5555
▁cuban	-5556
▁daily	-5557
▁debts	-5558
▁dynam	-5559
▁egypt	-5560
▁enact	-5561
▁fraud	-5562
▁gives	-5563
▁grave	-5564
▁green	-5565
▁helms	-5566
▁hubei	-5567
▁hunan	-5568
▁ignor	-5569
▁impet	-5570
▁index	-5571
▁items	-5572
▁limit	-5573
▁lunch	-5574
▁meant	-5575
▁outer	-5576
▁pione	-5577
▁ranks	-5578
▁recru	-5579
▁relax	-5580
▁repay	-5581
▁rogue	-5582
▁saudi	-5583
▁schem	-5584
▁score	-5585
▁shape	-5586
▁smash	-5587
▁spent	-5588
▁spite	-5589
▁track	-5590
▁urugu	-5591
▁wrote	-5592
▁yield	-5593
▁youth	-5594
▁zones	-5595
aceable	-5596
actions	-5597
atorial	-5598
british	-5599
eninism	-5600
eration	-5601
forcing	-5602
ificent	-5603
ranking	-5604
▁adding	-5605
▁allows	-5606
▁appear	-5607
▁arabia	-5608
▁arouse	-5609
▁behalf	-5610
▁beings	-5611
▁bridge	-5612
▁candid	-5613
▁capita	-5614
▁castro	-5615
▁causes	-5616
▁church	-5617
▁consci	-5618
▁dalian	-5619
▁denied	-5620
▁discri	-5621
▁drills	-5622
▁either	-5623
▁enough	-5624
▁events	-5625
▁explos	-5626
▁fallen	-5627
▁famous	-5628
▁fronts	-5629
▁gorges	-5630
▁hoping	-5631
▁kazakh	-5632
▁kilome	-5633
▁kyrgyz	-5634
▁limits	-5635
▁merits	-5636
▁models	-5637
▁orders	-5638
▁patent	-5639
▁pilots	-5640
▁produc	-5641
▁prolet	-5642
▁pushed	-5643
▁reject	-5644
▁relief	-5645
▁retain	-5646
▁revise	-5647
▁served	-5648
▁serves	-5649
▁sooner	-5650
▁sphere	-5651
▁sports	-5652
▁stages	-5653
▁strain	-5654
▁styles	-5655
▁subsid	-5656
▁summar	-5657
▁taipei	-5658
▁topics	-5659
▁transn	-5660
▁useful	-5661
▁waters	-5662
chemical	-5663
ensional	-5664
fficient	-5665
igration	-5666
istering	-5667
izations	-5668
quarters	-5669
stricken	-5670
▁accords	-5671
▁adheres	-5672
▁arising	-5673
▁arrival	-5674
▁assumed	-5675
▁banning	-5676
▁beliefs	-5677
▁budgets	-5678
▁chapter	-5679
▁checked	-5680
▁climate	-5681
▁college	-5682
▁combine	-5683
▁comprom	-5684
▁conspic	-5685
▁dialect	-5686
▁follows	-5687
▁forming	-5688
▁imports	-5689
▁interim	-5690
▁invited	-5691
▁liaison	-5692
▁managed	-5693
▁massive	-5694
▁noticed	-5695
▁offered	-5696
▁offices	-5697
▁outline	-5698
▁passing	-5699
▁payment	-5700
▁proport	-5701
▁returns	-5702
▁secrets	-5703
▁selling	-5704
▁soberly	-5705
▁someone	-5706
▁speaker	-5707
▁staying	-5708
▁surpass	-5709
▁trading	-5710
▁unequal	-5711
▁varying	-5712
▁victims	-5713
▁wannian	-5714
▁website	-5715
ballistic	-5716
omination	-5717
▁accounts	-5718
▁adjusted	-5719
▁admitted	-5720
▁adopting	-5721
▁advocate	-5722
▁agencies	-5723
▁analyzed	-5724
▁armament	-5725
▁attained	-5726
▁bankrupt	-5727
▁behavior	-5728
▁beidaihe	-5729
▁catholic	-5730
▁circular	-5731
▁criteria	-5732
▁deepened	-5733
▁directed	-5734
▁discover	-5735
▁distingu	-5736
▁drafting	-5737
▁entrance	-5738
▁formally	-5739
▁gathered	-5740
▁includes	-5741
▁infringe	-5742
▁involves	-5743
▁language	-5744
▁manifest	-5745
▁monetary	-5746
▁monopoly	-5747
▁neighbor	-5748
▁occasion	-5749
▁olympics	-5750
▁organize	-5751
▁overwhel	-5752
▁payments	-5753
▁platform	-5754
▁prepared	-5755
▁preserve	-5756
▁prompted	-5757
▁qinghong	-5758
▁revising	-5759
▁revision	-5760
▁setbacks	-5761
▁shoulder	-5762
▁slowdown	-5763
▁software	-5764
▁solution	-5765
▁southern	-5766
▁subjects	-5767
▁subordin	-5768
▁surround	-5769
▁tactical	-5770
▁talented	-5771
▁textbook	-5772
▁unilater	-5773
▁upcoming	-5774
▁vajpayee	-5775
▁violated	-5776
▁whatever	-5777
imensional	-5778
immolation	-5779
ispensable	-5780
▁accidents	-5781
▁answering	-5782
▁collected	-5783
▁criterion	-5784
▁elections	-5785
▁firepower	-5786
▁formalism	-5787
▁gathering	-5788
▁heartfelt	-5789
▁hegemonic	-5790
▁huaicheng	-5791
▁illegally	-5792
▁inaugural	-5793
▁initially	-5794
▁logistics	-5795
▁materials	-5796
▁naturally	-5797
▁observers	-5798
▁pakistani	-5799
▁perfected	-5800
▁performed	-5801
▁policemen	-5802
▁primarily	-5803
▁producing	-5804
▁professor	-5805
▁reduction	-5806
▁relatives	-5807
▁sentences	-5808
▁separated	-5809
▁sovereign	-5810
▁steadfast	-5811
▁stressing	-5812
▁submitted	-5813
▁succeeded	-5814
▁suggested	-5815
▁tiananmen	-5816
▁viewpoint	-5817
▁withstand	-5818
▁advocating	-5819
▁afterwards	-5820
▁commanding	-5821
▁commitment	-5822
▁components	-5823
▁congresses	-5824
▁connection	-5825
▁contingent	-5826
▁coordinate	-5827
▁cultivated	-5828
▁discovered	-5829
▁everywhere	-5830
▁exercising	-5831
▁explicitly	-5832
▁guangsheng	-5833
▁households	-5834
▁kyrgyzstan	-5835
▁navigation	-5836
▁organizing	-5837
▁prefecture	-5838
▁prevention	-5839
▁procurator	-5840
▁profoundly	-5841
▁protective	-5842
▁punishment	-5843
▁reasonable	-5844
▁regardless	-5845
▁registered	-5846
▁scientists	-5847
▁strategies	-5848
▁unexpected	-5849
▁violations	-5850
▁yugoslavia	-5851
▁achievement	-5852
▁arrangement	-5853
▁circulation	-5854
▁combination	-5855
▁criticizing	-5856
▁disciplines	-5857
▁engineering	-5858
▁enhancement	-5859
▁formulation	-5860
▁legislation	-5861
▁magnificent	-5862
▁obligations	-5863
▁philippines	-5864
▁promulgated	-5865
▁recognition	-5866
▁resolutions	-5867
▁stimulating	-5868
▁substantial	-5869
▁substantive	-5870
▁unceasingly	-5871
▁concentrated	-5872
▁conventional	-5873
▁corporations	-5874
▁departmental	-5875
▁dissatisfied	-5876
▁exploitation	-5877
▁guaranteeing	-5878
▁intercepting	-5879
▁participated	-5880
▁resettlement	-5881
▁unilaterally	-5882
▁unswervingly	-5883
▁wholehearted	-5884
▁administering	-5885
▁communication	-5886
▁complementary	-5887
▁indispensable	-5888
▁practitioners	-5889
▁procuratorial	-5890
▁professionals	-5891
▁reconnaisance	-5892
▁transnational	-5893
▁aforementioned	-5894
▁accomplishments	-5895
19	-5896
30	-5897
45	-5898
ah	-5899
aw	-5900
fu	-5901
mo	-5902
ns	-5903
of	-5904
ti	-5905
ya	-5906
yp	-5907
▁%	-5908
100	-5909
200	-5910
amb	-5911
ari	-5912
bed	-5913
cif	-5914
def	-5915
dis	-5916
fty	-5917
ghu	-5918
ige	-5919
ilt	-5920
iny	-5921
jia	-5922
ley	-5923
omu	-5924
osh	-5925
oul	-5926
uct	-5927
une	-5928
▁35	-5929
▁47	-5930
▁49	-5931
▁53	-5932
▁70	-5933
▁90	-5934
▁bi	-5935
▁ho	-5936
▁mu	-5937
▁xi	-5938
,500	-5939
agon	-5940
aken	-5941
ault	-5942
buro	-5943
cher	-5944
chun	-5945
dens	-5946
esse	-5947
gger	-5948
hand	-5949
haps	-5950
itle	-5951
izes	-5952
jing	-5953
llor	-5954
mark	-5955
ocks	-5956
oked	-5957
oles	-5958
omes	-5959
onia	-5960
plan	-5961
quan	-5962
reet	-5963
room	-5964
rust	-5965
spot	-5966
stri	-5967
tion	-5968
uine	-5969
well	-5970
what	-5971
▁10-	-5972
▁abd	-5973
▁bul	-5974
▁chu	-5975
▁cro	-5976
▁dig	-5977
▁fyp	-5978
▁hen	-5979
▁hsu	-5980
▁jer	-5981
▁kin	-5982
▁ldp	-5983
▁lod	-5984
▁los	-5985
▁mic	-5986
▁mit	-5987
▁nov	-5988
▁pru	-5989
▁rob	-5990
▁sam	-5991
▁saw	-5992
▁sev	-5993
▁shu	-5994
▁spy	-5995
▁tmd	-5996
▁une	-5997
▁xie	-5998
▁zhi	-5999
agger	-6000
althy	-6001
anian	-6002
arden	-6003
aught	-6004
chuan	-6005
emies	-6006
enced	-6007
endid	-6008
erson	-6009
gging	-6010
house	-6011
icken	-6012
ihood	-6013
ilong	-6014
inawa	-6015
inted	-6016
inter	-6017
ishes	-6018
izhou	-6019
licop	-6020
milit	-6021
mount	-6022
ollar	-6023
oning	-6024
plete	-6025
separ	-6026
urity	-6027
zhong	-6028
▁1993	-6029
▁2002	-6030
▁aims	-6031
▁cope	-6032
▁dawn	-6033
▁defl	-6034
▁dete	-6035
▁died	-6036
▁ding	-6037
▁empt	-6038
▁feet	-6039
▁film	-6040
▁flew	-6041
▁gold	-6042
▁gore	-6043
▁knew	-6044
▁leng	-6045
▁loan	-6046
▁ones	-6047
▁pays	-6048
▁plus	-6049
▁raid	-6050
▁rice	-6051
▁sets	-6052
▁shel	-6053
▁slog	-6054
▁spur	-6055
▁teen	-6056
▁thai	-6057
▁tool	-6058
▁tram	-6059
▁unhe	-6060
▁wave	-6061
acking	-6062
africa	-6063
asible	-6064
atican	-6065
baijan	-6066
cribed	-6067
ection	-6068
icking	-6069
idable	-6070
itudes	-6071
minate	-6072
nation	-6073
oneous	-6074
ospace	-6075
ounter	-6076
roying	-6077
taiwan	-6078
usalem	-6079
utable	-6080
▁aband	-6081
▁absor	-6082
▁ample	-6083
▁angry	-6084
▁annan	-6085
▁arbit	-6086
▁aside	-6087
▁avail	-6088
▁barak	-6089
▁beach	-6090
▁black	-6091
▁blows	-6092
▁bombs	-6093
▁broke	-6094
▁burst	-6095
▁cease	-6096
▁clean	-6097
▁cohes	-6098
▁conce	-6099
▁corps	-6100
▁daugh	-6101
▁demob	-6102
▁drill	-6103
▁drugs	-6104
▁elder	-6105
▁encro	-6106
▁escal	-6107
▁escap	-6108
▁exped	-6109
▁flour	-6110
▁forge	-6111
▁harsh	-6112
▁helps	-6113
▁hotel	-6114
▁innoc	-6115
▁kejie	-6116
▁leban	-6117
▁livel	-6118
▁lofty	-6119
▁matsu	-6120
▁mines	-6121
▁penet	-6122
▁persu	-6123
▁pharm	-6124
▁posit	-6125
▁radar	-6126
▁rates	-6127
▁ratio	-6128
▁sabot	-6129
▁setup	-6130
▁suppl	-6131
▁tears	-6132
▁troop	-6133
▁troub	-6134
▁uncle	-6135
▁upper	-6136
▁urges	-6137
▁usual	-6138
▁voice	-6139
▁votes	-6140
▁wages	-6141
▁waste	-6142
▁whose	-6143
▁yayan	-6144
cipline	-6145
control	-6146
ensions	-6147
foreign	-6148
holders	-6149
manship	-6150
parency	-6151
ulating	-6152
urement	-6153
utation	-6154
willing	-6155
▁absurd	-6156
▁aerial	-6157
▁armies	-6158
▁arrang	-6159
▁banner	-6160
▁bodies	-6161
▁bought	-6162
▁commod	-6163
▁cotton	-6164
▁deeper	-6165
▁defeat	-6166
▁denoun	-6167
▁doomed	-6168
▁endang	-6169
▁endors	-6170
▁errors	-6171
▁exceed	-6172
▁excess	-6173
▁extrad	-6174
▁extrem	-6175
▁father	-6176
▁flames	-6177
▁flying	-6178
▁forged	-6179
▁foster	-6180
▁fruits	-6181
▁garden	-6182
▁hatred	-6183
▁heroic	-6184
▁implic	-6185
▁infilt	-6186
▁irrepl	-6187
▁jiechi	-6188
▁larger	-6189
▁laying	-6190
▁manned	-6191
▁minors	-6192
▁motive	-6193
▁narrow	-6194
▁nearby	-6195
▁northw	-6196
▁palace	-6197
▁permit	-6198
▁purely	-6199
▁recomm	-6200
▁resent	-6201
▁resign	-6202
▁rocket	-6203
▁saving	-6204
▁settle	-6205
▁solved	-6206
▁soviet	-6207
▁specif	-6208
▁staged	-6209
▁switch	-6210
▁tenure	-6211
▁tranqu	-6212
▁travel	-6213
▁turkey	-6214
▁unfold	-6215
▁volunt	-6216
▁voting	-6217
▁widely	-6218
▁wished	-6219
leninism	-6220
military	-6221
tainment	-6222
ximately	-6223
▁100,000	-6224
▁address	-6225
▁armenia	-6226
▁assault	-6227
▁banking	-6228
▁battles	-6229
▁becomes	-6230
▁burdens	-6231
▁bureauc	-6232
▁calling	-6233
▁compete	-6234
▁courage	-6235
▁damaged	-6236
▁depends	-6237
▁deposit	-6238
▁details	-6239
▁disappe	-6240
▁diverse	-6241
▁enabled	-6242
▁enemies	-6243
▁equally	-6244
▁exerted	-6245
▁feature	-6246
▁flowers	-6247
▁footing	-6248
▁forever	-6249
▁genuine	-6250
▁gradual	-6251
▁grounds	-6252
▁guangxi	-6253
▁guofang	-6254
▁heilong	-6255
▁helicop	-6256
▁highway	-6257
▁honored	-6258
▁ignored	-6259
▁impacts	-6260
▁impetus	-6261
▁inaugur	-6262
▁incomes	-6263
▁insepar	-6264
▁intense	-6265
▁iranian	-6266
▁jiangsu	-6267
▁liberal	-6268
▁linking	-6269
▁machine	-6270
▁marking	-6271
▁monopol	-6272
▁nanjing	-6273
▁okinawa	-6274
▁opposes	-6275
▁passage	-6276
▁perhaps	-6277
▁pretext	-6278
▁quarter	-6279
▁quietly	-6280
▁rebates	-6281
▁records	-6282
▁reduced	-6283
▁restric	-6284
▁seizing	-6285
▁seventh	-6286
▁shocked	-6287
▁smaller	-6288
▁spheres	-6289
▁strikes	-6290
▁subhead	-6291
▁testing	-6292
▁theater	-6293
▁tragedy	-6294
▁trigger	-6295
▁whereby	-6296
▁worries	-6297
risonment	-6298
▁allowing	-6299
▁appealed	-6300
▁avoiding	-6301
▁boosting	-6302
▁branches	-6303
▁breaking	-6304
▁canadian	-6305
▁carriers	-6306
▁commonly	-6307
▁controls	-6308
▁coverage	-6309
▁creation	-6310
▁currency	-6311
▁detailed	-6312
▁deterior	-6313
▁dongshan	-6314
▁enabling	-6315
▁frontier	-6316
▁governor	-6317
▁hearings	-6318
▁highland	-6319
▁informal	-6320
▁informed	-6321
▁judgment	-6322
▁literary	-6323
▁mainstay	-6324
▁memorial	-6325
▁morality	-6326
▁multiple	-6327
▁nepalese	-6328
▁opponent	-6329
▁patterns	-6330
▁sanction	-6331
▁schedule	-6332
▁severely	-6333
▁slightly	-6334
▁somewhat	-6335
▁splendid	-6336
▁striking	-6337
▁tendency	-6338
▁ventures	-6339
▁violence	-6340
▁welcomes	-6341
▁xuanping	-6342
▁zhaoxing	-6343
confidence	-6344
discipline	-6345
technology	-6346
▁academies	-6347
▁accepting	-6348
▁accounted	-6349
▁advocates	-6350
▁aerospace	-6351
▁argentina	-6352
▁armaments	-6353
▁campaigns	-6354
▁carefully	-6355
▁convinced	-6356
▁corporate	-6357
▁defendant	-6358
▁defending	-6359
▁defensive	-6360
▁demanding	-6361
▁democrats	-6362
▁destroyed	-6363
▁emergence	-6364
▁encounter	-6365
▁erroneous	-6366
▁inflation	-6367
▁inspected	-6368
▁integrate	-6369
▁intermedi	-6370
▁jerusalem	-6371
▁marketing	-6372
▁necessity	-6373
▁obstacles	-6374
▁obtaining	-6375
▁politburo	-6376
▁pragmatic	-6377
▁privately	-6378
▁producers	-6379
▁protected	-6380
▁reference	-6381
▁reinforce	-6382
▁religions	-6383
▁sacrifice	-6384
▁selecting	-6385
▁similarly	-6386
▁stimulate	-6387
▁taiwanese	-6388
▁unhealthy	-6389
▁unwilling	-6390
dimensional	-6391
▁aggressive	-6392
▁allocation	-6393
▁amendments	-6394
▁australian	-6395
▁automation	-6396
▁azerbaijan	-6397
▁businesses	-6398
▁capitalism	-6399
▁chancellor	-6400
▁completing	-6401
▁constitute	-6402
▁correction	-6403
▁criticisms	-6404
▁destroying	-6405
▁directions	-6406
▁elementary	-6407
▁engagement	-6408
▁facilitate	-6409
▁faithfully	-6410
▁geological	-6411
▁incomplete	-6412
▁indicating	-6413
▁innovative	-6414
▁institutes	-6415
▁instrument	-6416
▁intentions	-6417
▁kilometers	-6418
▁livelihood	-6419
▁militarism	-6420
▁newspapers	-6421
▁noticeably	-6422
▁obligation	-6423
▁peacefully	-6424
▁philosophy	-6425
▁positively	-6426
▁proportion	-6427
▁rectifying	-6428
▁relocation	-6429
▁separately	-6430
▁separation	-6431
▁servicemen	-6432
▁sufficient	-6433
▁tajikistan	-6434
▁transition	-6435
▁unilateral	-6436
▁vietnamese	-6437
governmental	-6438
▁accordingly	-6439
▁conspicuous	-6440
▁delegations	-6441
▁demobilized	-6442
▁diversified	-6443
▁extensively	-6444
▁manufacture	-6445
▁materialize	-6446
▁procurement	-6447
▁represented	-6448
▁seriousness	-6449
▁specialized	-6450
▁subordinate	-6451
▁surrounding	-6452
▁transferred	-6453
▁understands	-6454
▁universally	-6455
▁associations	-6456
▁considerably	-6457
▁deliberately	-6458
▁disturbances	-6459
▁enthusiastic	-6460
▁geographical	-6461
▁headquarters	-6462
▁heilongjiang	-6463
▁imprisonment	-6464
▁indefinitely	-6465
▁infringement	-6466
▁intensifying	-6467
▁overwhelming	-6468
▁specifically	-6469
▁successively	-6470
▁transparency	-6471
▁unemployment	-6472
▁appropriately	-6473
▁approximately	-6474
▁civilizations	-6475
▁comparatively	-6476
▁demonstrators	-6477
▁entertainment	-6478
▁investigating	-6479
▁irreplaceable	-6480
▁procuratorate	-6481
▁demonstrations	-6482
▁interpretation	-6483
▁wholeheartedly	-6484
▁dissatisfaction	-6485
▁representations	-6486
,6	-6487
63	-6488
co	-6489
gn	-6490
ki	-6491
pk	-6492
qi	-6493
ug	-6494
wp	-6495
yd	-6496
yu	-6497
zz	-6498
▁/	-6499
-16	-6500
ads	-6501
ago	-6502
ana	-6503
app	-6504
ara	-6505
ark	-6506
asy	-6507
avo	-6508
cap	-6509
cer	-6510
cut	-6511
een	-6512
eon	-6513
far	-6514
giv	-6515
hei	-6516
her	-6517
ieu	-6518
imb	-6519
irm	-6520
iro	-6521
jin	-6522
jun	-6523
lad	-6524
lam	-6525
mal	-6526
mod	-6527
oct	-6528
ode	-6529
oir	-6530
oks	-6531
ono	-6532
ote	-6533
ouk	-6534
pao	-6535
pat	-6536
raf	-6537
sea	-6538
tic	-6539
uls	-6540
urt	-6541
vol	-6542
xia	-6543
xts	-6544
yev	-6545
yle	-6546
zbe	-6547
▁64	-6548
▁95	-6549
▁ba	-6550
▁bj	-6551
▁ic	-6552
▁ip	-6553
▁kh	-6554
▁yo	-6555
abor	-6556
aden	-6557
ague	-6558
ails	-6559
ania	-6560
anim	-6561
ards	-6562
arer	-6563
arim	-6564
army	-6565
aser	-6566
aten	-6567
back	-6568
berg	-6569
bone	-6570
char	-6571
emor	-6572
ends	-6573
fall	-6574
fire	-6575
gged	-6576
grav	-6577
hood	-6578
huai	-6579
iger	-6580
ihan	-6581
ilin	-6582
imir	-6583
kang	-6584
leum	-6585
made	-6586
moil	-6587
nect	-6588
otic	-6589
oute	-6590
oved	-6591
oyal	-6592
pped	-6593
rant	-6594
rent	-6595
rich	-6596
tily	-6597
tune	-6598
uchi	-6599
uctu	-6600
unei	-6601
vene	-6602
vest	-6603
wage	-6604
xian	-6605
yard	-6606
yong	-6607
yuan	-6608
▁1.2	-6609
▁1.3	-6610
▁300	-6611
▁ars	-6612
▁ath	-6613
▁ber	-6614
▁bin	-6615
▁bit	-6616
▁bot	-6617
▁bum	-6618
▁cmc	-6619
▁dai	-6620
▁dia	-6621
▁dir	-6622
▁duc	-6623
▁eve	-6624
▁fer	-6625
▁fry	-6626
▁gao	-6627
▁gar	-6628
▁god	-6629
▁hes	-6630
▁hol	-6631
▁jam	-6632
▁kha	-6633
▁lib	-6634
▁mas	-6635
▁mix	-6636
▁oce	-6637
▁omn	-6638
▁pin	-6639
▁pit	-6640
▁rid	-6641
▁soe	-6642
▁sor	-6643
▁tie	-6644
▁tip	-6645
▁ven	-6646
▁via	-6647
▁voc	-6648
▁zai	-6649
ables	-6650
aceut	-6651
acing	-6652
aldiv	-6653
aling	-6654
arded	-6655
bered	-6656
bound	-6657
dated	-6658
erger	-6659
erior	-6660
erred	-6661
haust	-6662
icide	-6663
ience	-6664
inson	-6665
isons	-6666
itage	-6667
itime	-6668
limin	-6669
orily	-6670
owing	-6671
pling	-6672
rated	-6673
rench	-6674
sofar	-6675
stage	-6676
sters	-6677
stige	-6678
strum	-6679
tiary	-6680
udong	-6681
ument	-6682
under	-6683
uries	-6684
xious	-6685
zheng	-6686
▁1950	-6687
▁1979	-6688
▁arch	-6689
▁band	-6690
▁bloc	-6691
▁bomb	-6692
▁bond	-6693
▁brig	-6694
▁budd	-6695
▁busy	-6696
▁camp	-6697
▁cars	-6698
▁ceas	-6699
▁cher	-6700
▁comf	-6701
▁cool	-6702
▁copy	-6703
▁dare	-6704
▁dict	-6705
▁dieh	-6706
▁elev	-6707
▁famc	-6708
▁fare	-6709
▁fasc	-6710
▁fest	-6711
▁file	-6712
▁forg	-6713
▁glad	-6714
▁gree	-6715
▁guan	-6716
▁hill	-6717
▁inap	-6718
▁insu	-6719
▁kang	-6720
▁kono	-6721
▁lama	-6722
▁ling	-6723
▁meat	-6724
▁mide	-6725
▁mush	-6726
▁pack	-6727
▁pent	-6728
▁phys	-6729
▁rand	-6730
▁rebu	-6731
▁reop	-6732
▁ring	-6733
▁risk	-6734
▁rout	-6735
▁sees	-6736
▁sequ	-6737
▁sons	-6738
▁spot	-6739
▁swim	-6740
▁symb	-6741
▁tone	-6742
▁tong	-6743
▁tort	-6744
▁turk	-6745
▁ugly	-6746
▁unne	-6747
▁unsh	-6748
▁uzbe	-6749
▁vers	-6750
▁vlad	-6751
▁ward	-6752
▁yosh	-6753
▁yush	-6754
arimov	-6755
atical	-6756
ceding	-6757
contro	-6758
estone	-6759
iances	-6760
iaries	-6761
iently	-6762
istian	-6763
itable	-6764
minded	-6765
nanhai	-6766
pelled	-6767
public	-6768
raints	-6769
rating	-6770
remacy	-6771
resist	-6772
riding	-6773
roeder	-6774
venant	-6775
vering	-6776
verted	-6777
▁3,000	-6778
▁4,000	-6779
▁abund	-6780
▁accus	-6781
▁aides	-6782
▁alger	-6783
▁allev	-6784
▁alloc	-6785
▁ambig	-6786
▁arrow	-6787
▁bills	-6788
▁brain	-6789
▁brave	-6790
▁cheap	-6791
▁chuny	-6792
▁cohen	-6793
▁croat	-6794
▁crops	-6795
▁dilig	-6796
▁disse	-6797
▁embar	-6798
▁empty	-6799
▁envoy	-6800
▁estim	-6801
▁exile	-6802
▁feels	-6803
▁flags	-6804
▁giant	-6805
▁guest	-6806
▁heres	-6807
▁islam	-6808
▁kyoto	-6809
▁latin	-6810
▁looks	-6811
▁loyal	-6812
▁luong	-6813
▁maced	-6814
▁micro	-6815
▁modes	-6816
▁mouth	-6817
▁multi	-6818
▁norms	-6819
▁notes	-6820
▁offer	-6821
▁overt	-6822
▁phieu	-6823
▁phone	-6824
▁pleas	-6825
▁ports	-6826
▁posed	-6827
▁postp	-6828
▁quota	-6829
▁renew	-6830
▁renov	-6831
▁roles	-6832
▁sharp	-6833
▁shell	-6834
▁sihan	-6835
▁smart	-6836
▁stern	-6837
▁stood	-6838
▁surpr	-6839
▁tanks	-6840
▁tenet	-6841
▁thank	-6842
▁threw	-6843
▁throw	-6844
▁title	-6845
▁tries	-6846
▁types	-6847
▁unavo	-6848
▁unres	-6849
▁vangu	-6850
▁wheat	-6851
▁wider	-6852
▁worry	-6853
▁yohei	-6854
▁zheng	-6855
achment	-6856
african	-6857
bearing	-6858
cessary	-6859
changed	-6860
defense	-6861
icating	-6862
ilizing	-6863
pointed	-6864
raining	-6865
shaking	-6866
staking	-6867
ulously	-6868
zerland	-6869
▁absorb	-6870
▁access	-6871
▁advert	-6872
▁agency	-6873
▁aggrav	-6874
▁altern	-6875
▁angang	-6876
▁angles	-6877
▁apolog	-6878
▁arbitr	-6879
▁arrive	-6880
▁asking	-6881
▁astron	-6882
▁athlet	-6883
▁banned	-6884
▁berger	-6885
▁bigger	-6886
▁bluepr	-6887
▁boldly	-6888
▁ceased	-6889
▁chiefs	-6890
▁circle	-6891
▁clique	-6892
▁connot	-6893
▁covers	-6894
▁covert	-6895
▁devote	-6896
▁dispar	-6897
▁distin	-6898
▁doctor	-6899
▁donald	-6900
▁enrich	-6901
▁except	-6902
▁excuse	-6903
▁fellow	-6904
▁filled	-6905
▁fluctu	-6906
▁fought	-6907
▁handed	-6908
▁harmed	-6909
▁harmon	-6910
▁headed	-6911
▁hearts	-6912
▁heated	-6913
▁homage	-6914
▁indisc	-6915
▁instig	-6916
▁jinhua	-6917
▁judged	-6918
▁kinmen	-6919
▁lasted	-6920
▁lately	-6921
▁length	-6922
▁liable	-6923
▁listen	-6924
▁mighty	-6925
▁myself	-6926
▁needed	-6927
▁observ	-6928
▁persec	-6929
▁places	-6930
▁prison	-6931
▁prompt	-6932
▁ranked	-6933
▁recall	-6934
▁refere	-6935
▁remote	-6936
▁repair	-6937
▁revers	-6938
▁rumors	-6939
▁rushed	-6940
▁saddam	-6941
▁scenes	-6942
▁seeing	-6943
▁seized	-6944
▁sewage	-6945
▁shores	-6946
▁silent	-6947
▁simple	-6948
▁storms	-6949
▁street	-6950
▁summed	-6951
▁thinks	-6952
▁transp	-6953
▁unanim	-6954
▁unions	-6955
▁viewed	-6956
▁waging	-6957
▁wanton	-6958
▁warned	-6959
▁wonder	-6960
▁yunnan	-6961
atorship	-6962
liminary	-6963
perature	-6964
yongyang	-6965
▁addicts	-6966
▁adviser	-6967
▁apology	-6968
▁appears	-6969
▁belongs	-6970
▁bidding	-6971
▁blocked	-6972
▁chaotic	-6973
▁charter	-6974
▁chengdu	-6975
▁closing	-6976
▁commend	-6977
▁conspir	-6978
▁convers	-6979
▁convert	-6980
▁covered	-6981
▁decline	-6982
▁decreas	-6983
▁descend	-6984
▁dismiss	-6985
▁dragged	-6986
▁dropped	-6987
▁earthqu	-6988
▁edition	-6989
▁educate	-6990
▁elevate	-6991
▁english	-6992
▁enjoyed	-6993
▁ensured	-6994
▁entrust	-6995
▁evasive	-6996
▁falling	-6997
▁farther	-6998
▁forging	-6999
▁founded	-7000
▁hanging	-7001
▁harness	-7002
▁heights	-7003
▁hostile	-7004
▁hungary	-7005
▁insofar	-7006
▁issuing	-7007
▁karimov	-7008
▁killing	-7009
▁leaving	-7010
▁mideast	-7011
▁mingwei	-7012
▁monitor	-7013
▁motives	-7014
▁objects	-7015
▁ongoing	-7016
▁ordered	-7017
▁passive	-7018
▁portion	-7019
▁predict	-7020
▁pursues	-7021
▁qinghai	-7022
▁quanyou	-7023
▁ranking	-7024
▁receive	-7025
▁removed	-7026
▁revital	-7027
▁rostrum	-7028
▁salvage	-7029
▁schemes	-7030
▁scholar	-7031
▁senator	-7032
▁soldier	-7033
▁stories	-7034
▁strange	-7035
▁tapping	-7036
▁textile	-7037
▁tianjin	-7038
▁tighten	-7039
▁turmoil	-7040
▁upgrade	-7041
▁uruguay	-7042
▁vatican	-7043
▁vessels	-7044
▁vicious	-7045
▁violate	-7046
▁waiting	-7047
▁writing	-7048
▁yuanhua	-7049
▁zhenghu	-7050
aceutical	-7051
astically	-7052
atization	-7053
istration	-7054
propriate	-7055
▁accommod	-7056
▁acquired	-7057
▁adequate	-7058
▁applause	-7059
▁arriving	-7060
▁arrogant	-7061
▁artistic	-7062
▁backbone	-7063
▁cautious	-7064
▁centered	-7065
▁chairmen	-7066
▁checking	-7067
▁colonial	-7068
▁commemor	-7069
▁conducts	-7070
▁confeder	-7071
▁conforms	-7072
▁covenant	-7073
▁covering	-7074
▁declined	-7075
▁designed	-7076
▁embodied	-7077
▁emerging	-7078
▁enjoying	-7079
▁evidence	-7080
▁examined	-7081
▁executed	-7082
▁expenses	-7083
▁factions	-7084
▁farewell	-7085
▁feasible	-7086
▁festival	-7087
▁flexible	-7088
▁focusing	-7089
▁forceful	-7090
▁hangzhou	-7091
▁hardship	-7092
▁humanity	-7093
▁inferior	-7094
▁innocent	-7095
▁insisted	-7096
▁inspired	-7097
▁instruct	-7098
▁invested	-7099
▁issuance	-7100
▁juncture	-7101
▁liaoning	-7102
▁luncheon	-7103
▁maritime	-7104
▁minerals	-7105
▁missions	-7106
▁monument	-7107
▁needless	-7108
▁obsessed	-7109
▁occupied	-7110
▁pentagon	-7111
▁prestige	-7112
▁pretexts	-7113
▁promised	-7114
▁prospect	-7115
▁quantity	-7116
▁quarters	-7117
▁reformed	-7118
▁reliable	-7119
▁remember	-7120
▁robinson	-7121
▁servants	-7122
▁sihanouk	-7123
▁speeches	-7124
▁stations	-7125
▁surmount	-7126
▁suspects	-7127
▁tertiary	-7128
▁touching	-7129
▁troubles	-7130
▁ushering	-7131
▁violates	-7132
▁vladimir	-7133
▁whenever	-7134
generation	-7135
▁academics	-7136
▁acknowled	-7137
▁alliances	-7138
▁analyzing	-7139
▁assisting	-7140
▁attaining	-7141
▁available	-7142
▁ballistic	-7143
▁believing	-7144
▁benefited	-7145
▁cambodian	-7146
▁ceaseless	-7147
▁christian	-7148
▁competent	-7149
▁computers	-7150
▁conferred	-7151
▁conscious	-7152
▁continent	-7153
▁continues	-7154
▁convening	-7155
▁copyright	-7156
▁corrected	-7157
▁deflation	-7158
▁deterrent	-7159
▁educating	-7160
▁exploring	-7161
▁expresses	-7162
▁extending	-7163
▁formation	-7164
▁frontline	-7165
▁gangchuan	-7166
▁graduates	-7167
▁gratitude	-7168
▁happiness	-7169
▁ignorance	-7170
▁importing	-7171
▁intervene	-7172
▁introduce	-7173
▁judgement	-7174
▁milestone	-7175
▁northeast	-7176
▁occupying	-7177
▁offensive	-7178
▁permitted	-7179
▁petroleum	-7180
▁possessed	-7181
▁possesses	-7182
▁proactive	-7183
▁proposing	-7184
▁qualified	-7185
▁receiving	-7186
▁regularly	-7187
▁reiterate	-7188
▁reviewing	-7189
▁rightwing	-7190
▁schroeder	-7191
▁secondary	-7192
▁sentenced	-7193
▁shoulders	-7194
▁subsidies	-7195
▁supervise	-7196
▁supremacy	-7197
▁temporary	-7198
▁terrorism	-7199
▁unchanged	-7200
▁villagers	-7201
▁violation	-7202
▁appreciate	-7203
▁associated	-7204
▁attendance	-7205
▁attracting	-7206
▁attributed	-7207
▁bankruptcy	-7208
▁capitalist	-7209
▁commanders	-7210
▁communique	-7211
▁comparison	-7212
▁compromise	-7213
▁confronted	-7214
▁conscience	-7215
▁contention	-7216
▁controvers	-7217
▁convenient	-7218
▁detachment	-7219
▁difference	-7220
▁eliminated	-7221
▁embodiment	-7222
▁encouraged	-7223
▁exchanging	-7224
▁furthering	-7225
▁geographic	-7226
▁gratifying	-7227
▁greenhouse	-7228
▁inevitable	-7229
▁kazakhstan	-7230
▁laboratory	-7231
▁managerial	-7232
▁minorities	-7233
▁nomination	-7234
▁optimistic	-7235
▁overriding	-7236
▁patriotism	-7237
▁perfecting	-7238
▁permission	-7239
▁persistent	-7240
▁presidents	-7241
▁previously	-7242
▁processing	-7243
▁prohibited	-7244
▁publishing	-7245
▁purchasing	-7246
▁quickening	-7247
▁reflection	-7248
▁reputation	-7249
▁restricted	-7250
▁separatism	-7251
▁simulation	-7252
▁stipulated	-7253
▁subjective	-7254
▁summarized	-7255
▁techniques	-7256
▁unresolved	-7257
▁uzbekistan	-7258
▁vocational	-7259
▁accumulated	-7260
▁adjustments	-7261
▁afghanistan	-7262
▁appreciated	-7263
▁approaching	-7264
▁backgrounds	-7265
▁consequence	-7266
▁contributed	-7267
▁counterpart	-7268
▁cultivating	-7269
▁emancipated	-7270
▁explanation	-7271
▁extradition	-7272
▁flourishing	-7273
▁helicopters	-7274
▁hospitality	-7275
▁importantly	-7276
▁inseparable	-7277
▁instruments	-7278
▁nationalist	-7279
▁nationality	-7280
▁painstaking	-7281
▁possibility	-7282
▁prefectural	-7283
▁preliminary	-7284
▁preparation	-7285
▁progressive	-7286
▁proletarian	-7287
▁publicizing	-7288
▁reinforcing	-7289
▁reorganized	-7290
▁republicans	-7291
▁secretaries	-7292
▁supervisory	-7293
▁switzerland	-7294
▁undermining	-7295
▁unnecessary	-7296
▁zhongnanhai	-7297
▁accompanying	-7298
▁advantageous	-7299
▁broadcasting	-7300
▁consequently	-7301
▁conservation	-7302
▁considerable	-7303
▁conversation	-7304
▁dictatorship	-7305
▁emancipating	-7306
▁environments	-7307
▁experiencing	-7308
▁explanations	-7309
▁facilitating	-7310
▁productivity	-7311
▁publications	-7312
▁ratification	-7313
▁shareholders	-7314
▁standardized	-7315
▁transmission	-7316
▁unexpectedly	-7317
▁antisatellite	-7318
▁authoritative	-7319
▁congressional	-7320
▁conscientious	-7321
▁inappropriate	-7322
▁intellectuals	-7323
▁manufacturers	-7324
▁parliamentary	-7325
▁personalities	-7326
▁psychological	-7327
▁traditionally	-7328
▁unilateralism	-7329
▁accomplishment	-7330
▁discrimination	-7331
▁manifestations	-7332
▁municipalities	-7333
▁pharmaceutical	-7334
▁satisfactorily	-7335
▁transportation	-7336
▁revolutionaries	-7337
10	-7338
np	-7339
800	-7340
acc	-7341
ama	-7342
aze	-7343
bia	-7344
cks	-7345
cyc	-7346
ede	-7347
eva	-7348
fei	-7349
fia	-7350
gid	-7351
iff	-7352
iii	-7353
iko	-7354
lap	-7355
lim	-7356
oof	-7357
qog	-7358
rul	-7359
see	-7360
tai	-7361
tse	-7362
ugu	-7363
uma	-7364
▁2,	-7365
▁3,	-7366
▁36	-7367
▁38	-7368
▁55	-7369
▁63	-7370
▁69	-7371
▁72	-7372
▁76	-7373
▁96	-7374
▁ms	-7375
▁ze	-7376
,599	-7377
,600	-7378
acle	-7379
aker	-7380
appy	-7381
apse	-7382
aunt	-7383
aust	-7384
ayev	-7385
band	-7386
biao	-7387
burg	-7388
ccan	-7389
cest	-7390
clad	-7391
cult	-7392
duty	-7393
gain	-7394
ghte	-7395
hore	-7396
ideo	-7397
iest	-7398
ifts	-7399
.6	-7400
bra	-7401
cib	-7402
cur	-7403
ink	-7404
lez	-7405
pet	-7406
pro	-7407
rap	-7408
▁dc	-7409
brid	-7410
eter	-7411
igor	-7412
ikou	-7413
iled	-7414
inte	-7415
iyan	-7416
kore	-7417
laim	-7418
lock	-7419
loqu	-7420
mail	-7421
nast	-7422
ndum	-7423
oddy	-7424
omot	-7425
opic	-7426
pcwp	-7427
pien	-7428
poch	-7429
prus	-7430
rian	-7431
ript	-7432
rium	-7433
rmal	-7434
root	-7435
sson	-7436
tseh	-7437
uban	-7438
ubar	-7439
ught	-7440
ulla	-7441
utch	-7442
vity	-7443
yond	-7444
zamb	-7445
zhao	-7446
▁1.1	-7447
▁150	-7448
▁194	-7449
▁6.5	-7450
▁700	-7451
▁8.2	-7452
▁agn	-7453
▁awe	-7454
▁bub	-7455
▁cai	-7456
▁cel	-7457
▁cia	-7458
▁cry	-7459
▁fbi	-7460
▁fei	-7461
▁flo	-7462
▁fog	-7463
▁gnp	-7464
▁hor	-7465
▁hus	-7466
▁hyd	-7467
▁jur	-7468
▁kel	-7469
▁lic	-7470
▁mof	-7471
▁mud	-7472
▁opt	-7473
▁pon	-7474
▁qat	-7475
▁qia	-7476
▁rac	-7477
▁rua	-7478
▁tow	-7479
▁unh	-7480
▁ups	-7481
▁web	-7482
▁wpk	-7483
▁yen	-7484
abric	-7485
added	-7486
adena	-7487
aints	-7488
alian	-7489
amber	-7490
angdi	-7491
aohan	-7492
ardst	-7493
arraf	-7494
ashes	-7495
atami	-7496
ateau	-7497
atism	-7498
aunch	-7499
ls	-7500
ato	-7501
cuo	-7502
div	-7503
fin	-7504
oes	-7505
qin	-7506
tom	-7507
▁cc	-7508
▁lh	-7509
▁ss	-7510
eers	-7511
ilan	-7512
irds	-7513
oman	-7514
post	-7515
quid	-7516
rime	-7517
uten	-7518
▁863	-7519
▁haw	-7520
▁ipu	-7521
▁som	-7522
▁sri	-7523
▁tom	-7524
anese	-7525
ching	-7526
cibly	-7527
deter	-7528
dsmen	-7529
eases	-7530
ecess	-7531
echen	-7532
euver	-7533
front	-7534
gered	-7535
heads	-7536
iairc	-7537
iform	-7538
iping	-7539
ivism	-7540
march	-7541
mpant	-7542
nerst	-7543
oldov	-7544
ombia	-7545
ondon	-7546
ongol	-7547
orers	-7548
ortun	-7549
osure	-7550
otent	-7551
otten	-7552
ouses	-7553
peror	-7554
phant	-7555
qiang	-7556
reage	-7557
ricts	-7558
rooke	-7559
rooms	-7560
shore	-7561
style	-7562
ubmar	-7563
uding	-7564
ulent	-7565
ultan	-7566
utors	-7567
▁1954	-7568
▁1989	-7569
▁ange	-7570
▁anim	-7571
▁aren	-7572
▁asks	-7573
▁atom	-7574
▁auto	-7575
▁balk	-7576
▁bing	-7577
▁blat	-7578
▁boss	-7579
▁buhe	-7580
▁burn	-7581
▁calc	-7582
▁capt	-7583
▁cass	-7584
▁cite	-7585
▁code	-7586
▁cogn	-7587
▁cuts	-7588
▁doct	-7589
▁draf	-7590
▁drag	-7591
▁dual	-7592
▁dull	-7593
▁duma	-7594
▁dupl	-7595
▁dust	-7596
▁elim	-7597
▁enge	-7598
▁fang	-7599
bb	-7600
fi	-7601
ho	-7602
mm	-7603
dao	-7604
itt	-7605
jud	-7606
ney	-7607
▁ep	-7608
▁hw	-7609
▁pu	-7610
icit	-7611
isan	-7612
lude	-7613
mmet	-7614
oral	-7615
▁1.6	-7616
▁iis	-7617
▁yue	-7618
ariat	-7619
arity	-7620
bacco	-7621
eland	-7622
eries	-7623
inger	-7624
pract	-7625
rious	-7626
▁agni	-7627
▁else	-7628
▁fars	-7629
▁fees	-7630
▁fish	-7631
▁folk	-7632
▁fond	-7633
▁forb	-7634
▁frag	-7635
▁frig	-7636
▁fuel	-7637
▁guox	-7638
▁hack	-7639
▁halt	-7640
▁holb	-7641
▁huai	-7642
▁inex	-7643
▁isol	-7644
▁keen	-7645
▁kiss	-7646
▁lags	-7647
▁lhas	-7648
▁lift	-7649
▁loud	-7650
▁luck	-7651
▁mini	-7652
▁myst	-7653
▁ning	-7654
▁ours	-7655
▁pert	-7656
▁pose	-7657
▁pull	-7658
▁rank	-7659
▁reck	-7660
▁reco	-7661
▁rend	-7662
▁repr	-7663
▁ripe	-7664
▁sail	-7665
▁sake	-7666
▁sale	-7667
▁salt	-7668
▁sand	-7669
▁scre	-7670
▁seas	-7671
▁seat	-7672
▁seem	-7673
▁shed	-7674
▁shih	-7675
▁shut	-7676
▁sick	-7677
▁size	-7678
▁soar	-7679
▁sort	-7680
▁soul	-7681
▁spit	-7682
▁stra	-7683
▁subs	-7684
▁tony	-7685
▁trag	-7686
▁trig	-7687
▁unip	-7688
▁unst	-7689
▁vain	-7690
▁visa	-7691
▁wait	-7692
▁wall	-7693
amount	-7694
arance	-7695
arians	-7696
artial	-7697
ayanan	-7698
brazil	-7699
do	-7700
sk	-7701
yi	-7702
hun	-7703
yin	-7704
zen	-7705
▁ak	-7706
feng	-7707
imes	-7708
uits	-7709
icine	-7710
reath	-7711
▁aver	-7712
▁luoy	-7713
▁nurt	-7714
▁pair	-7715
▁shan	-7716
ctures	-7717
ecided	-7718
eeable	-7719
estial	-7720
ighter	-7721
indian	-7722
irable	-7723
ividly	-7724
licted	-7725
liness	-7726
loving	-7727
minent	-7728
nected	-7729
onable	-7730
person	-7731
planes	-7732
ported	-7733
racted	-7734
ratism	-7735
relief	-7736
ricate	-7737
ruling	-7738
strike	-7739
terior	-7740
ubarak	-7741
uguese	-7742
umping	-7743
▁1,000	-7744
▁2,000	-7745
▁6,599	-7746
▁admir	-7747
▁admit	-7748
▁alleg	-7749
▁arena	-7750
▁arsen	-7751
▁audit	-7752
▁blame	-7753
▁borne	-7754
▁brook	-7755
▁buddh	-7756
▁burma	-7757
▁cable	-7758
▁cards	-7759
▁catch	-7760
▁check	-7761
▁chose	-7762
▁coinc	-7763
▁compr	-7764
▁conqu	-7765
▁dealt	-7766
▁decor	-7767
▁delay	-7768
▁dense	-7769
▁depri	-7770
▁disag	-7771
▁downs	-7772
▁dozen	-7773
▁eloqu	-7774
▁embra	-7775
▁epoch	-7776
▁evade	-7777
▁faces	-7778
▁falls	-7779
▁farce	-7780
▁gains	-7781
▁grams	-7782
▁grate	-7783
▁gross	-7784
▁hesit	-7785
▁ideal	-7786
▁inner	-7787
▁innum	-7788
▁inund	-7789
▁jesse	-7790
▁jilin	-7791
▁jinan	-7792
▁keeps	-7793
▁lands	-7794
▁laser	-7795
▁leads	-7796
▁leaps	-7797
▁lease	-7798
▁lenin	-7799
▁lhasa	-7800
▁lings	-7801
▁logic	-7802
▁lpcwp	-7803
▁lying	-7804
▁magic	-7805
▁marks	-7806
▁marsh	-7807
▁maxim	-7808
▁merge	-7809
▁merit	-7810
▁miles	-7811
▁mixed	-7812
▁music	-7813
▁named	-7814
▁ocean	-7815
▁panel	-7816
▁plots	-7817
▁proof	-7818
▁qatar	-7819
▁ranch	-7820
▁realm	-7821
▁reass	-7822
▁recip	-7823
▁recyc	-7824
▁reloc	-7825
▁reply	-7826
▁rigid	-7827
▁route	-7828
▁sanya	-7829
▁seats	-7830
▁seeks	-7831
▁selez	-7832
▁seoul	-7833
▁shack	-7834
▁shake	-7835
▁shame	-7836
▁sheng	-7837
▁shock	-7838
▁signs	-7839
▁songs	-7840
▁sorry	-7841
▁spare	-7842
▁spect	-7843
▁steel	-7844
▁story	-7845
▁stret	-7846
▁suits	-7847
▁tells	-7848
▁tides	-7849
▁tower	-7850
▁trail	-7851
▁trick	-7852
▁truck	-7853
▁trump	-7854
▁twice	-7855
▁ultra	-7856
▁unite	-7857
▁users	-7858
▁vague	-7859
▁voted	-7860
▁walks	-7861
▁wives	-7862
▁wound	-7863
▁zaixi	-7864
century	-7865
cession	-7866
ctional	-7867
fulness	-7868
ghteous	-7869
givings	-7870
ificial	-7871
ilation	-7872
iliated	-7873
inental	-7874
issions	-7875
istical	-7876
ivalent	-7877
osition	-7878
quarter	-7879
ription	-7880
straits	-7881
tenance	-7882
traffic	-7883
volence	-7884
▁10,000	-7885
▁5,000-	-7886
▁admits	-7887
▁adopts	-7888
▁affirm	-7889
▁agents	-7890
▁aiding	-7891
▁applic	-7892
▁ardent	-7893
▁atomic	-7894
▁baltic	-7895
▁battal	-7896
▁begins	-7897
▁benign	-7898
▁beyond	-7899
▁borrow	-7900
▁bottom	-7901
▁brains	-7902
▁briber	-7903
▁bright	-7904
▁bubble	-7905
▁buying	-7906
▁calmly	-7907
▁canada	-7908
▁cancel	-7909
▁caught	-7910
▁claims	-7911
▁clamor	-7912
▁coasts	-7913
▁consec	-7914
▁consid	-7915
▁coping	-7916
▁couple	-7917
▁crises	-7918
▁cyprus	-7919
▁daohan	-7920
▁decade	-7921
▁devalu	-7922
▁diamon	-7923
▁dished	-7924
▁dispos	-7925
▁driven	-7926
▁dynast	-7927
▁editor	-7928
▁elabor	-7929
▁embody	-7930
▁emerge	-7931
▁ending	-7932
▁enters	-7933
▁estate	-7934
▁evoked	-7935
▁exempt	-7936
▁fabric	-7937
▁farces	-7938
▁faster	-7939
▁ferret	-7940
▁flaunt	-7941
▁forest	-7942
▁french	-7943
▁fright	-7944
▁geneva	-7945
▁guards	-7946
▁haikou	-7947
▁harder	-7948
▁hsiung	-7949
▁impose	-7950
▁insign	-7951
▁ivanov	-7952
▁kadena	-7953
▁lahore	-7954
▁landed	-7955
▁lawful	-7956
▁lawyer	-7957
▁legqog	-7958
▁lifted	-7959
▁liquid	-7960
▁lively	-7961
▁locked	-7962
▁london	-7963
▁mental	-7964
▁meters	-7965
▁mining	-7966
▁minute	-7967
▁mirage	-7968
▁mongol	-7969
▁mozamb	-7970
▁multin	-7971
▁native	-7972
▁nobody	-7973
▁obuchi	-7974
▁online	-7975
▁overth	-7976
▁patrol	-7977
▁peiyan	-7978
▁pieces	-7979
▁plural	-7980
▁poland	-7981
▁ponder	-7982
▁potato	-7983
▁qiaomu	-7984
▁random	-7985
▁realms	-7986
▁remold	-7987
▁renoun	-7988
▁script	-7989
▁seated	-7990
▁shanxi	-7991
▁shield	-7992
▁shoddy	-7993
▁signal	-7994
▁slogan	-7995
▁solely	-7996
▁sought	-7997
▁southe	-7998
▁spared	-7999
▁stayed	-8000
▁stream	-8001
▁submit	-8002
▁suppor	-8003
▁suspic	-8004
▁symbol	-8005
▁syrian	-8006
▁tanaka	-8007
▁tariff	-8008
▁tempor	-8009
▁termin	-8010
▁themes	-8011
▁theses	-8012
▁thrust	-8013
▁underw	-8014
▁unjust	-8015
▁unlike	-8016
▁unreas	-8017
▁urging	-8018
▁valley	-8019
▁valued	-8020
▁varied	-8021
▁voters	-8022
▁walked	-8023
▁worker	-8024
▁wreath	-8025
▁yardst	-8026
▁youths	-8027
▁yushun	-8028
breaking	-8029
ellation	-8030
employed	-8031
european	-8032
ineering	-8033
munition	-8034
official	-8035
ubmarine	-8036
▁abandon	-8037
▁acreage	-8038
▁adverse	-8039
▁affects	-8040
▁algeria	-8041
▁analyst	-8042
▁angeles	-8043
▁answers	-8044
▁anxious	-8045
▁anytime	-8046
▁applied	-8047
▁armored	-8048
▁assured	-8049
▁augment	-8050
▁authors	-8051
▁balkans	-8052
▁banners	-8053
▁bargain	-8054
▁benefic	-8055
▁blindly	-8056
▁bombers	-8057
▁bounden	-8058
▁brigade	-8059
▁centers	-8060
▁chamber	-8061
▁chechen	-8062
▁chunyun	-8063
▁citizen	-8064
▁clashes	-8065
▁clearer	-8066
▁closest	-8067
▁colonel	-8068
▁comfort	-8069
▁compens	-8070
▁contest	-8071
▁cracked	-8072
▁croatia	-8073
▁curbing	-8074
▁dealers	-8075
▁deceive	-8076
▁declare	-8077
▁defined	-8078
▁delayed	-8079
▁diehard	-8080
▁digital	-8081
▁display	-8082
▁disrupt	-8083
▁elderly	-8084
▁emperor	-8085
▁ethical	-8086
▁exagger	-8087
▁execute	-8088
▁expense	-8089
▁explain	-8090
▁failing	-8091
▁favored	-8092
▁forests	-8093
▁gaining	-8094
▁gerhard	-8095
▁gravity	-8096
▁guangen	-8097
▁handful	-8098
▁happens	-8099
▁harmful	-8100
▁harmony	-8101
▁harvest	-8102
▁hastily	-8103
▁heading	-8104
▁hosting	-8105
▁husband	-8106
▁iceland	-8107
▁illness	-8108
▁imagine	-8109
▁injured	-8110
▁insider	-8111
▁insists	-8112
▁islamic	-8113
▁italian	-8114
▁jiangxi	-8115
▁jinlong	-8116
▁kingdom	-8117
▁lagging	-8118
▁lawyers	-8119
▁leaking	-8120
▁lebanon	-8121
▁locomot	-8122
▁meaning	-8123
▁mineral	-8124
▁miracle	-8125
▁missing	-8126
▁morocco	-8127
▁mubarak	-8128
▁ningxia	-8129
▁nowhere	-8130
▁options	-8131
▁organic	-8132
▁parking	-8133
▁patents	-8134
▁picture	-8135
▁plateau	-8136
▁plotted	-8137
▁politic	-8138
▁preface	-8139
▁propose	-8140
▁provoke	-8141
▁prudent	-8142
▁qinglin	-8143
▁quicken	-8144
▁railway	-8145
▁rampant	-8146
▁reaches	-8147
▁readers	-8148
▁reading	-8149
▁recruit	-8150
▁refrain	-8151
▁restore	-8152
▁resumed	-8153
▁retired	-8154
▁revival	-8155
▁richard	-8156
▁romania	-8157
▁routine	-8158
▁salient	-8159
▁satisfy	-8160
▁shaomin	-8161
▁shipped	-8162
▁smashed	-8163
▁spurred	-8164
▁staunch	-8165
▁strives	-8166
▁student	-8167
▁subsequ	-8168
▁summing	-8169
▁talents	-8170
▁thermal	-8171
▁tieying	-8172
▁tobacco	-8173
▁totaled	-8174
▁touched	-8175
▁tourist	-8176
▁trained	-8177
▁transit	-8178
▁turkmen	-8179
▁undergo	-8180
▁unhappy	-8181
▁ushered	-8182
▁usually	-8183
▁uttered	-8184
▁venture	-8185
▁vividly	-8186
▁wavered	-8187
▁whoever	-8188
▁widened	-8189
▁wording	-8190
▁yielded	-8191
▁yoshiro	-8192
brazilian	-8193
efficient	-8194
iaircraft	-8195
satellite	-8196
▁abundant	-8197
▁accurate	-8198
▁advances	-8199
▁advocacy	-8200
▁amending	-8201
▁applying	-8202
▁appraise	-8203
▁argument	-8204
▁athletes	-8205
▁awaiting	-8206
▁backyard	-8207
▁balanced	-8208
▁barriers	-8209
▁blockade	-8210
▁brothers	-8211
▁canceled	-8212
▁category	-8213
▁certific	-8214
▁circuits	-8215
▁collapse	-8216
▁comeback	-8217
▁convened	-8218
▁cornerst	-8219
▁creative	-8220
▁deadline	-8221
▁deadlock	-8222
▁defended	-8223
▁delivery	-8224
▁demanded	-8225
▁detector	-8226
▁diseases	-8227
▁distinct	-8228
▁doctrine	-8229
▁downward	-8230
▁dynamite	-8231
▁egyptian	-8232
▁embodies	-8233
▁emotions	-8234
▁employed	-8235
▁encroach	-8236
▁endorsed	-8237
▁enlarged	-8238
▁enriched	-8239
▁entities	-8240
▁forcibly	-8241
▁hegemony	-8242
▁herdsmen	-8243
▁holdings	-8244
▁homicide	-8245
▁hundreds	-8246
▁ignoring	-8247
▁imminent	-8248
▁impeding	-8249
▁indicate	-8250
▁indiscri	-8251
▁inquired	-8252
▁intended	-8253
▁laborers	-8254
▁leftists	-8255
▁legacies	-8256
▁likewise	-8257
▁lingshui	-8258
▁malpract	-8259
▁maneuver	-8260
▁manpower	-8261
▁maturity	-8262
▁meantime	-8263
▁medicine	-8264
▁misunder	-8265
▁mobility	-8266
▁moroccan	-8267
▁normally	-8268
▁observer	-8269
▁obstacle	-8270
▁offering	-8271
▁operated	-8272
▁opposite	-8273
▁outdated	-8274
▁overlook	-8275
▁pictures	-8276
▁poisoned	-8277
▁promptly	-8278
▁publicly	-8279
▁purposes	-8280
▁railways	-8281
▁recovery	-8282
▁refusing	-8283
▁regulate	-8284
▁rejected	-8285
▁relative	-8286
▁resorted	-8287
▁restrain	-8288
▁resuming	-8289
▁revenues	-8290
▁reviewed	-8291
▁sabotage	-8292
▁secretly	-8293
▁shipping	-8294
▁sinister	-8295
▁solemnly	-8296
▁speakers	-8297
▁spurring	-8298
▁squarely	-8299
▁sudanese	-8300
▁thoughts	-8301
▁totaling	-8302
▁trampled	-8303
▁treasure	-8304
▁ulterior	-8305
▁unfortun	-8306
▁unstable	-8307
▁urgently	-8308
▁vanguard	-8309
▁verified	-8310
▁vigilant	-8311
▁visitors	-8312
▁websites	-8313
▁widening	-8314
▁withdrew	-8315
▁worrying	-8316
▁yongkang	-8317
▁zhenghua	-8318
controlled	-8319
inspection	-8320
▁adjusting	-8321
▁alternate	-8322
▁ambiguous	-8323
▁appearing	-8324
▁arbitrary	-8325
▁assistant	-8326
▁astronaut	-8327
▁attacking	-8328
▁attempted	-8329
▁australia	-8330
▁automated	-8331
▁believers	-8332
▁budgetary	-8333
▁candidate	-8334
▁celebrate	-8335
▁celestial	-8336
▁changqing	-8337
▁changting	-8338
▁chongqing	-8339
▁classroom	-8340
▁combining	-8341
▁commended	-8342
▁communism	-8343
▁compiling	-8344
▁condemned	-8345
▁confirmed	-8346
▁confusion	-8347
▁consulate	-8348
▁consumers	-8349
▁contacted	-8350
▁cooperate	-8351
▁criticize	-8352
▁daughters	-8353
▁declining	-8354
▁delighted	-8355
▁denounced	-8356
▁dependent	-8357
▁deploying	-8358
▁destroyer	-8359
▁dialectic	-8360
▁diplomats	-8361
▁dismissed	-8362
▁disrupted	-8363
▁distorted	-8364
▁districts	-8365
▁efficient	-8366
▁employees	-8367
▁entrusted	-8368
▁eradicate	-8369
▁examining	-8370
▁excessive	-8371
▁execution	-8372
▁fallacies	-8373
▁featuring	-8374
▁forefront	-8375
▁foresight	-8376
▁fostering	-8377
▁fulfilled	-8378
▁generated	-8379
▁governors	-8380
▁holbrooke	-8381
▁hostility	-8382
▁impartial	-8383
▁indicator	-8384
▁inscribed	-8385
▁intensity	-8386
▁intercont	-8387
▁kissinger	-8388
▁liability	-8389
▁macedonia	-8390
▁migration	-8391
▁movements	-8392
▁musharraf	-8393
▁narayanan	-8394
▁northwest	-8395
▁peacetime	-8396
▁pertinent	-8397
▁postponed	-8398
▁practiced	-8399
▁preaching	-8400
▁preceding	-8401
▁predecess	-8402
▁preparing	-8403
▁presently	-8404
▁presiding	-8405
▁pressures	-8406
▁prevented	-8407
▁procedure	-8408
▁proceeded	-8409
▁publicize	-8410
▁purchases	-8411
▁realities	-8412
▁recession	-8413
▁recommend	-8414
▁remaining	-8415
▁reservoir	-8416
▁residence	-8417
▁resulting	-8418
▁reunified	-8419
▁searching	-8420
▁specially	-8421
▁splittism	-8422
▁sponsored	-8423
▁stabilize	-8424
▁statesman	-8425
▁stipulate	-8426
▁strenuous	-8427
▁struggled	-8428
▁substance	-8429
▁successor	-8430
▁suffering	-8431
▁surpassed	-8432
▁teenagers	-8433
▁tragedies	-8434
▁triggered	-8435
▁uncovered	-8436
▁undecided	-8437
▁victories	-8438
▁virtually	-8439
▁withstood	-8440
▁worsening	-8441
▁yardstick	-8442
trafficking	-8443
▁accidental	-8444
▁accurately	-8445
▁announcing	-8446
▁artificial	-8447
▁assessment	-8448
▁attributes	-8449
▁authorized	-8450
▁blueprints	-8451
▁broadcasts	-8452
▁broadening	-8453
▁categories	-8454
▁collecting	-8455
▁commenting	-8456
▁complained	-8457
▁completion	-8458
▁complexity	-8459
▁concession	-8460
▁conspiracy	-8461
▁convincing	-8462
▁correspond	-8463
▁counteratt	-8464
▁deliberate	-8465
▁diligently	-8466
▁earthquake	-8467
▁economists	-8468
▁emancipate	-8469
▁experiment	-8470
▁groundless	-8471
▁guaranteed	-8472
▁harmonious	-8473
▁harnessing	-8474
▁hsiungfeng	-8475
▁influences	-8476
▁interested	-8477
▁interviews	-8478
▁journalist	-8479
▁lightening	-8480
▁literature	-8481
▁manifested	-8482
▁militarist	-8483
▁ministries	-8484
▁misgivings	-8485
▁modernized	-8486
▁monopolies	-8487
▁mozambique	-8488
▁neighborly	-8489
▁noteworthy	-8490
▁officially	-8491
▁oppression	-8492
▁overcoming	-8493
▁pioneering	-8494
▁possessing	-8495
▁professors	-8496
▁propelling	-8497
▁protracted	-8498
▁psychology	-8499
▁quantities	-8500
▁referendum	-8501
▁reportedly	-8502
▁resentment	-8503
▁resettling	-8504
▁respecting	-8505
▁socialized	-8506
▁sponsoring	-8507
▁succession	-8508
▁successive	-8509
▁sufferings	-8510
▁suggestion	-8511
▁supplement	-8512
▁suspension	-8513
▁tightening	-8514
▁undermined	-8515
▁withdrawal	-8516
▁youngsters	-8517
interference	-8518
▁accommodate	-8519
▁accusations	-8520
▁advertising	-8521
▁appointment	-8522
▁appreciates	-8523
▁assessments	-8524
▁benevolence	-8525
▁capitalists	-8526
▁celebrating	-8527
▁celebration	-8528
▁centralized	-8529
▁coincidence	-8530
▁commodities	-8531
▁concessions	-8532
▁conferences	-8533
▁confronting	-8534
▁consecutive	-8535
▁conservancy	-8536
▁constituted	-8537
▁containment	-8538
▁conventions	-8539
▁convictions	-8540
▁demonstrate	-8541
▁description	-8542
▁distortions	-8543
▁elimination	-8544
▁experiments	-8545
▁expressions	-8546
▁foreseeable	-8547
▁forthcoming	-8548
▁influential	-8549
▁inspections	-8550
▁instability	-8551
▁interceptor	-8552
▁introducing	-8553
▁investigate	-8554
▁legislators	-8555
▁liquidation	-8556
▁maintenance	-8557
▁materialism	-8558
▁methodology	-8559
▁necessarily	-8560
▁observation	-8561
▁organically	-8562
▁penetrating	-8563
▁persecution	-8564
▁predicament	-8565
▁progressing	-8566
▁proposition	-8567
▁prospecting	-8568
▁provocation	-8569
▁rationality	-8570
▁readjusting	-8571
▁researchers	-8572
▁researching	-8573
▁resignation	-8574
▁sacrificing	-8575
▁scholarship	-8576
▁specialists	-8577
▁statistical	-8578
▁stipulation	-8579
▁supervisors	-8580
▁temperature	-8581
▁temporarily	-8582
▁trafficking	-8583
▁transmitted	-8584
▁transparent	-8585
▁unanimously	-8586
▁unavoidable	-8587
▁acknowledged	-8588
▁announcement	-8589
▁antiaircraft	-8590
▁competitions	-8591
▁connotations	-8592
▁disappointed	-8593
▁improvements	-8594
▁inauguration	-8595
▁infiltration	-8596
▁insufficient	-8597
▁interactions	-8598
▁intermediary	-8599
▁introduction	-8600
▁manufactured	-8601
▁municipality	-8602
▁neighborhood	-8603
▁palestinians	-8604
▁practitioner	-8605
▁predicaments	-8606
▁spokesperson	-8607
▁sufficiently	-8608
▁transporting	-8609
▁unreasonable	-8610
▁bureaucratism	-8611
▁ceremoniously	-8612
▁certification	-8613
▁commemorative	-8614
▁concentration	-8615
▁confederation	-8616
▁consciousness	-8617
▁consolidating	-8618
▁consolidation	-8619
▁constellation	-8620
▁developmental	-8621
▁distinguished	-8622
▁ideologically	-8623
▁independently	-8624
▁multinational	-8625
▁petrochemical	-8626
▁readjustments	-8627
▁strategically	-8628
▁unremittingly	-8629
▁considerations	-8630
▁constitutional	-8631
▁investigations	-8632
▁popularization	-8633
▁reorganization	-8634
▁revitalization	-8635
▁democratization	-8636
▁standardization	-8637
-12	-8638
-19	-8639
-26	-8640
9.7	-8641
bei	-8642
boo	-8643
hih	-8644
law	-8645
▁09	-8646
▁65	-8647
▁67	-8648
▁84	-8649
▁88	-8650
-198	-8651
ampo	-8652
aska	-8653
beki	-8654
dece	-8655
dney	-8656
finn	-8657
huff	-8658
ibbe	-8659
iguo	-8660
iyag	-8661
iyev	-8662
kiko	-8663
mbre	-8664
munj	-8665
nake	-8666
nyov	-8667
octr	-8668
ouds	-8669
pson	-8670
royo	-8671
umns	-8672
vana	-8673
▁0.2	-8674
▁0.8	-8675
▁1.0	-8676
▁130	-8677
▁152	-8678
▁16-	-8679
▁3,4	-8680
▁750	-8681
▁8.1	-8682
▁9.5	-8683
▁cyc	-8684
▁cyl	-8685
▁daw	-8686
▁esp	-8687
▁nix	-8688
abakh	-8689
ailed	-8690
aksin	-8691
alien	-8692
ambod	-8693
ampoa	-8694
armap	-8695
armen	-8696
ashed	-8697
attar	-8698
attle	-8699
hek	-8700
sup	-8701
▁32	-8702
▁33	-8703
▁41	-8704
▁43	-8705
▁5-	-8706
▁54	-8707
auty	-8708
dict	-8709
eney	-8710
nady	-8711
shek	-8712
skiy	-8713
uyev	-8714
zech	-8715
▁105	-8716
▁50-	-8717
▁sco	-8718
athed	-8719
being	-8720
boats	-8721
books	-8722
break	-8723
burse	-8724
cuban	-8725
dsson	-8726
emark	-8727
faced	-8728
forth	-8729
geyev	-8730
hanop	-8731
huang	-8732
iforn	-8733
imbun	-8734
impro	-8735
iyagi	-8736
lfare	-8737
maced	-8738
maker	-8739
menny	-8740
monit	-8741
octed	-8742
ooled	-8743
ordan	-8744
oshan	-8745
oulos	-8746
phase	-8747
phoon	-8748
polar	-8749
ribes	-8750
royev	-8751
sided	-8752
tenth	-8753
third	-8754
ttled	-8755
uchao	-8756
ulgar	-8757
useum	-8758
ushes	-8759
vigor	-8760
ymmet	-8761
▁0200	-8762
▁1945	-8763
▁1951	-8764
▁1957	-8765
▁1965	-8766
▁1978	-8767
▁1981	-8768
▁1984	-8769
▁2010	-8770
▁26.2	-8771
▁27.2	-8772
▁amph	-8773
▁blow	-8774
▁bolk	-8775
▁bris	-8776
▁brus	-8777
▁cash	-8778
▁chih	-8779
▁crop	-8780
▁dark	-8781
▁deny	-8782
▁didn	-8783
▁drew	-8784
▁drin	-8785
▁elig	-8786
▁esca	-8787
▁euro	-8788
▁gray	-8789
▁grie	-8790
▁jail	-8791
▁jean	-8792
▁kasy	-8793
▁keli	-8794
▁kofi	-8795
▁kurs	-8796
▁lanc	-8797
▁lobb	-8798
▁mama	-8799
.76	-8800
eff	-8801
irk	-8802
kan	-8803
oda	-8804
vak	-8805
ainc	-8806
coll	-8807
host	-8808
isen	-8809
itsu	-8810
mits	-8811
pire	-8812
serv	-8813
suan	-8814
tsin	-8815
▁blo	-8816
▁dui	-8817
▁slo	-8818
abled	-8819
andum	-8820
aping	-8821
asian	-8822
cross	-8823
eself	-8824
jitsu	-8825
luded	-8826
ouder	-8827
ratic	-8828
ribat	-8829
▁bell	-8830
▁duan	-8831
▁ferv	-8832
▁guiy	-8833
▁leak	-8834
▁maps	-8835
▁mete	-8836
▁midn	-8837
▁milk	-8838
▁murd	-8839
▁nago	-8840
▁paek	-8841
▁peak	-8842
▁phan	-8843
▁poly	-8844
▁pope	-8845
▁qiao	-8846
▁refu	-8847
▁ruin	-8848
▁scru	-8849
▁scum	-8850
▁shix	-8851
▁silk	-8852
▁skin	-8853
▁swed	-8854
▁tank	-8855
▁temp	-8856
▁tops	-8857
▁trib	-8858
▁turb	-8859
▁unsc	-8860
▁urum	-8861
▁vacu	-8862
▁veto	-8863
▁wake	-8864
▁xiul	-8865
▁zeal	-8866
▁zhub	-8867
00,000	-8868
aguang	-8869
altese	-8870
alysis	-8871
americ	-8872
ancies	-8873
argest	-8874
cambod	-8875
collar	-8876
curric	-8877
ddsson	-8878
dently	-8879
earned	-8880
elible	-8881
eltsin	-8882
emeter	-8883
enberg	-8884
equity	-8885
erance	-8886
erpted	-8887
esters	-8888
etimes	-8889
flight	-8890
handed	-8891
ibrant	-8892
ibrium	-8893
ickers	-8894
idency	-8895
iented	-8896
income	-8897
indust	-8898
integr	-8899
rop	-8900
vez	-8901
eman	-8902
iors	-8903
orno	-8904
unde	-8905
▁fap	-8906
▁ion	-8907
▁ske	-8908
▁zao	-8909
athem	-8910
count	-8911
iracy	-8912
moned	-8913
▁1956	-8914
▁1959	-8915
▁1986	-8916
▁airb	-8917
▁defy	-8918
▁doll	-8919
▁emir	-8920
▁feed	-8921
▁neut	-8922
▁pilg	-8923
▁shao	-8924
agorno	-8925
ighten	-8926
iribat	-8927
issile	-8928
izhong	-8929
korean	-8930
munjon	-8931
oldova	-8932
ompson	-8933
onents	-8934
onight	-8935
orders	-8936
powder	-8937
ralian	-8938
rescue	-8939
saddam	-8940
spring	-8941
syrian	-8942
taipei	-8943
titude	-8944
uation	-8945
ujitsu	-8946
ulsive	-8947
ulsory	-8948
uously	-8949
zhuang	-8950
zzling	-8951
▁1,100	-8952
▁179.7	-8953
▁acron	-8954
▁acute	-8955
▁adami	-8956
▁aires	-8957
▁alarm	-8958
▁alien	-8959
▁alive	-8960
▁aloof	-8961
▁antib	-8962
▁ascer	-8963
▁asset	-8964
▁aston	-8965
▁bench	-8966
▁berth	-8967
▁besie	-8968
▁blaze	-8969
▁bless	-8970
▁blocs	-8971
▁books	-8972
▁boxes	-8973
▁brisk	-8974
▁camou	-8975
▁camps	-8976
▁cargo	-8977
▁chaos	-8978
▁chien	-8979
▁chret	-8980
▁climb	-8981
▁clues	-8982
▁crash	-8983
▁cryst	-8984
▁curry	-8985
▁cyber	-8986
▁cycle	-8987
▁czech	-8988
▁daunt	-8989
▁dawam	-8990
▁dirty	-8991
▁divor	-8992
▁drama	-8993
▁edges	-8994
▁empir	-8995
▁equil	-8996
▁faded	-8997
▁falun	-8998
▁fapai	-8999
zi	-9000
agn	-9001
beg	-9002
▁aa	-9003
acer	-9004
agan	-9005
agle	-9006
agre	-9007
ucas	-9008
ulpr	-9009
▁190	-9010
▁193	-9011
▁clo	-9012
▁hoc	-9013
▁lun	-9014
▁row	-9015
▁wah	-9016
acerb	-9017
admin	-9018
agreb	-9019
assad	-9020
asser	-9021
avery	-9022
enact	-9023
escap	-9024
meter	-9025
▁amat	-9026
▁fame	-9027
▁mour	-9028
▁nice	-9029
▁regi	-9030
▁soup	-9031
▁sums	-9032
around	-9033
cultiv	-9034
oliday	-9035
▁cling	-9036
▁culpr	-9037
▁defin	-9038
▁dimin	-9039
▁eagle	-9040
▁fifty	-9041
▁finds	-9042
▁firms	-9043
▁foods	-9044
▁forty	-9045
▁grimm	-9046
▁guiyu	-9047
▁hails	-9048
▁hebei	-9049
▁hefei	-9050
▁henry	-9051
▁himal	-9052
▁hutch	-9053
▁immol	-9054
▁inher	-9055
▁inqui	-9056
▁irreg	-9057
▁ivory	-9058
▁juris	-9059
▁kilos	-9060
▁kursk	-9061
▁lacks	-9062
▁lifet	-9063
▁likes	-9064
▁lived	-9065
▁lodge	-9066
▁looph	-9067
▁lured	-9068
▁mafia	-9069
▁magaz	-9070
▁match	-9071
▁mbeki	-9072
▁medal	-9073
▁mercy	-9074
▁mitig	-9075
▁monks	-9076
▁monte	-9077
▁nixon	-9078
▁noble	-9079
▁photo	-9080
▁print	-9081
▁prodi	-9082
▁queen	-9083
▁races	-9084
▁raids	-9085
▁reaff	-9086
▁reper	-9087
▁retro	-9088
▁ridic	-9089
▁risen	-9090
▁scrap	-9091
▁scrup	-9092
▁sends	-9093
▁senti	-9094
▁serbs	-9095
▁shoes	-9096
▁shoot	-9097
▁shuch	-9098
▁shuib	-9099
pv	-9100
300	-9101
700	-9102
dup	-9103
▁3-	-9104
,200	-9105
avid	-9106
icha	-9107
mage	-9108
ovic	-9109
▁17-	-9110
▁900	-9111
▁boe	-9112
▁ccp	-9113
▁cpv	-9114
▁ire	-9115
▁liq	-9116
▁tee	-9117
4,200	-9118
apsed	-9119
esset	-9120
liang	-9121
orted	-9122
rence	-9123
▁eleg	-9124
▁mere	-9125
▁mood	-9126
▁prey	-9127
▁sped	-9128
▁stro	-9129
▁tens	-9130
▁warn	-9131
▁wine	-9132
atings	-9133
ichael	-9134
ionage	-9135
rimage	-9136
▁acted	-9137
▁david	-9138
▁disli	-9139
▁liang	-9140
▁liqun	-9141
▁panic	-9142
▁perse	-9143
▁shout	-9144
▁simpl	-9145
▁slack	-9146
▁smoke	-9147
▁snake	-9148
▁snowy	-9149
▁spied	-9150
▁stagn	-9151
▁surre	-9152
▁tarim	-9153
▁teeth	-9154
▁teleg	-9155
▁tiger	-9156
▁tomur	-9157
▁tools	-9158
▁toxic	-9159
▁umbre	-9160
▁uncer	-9161
▁uncom	-9162
▁uncor	-9163
▁unpop	-9164
▁valid	-9165
▁veget	-9166
▁write	-9167
▁xiong	-9168
▁yingf	-9169
achuted	-9170
aldivar	-9171
aldives	-9172
arently	-9173
conduct	-9174
country	-9175
develop	-9176
diction	-9177
embered	-9178
enacted	-9179
erfully	-9180
feiting	-9181
finnish	-9182
holding	-9183
improve	-9184
incible	-9185
increas	-9186
ipotent	-9187
iranian	-9188
iribati	-9189
irkable	-9190
justice	-9191
largest	-9192
ocratic	-9193
olarity	-9194
olences	-9195
olesale	-9196
onsored	-9197
patible	-9198
percent	-9199
aro	-9200
cho	-9201
els	-9202
ham	-9203
ike	-9204
jib	-9205
non	-9206
sin	-9207
spe	-9208
wit	-9209
zel	-9210
astr	-9211
asts	-9212
iban	-9213
udan	-9214
▁abb	-9215
▁abc	-9216
▁lam	-9217
▁swe	-9218
▁upr	-9219
cking	-9220
enish	-9221
grace	-9222
iship	-9223
oking	-9224
speed	-9225
▁1949	-9226
▁bare	-9227
▁curb	-9228
▁djib	-9229
▁echo	-9230
▁hept	-9231
▁spec	-9232
▁tric	-9233
enture	-9234
gments	-9235
ibious	-9236
idated	-9237
irited	-9238
ortzel	-9239
seated	-9240
▁basil	-9241
▁cater	-9242
▁colin	-9243
▁dates	-9244
▁grief	-9245
▁hills	-9246
▁incor	-9247
▁manip	-9248
▁moham	-9249
▁runde	-9250
▁sland	-9251
▁workd	-9252
astrous	-9253
bridled	-9254
inction	-9255
macedon	-9256
perform	-9257
picable	-9258
porated	-9259
ranging	-9260
remenny	-9261
respons	-9262
rogated	-9263
service	-9264
settled	-9265
urances	-9266
urasian	-9267
ussions	-9268
ustomed	-9269
uteness	-9270
venture	-9271
warning	-9272
▁20,000	-9273
▁absent	-9274
▁acrony	-9275
▁advice	-9276
▁agrees	-9277
▁aiming	-9278
▁alaska	-9279
▁anthem	-9280
▁antism	-9281
▁arroyo	-9282
▁backup	-9283
▁beaten	-9284
▁beauty	-9285
▁betray	-9286
▁boeing	-9287
▁bounds	-9288
▁brazen	-9289
▁breaks	-9290
▁brings	-9291
▁broken	-9292
▁buried	-9293
▁cannon	-9294
▁carpet	-9295
▁cement	-9296
▁checks	-9297
▁chiang	-9298
▁consul	-9299
agu	-9300
bel	-9301
cai	-9302
oso	-9303
umn	-9304
yao	-9305
ario	-9306
enos	-9307
qian	-9308
tong	-9309
▁262	-9310
▁mrs	-9311
▁tun	-9312
▁uss	-9313
▁voy	-9314
ighth	-9315
ilian	-9316
inner	-9317
raint	-9318
stand	-9319
▁coer	-9320
▁fide	-9321
▁gall	-9322
▁loos	-9323
▁soph	-9324
accept	-9325
alling	-9326
anovic	-9327
depend	-9328
ometer	-9329
stress	-9330
▁align	-9331
▁decad	-9332
▁impat	-9333
▁imped	-9334
▁memor	-9335
▁owned	-9336
▁poems	-9337
▁swift	-9338
▁tense	-9339
reating	-9340
▁advers	-9341
▁appreh	-9342
▁autumn	-9343
▁buenos	-9344
▁curbed	-9345
▁curren	-9346
▁define	-9347
▁depths	-9348
▁desert	-9349
▁device	-9350
▁dinner	-9351
▁dishes	-9352
▁disreg	-9353
▁dissol	-9354
▁divide	-9355
▁dollar	-9356
▁doubts	-9357
▁downlo	-9358
▁driver	-9359
▁edible	-9360
▁eighth	-9361
▁electr	-9362
▁empire	-9363
▁encirc	-9364
▁endure	-9365
▁engels	-9366
▁ethics	-9367
▁fervor	-9368
▁fights	-9369
▁firing	-9370
▁flavor	-9371
▁floods	-9372
▁fooled	-9373
▁freely	-9374
▁fuqing	-9375
▁geping	-9376
▁golden	-9377
▁greece	-9378
▁greens	-9379
▁guoqin	-9380
▁happen	-9381
▁harbin	-9382
▁hiding	-9383
▁hinted	-9384
▁hinter	-9385
▁hiring	-9386
▁hongxi	-9387
▁hungry	-9388
▁illust	-9389
▁immers	-9390
▁infect	-9391
▁inhere	-9392
▁injury	-9393
▁inquir	-9394
▁invent	-9395
▁ismail	-9396
▁jizhou	-9397
▁jordan	-9398
▁judges	-9399
70	-9400
ca	-9401
ody	-9402
que	-9403
tec	-9404
xiz	-9405
▁iw	-9406
▁ka	-9407
▁vc	-9408
aven	-9409
bled	-9410
cend	-9411
ffed	-9412
kong	-9413
mese	-9414
osen	-9415
outi	-9416
▁bos	-9417
▁fro	-9418
▁joy	-9419
▁kid	-9420
▁kir	-9421
▁kun	-9422
▁mel	-9423
▁mur	-9424
▁nia	-9425
▁ped	-9426
elled	-9427
eming	-9428
ender	-9429
eties	-9430
iciss	-9431
teran	-9432
▁atal	-9433
▁damp	-9434
▁dish	-9435
▁fear	-9436
▁user	-9437
hihara	-9438
ibbean	-9439
ithuan	-9440
xizang	-9441
▁ching	-9442
▁haste	-9443
▁polar	-9444
▁pride	-9445
▁roars	-9446
▁safer	-9447
▁swiss	-9448
▁twent	-9449
▁waved	-9450
▁woman	-9451
arabakh	-9452
▁brunei	-9453
▁chosen	-9454
▁domest	-9455
▁format	-9456
▁gender	-9457
▁havana	-9458
▁heaven	-9459
▁inject	-9460
▁junior	-9461
▁karmap	-9462
▁leaves	-9463
▁lianhe	-9464
▁lodged	-9465
▁losing	-9466
▁loudly	-9467
▁lovers	-9468
▁loving	-9469
▁makiko	-9470
▁maldiv	-9471
▁mathem	-9472
▁mature	-9473
▁mekong	-9474
▁memory	-9475
▁meteor	-9476
▁metric	-9477
▁miyagi	-9478
▁moftec	-9479
▁montev	-9480
▁muslim	-9481
▁navies	-9482
▁nether	-9483
▁obsess	-9484
▁occupy	-9485
▁option	-9486
▁overhe	-9487
▁overlo	-9488
▁perils	-9489
▁pervez	-9490
▁piracy	-9491
▁portug	-9492
▁posted	-9493
▁precip	-9494
▁preser	-9495
▁preset	-9496
▁profit	-9497
▁proves	-9498
▁pushes	-9499
ayu	-9500
mad	-9501
sun	-9502
tee	-9503
▁51	-9504
▁cw	-9505
ayas	-9506
esty	-9507
ican	-9508
jung	-9509
nday	-9510
paid	-9511
▁imf	-9512
▁kit	-9513
▁sem	-9514
▁yin	-9515
aders	-9516
chest	-9517
icing	-9518
still	-9519
▁bayu	-9520
▁deem	-9521
▁fong	-9522
▁geno	-9523
▁hate	-9524
▁hits	-9525
▁soap	-9526
▁tree	-9527
▁vand	-9528
brunei	-9529
iguang	-9530
ileges	-9531
laying	-9532
mittee	-9533
▁chart	-9534
▁chess	-9535
▁fault	-9536
▁filed	-9537
▁gangs	-9538
▁genoa	-9539
▁overn	-9540
▁soong	-9541
ifornia	-9542
iscated	-9543
kujitsu	-9544
▁akayev	-9545
▁ancest	-9546
▁bosses	-9547
▁cheney	-9548
▁cultic	-9549
▁koreas	-9550
▁louder	-9551
▁margin	-9552
▁qingze	-9553
▁racing	-9554
▁racked	-9555
▁radars	-9556
▁receip	-9557
▁refuge	-9558
▁relics	-9559
▁remind	-9560
▁repeat	-9561
▁reperc	-9562
▁retail	-9563
▁rooted	-9564
▁rounds	-9565
▁ruchao	-9566
▁safely	-9567
▁salute	-9568
▁sattar	-9569
▁savage	-9570
▁scheme	-9571
▁secure	-9572
▁shaken	-9573
▁shifts	-9574
▁shubei	-9575
▁slovak	-9576
▁speedy	-9577
▁spoken	-9578
▁spying	-9579
▁stakes	-9580
▁stocks	-9581
▁stride	-9582
▁struck	-9583
▁sultan	-9584
▁sunday	-9585
▁supers	-9586
▁surviv	-9587
▁sydney	-9588
▁tactic	-9589
▁taoism	-9590
▁taoist	-9591
▁temple	-9592
▁tended	-9593
▁tested	-9594
▁thirds	-9595
▁thorny	-9596
▁thrown	-9597
▁topple	-9598
▁toured	-9599
aph	-9600
eou	-9601
esc	-9602
ids	-9603
lla	-9604
och	-9605
ria	-9606
rui	-9607
set	-9608
▁..	-9609
▁59	-9610
▁uy	-9611
alim	-9612
asse	-9613
bits	-9614
city	-9615
gang	-9616
gins	-9617
jeou	-9618
lies	-9619
rate	-9620
▁cla	-9621
▁cow	-9622
▁hur	-9623
▁jim	-9624
▁sed	-9625
▁tap	-9626
▁uyg	-9627
ients	-9628
igong	-9629
irong	-9630
ulong	-9631
▁1988	-9632
▁adam	-9633
▁fist	-9634
▁gong	-9635
▁heat	-9636
▁hsin	-9637
▁jeff	-9638
▁sang	-9639
graded	-9640
guised	-9641
▁2,500	-9642
▁adept	-9643
▁files	-9644
▁frust	-9645
▁loved	-9646
▁theor	-9647
▁uygur	-9648
imburse	-9649
weather	-9650
▁career	-9651
▁conver	-9652
▁expose	-9653
▁habits	-9654
▁hearty	-9655
▁museum	-9656
▁plants	-9657
▁senses	-9658
▁teleph	-9659
▁tragic	-9660
▁twenty	-9661
▁uganda	-9662
▁uncomp	-9663
▁unfair	-9664
▁unshak	-9665
▁urumqi	-9666
▁vacuum	-9667
▁venues	-9668
▁verify	-9669
▁versus	-9670
▁vessel	-9671
▁viacom	-9672
▁viciss	-9673
▁worksh	-9674
▁xiahua	-9675
▁xudong	-9676
▁yining	-9677
▁yuebin	-9678
▁zagreb	-9679
▁zhubin	-9680
altitude	-9681
american	-9682
crossing	-9683
december	-9684
division	-9685
enerated	-9686
esirable	-9687
ffickers	-9688
gression	-9689
iliation	-9690
imissile	-9691
karabakh	-9692
minating	-9693
monitory	-9694
muggling	-9695
oriented	-9696
regional	-9697
romising	-9698
sidering	-9699
vy	-9700
▁-	-9701
▁{	-9702
adv	-9703
che	-9704
col	-9705
ipe	-9706
rot	-9707
ued	-9708
xin	-9709
▁92	-9710
▁pb	-9711
cold	-9712
dist	-9713
iwen	-9714
olit	-9715
utor	-9716
▁1,3	-9717
▁bou	-9718
▁dat	-9719
▁gad	-9720
▁kai	-9721
▁sov	-9722
crime	-9723
▁100-	-9724
▁ally	-9725
▁bish	-9726
▁cong	-9727
▁pipe	-9728
▁rain	-9729
▁reap	-9730
▁stal	-9731
▁stam	-9732
▁tomb	-9733
iating	-9734
illity	-9735
tained	-9736
▁capit	-9737
▁dusty	-9738
▁enlai	-9739
▁gates	-9740
▁grown	-9741
▁lanka	-9742
▁leung	-9743
▁midst	-9744
▁prone	-9745
▁store	-9746
▁wuhan	-9747
iencies	-9748
raising	-9749
reshold	-9750
▁carrot	-9751
▁clouds	-9752
▁gather	-9753
▁miners	-9754
▁prejud	-9755
▁pudong	-9756
▁waving	-9757
▁wounds	-9758
independ	-9759
uyevskiy	-9760
vigorate	-9761
ymmetric	-9762
▁110,000	-9763
▁abiding	-9764
▁acquire	-9765
▁amounts	-9766
▁animals	-9767
▁anthems	-9768
▁approve	-9769
▁artists	-9770
▁avoided	-9771
▁balloon	-9772
▁ballots	-9773
▁baoshan	-9774
▁barrier	-9775
▁binding	-9776
▁blowing	-9777
▁boosted	-9778
▁borders	-9779
▁boucher	-9780
▁bribery	-9781
▁broader	-9782
▁brother	-9783
▁buildup	-9784
▁bullish	-9785
▁bureaus	-9786
▁camoufl	-9787
▁cardoso	-9788
▁causing	-9789
▁charact	-9790
▁charged	-9791
▁charted	-9792
▁chicken	-9793
▁chiefly	-9794
▁chooses	-9795
▁clarity	-9796
▁classic	-9797
▁columns	-9798
▁counsel	-9799
44	-9800
aid	-9801
bag	-9802
lee	-9803
mao	-9804
urn	-9805
uts	-9806
▁kg	-9807
▁mf	-9808
▁ng	-9809
▁pc	-9810
asis	-9811
bage	-9812
lete	-9813
orse	-9814
wang	-9815
▁fly	-9816
▁joh	-9817
▁mfn	-9818
▁pul	-9819
▁rio	-9820
▁sad	-9821
▁sep	-9822
▁van	-9823
asion	-9824
entle	-9825
zhang	-9826
▁buff	-9827
▁pour	-9828
▁tall	-9829
▁wing	-9830
inated	-9831
orting	-9832
rooted	-9833
▁calam	-9834
▁lilan	-9835
▁subun	-9836
ondered	-9837
ounding	-9838
▁aliyev	-9839
▁cheung	-9840
▁comply	-9841
▁gentle	-9842
▁heresy	-9843
▁inland	-9844
▁uneven	-9845
ositions	-9846
versible	-9847
▁admires	-9848
▁cemeter	-9849
▁courses	-9850
▁daguang	-9851
▁damages	-9852
▁dangers	-9853
▁dawamat	-9854
▁deluded	-9855
▁denmark	-9856
▁denying	-9857
▁descent	-9858
▁devices	-9859
▁diamond	-9860
▁discard	-9861
▁discord	-9862
▁dismant	-9863
▁dispers	-9864
▁dollars	-9865
▁dongmin	-9866
▁doubted	-9867
▁drafted	-9868
▁dynamic	-9869
▁elastic	-9870
▁elegant	-9871
▁embrace	-9872
▁emotion	-9873
▁endless	-9874
▁engines	-9875
▁enlarge	-9876
▁evident	-9877
▁exacerb	-9878
▁exhaust	-9879
▁exposes	-9880
▁extingu	-9881
▁fearing	-9882
▁fiercer	-9883
▁fishery	-9884
▁fishing	-9885
▁forcing	-9886
▁fragile	-9887
▁freeing	-9888
▁frigate	-9889
▁gennady	-9890
▁germans	-9891
▁granted	-9892
▁grieved	-9893
▁grimmer	-9894
▁guizhou	-9895
▁hackers	-9896
▁heroism	-9897
▁herself	-9898
▁holiday	-9899
62	-9900
ae	-9901
cm	-9902
tc	-9903
▁}	-9904
ito	-9905
mat	-9906
▁si	-9907
apes	-9908
ishi	-9909
▁3.2	-9910
▁der	-9911
▁fat	-9912
▁ice	-9913
▁iii	-9914
▁tor	-9915
▁tsu	-9916
apted	-9917
ishan	-9918
isted	-9919
world	-9920
▁belt	-9921
▁ears	-9922
▁gran	-9923
▁ping	-9924
▁prin	-9925
▁rang	-9926
▁ruan	-9927
▁stir	-9928
▁suit	-9929
▁ting	-9930
▁tsai	-9931
astern	-9932
erable	-9933
▁craft	-9934
▁fiber	-9935
▁floor	-9936
▁frant	-9937
▁henan	-9938
▁retic	-9939
▁trium	-9940
▁waits	-9941
▁weigh	-9942
entials	-9943
▁bumped	-9944
▁earned	-9945
▁escape	-9946
▁funded	-9947
▁reagan	-9948
▁trades	-9949
▁tricks	-9950
▁virtue	-9951
▁chilean	-9952
▁dynasty	-9953
▁entails	-9954
▁evasion	-9955
▁hillary	-9956
▁honesty	-9957
▁hotline	-9958
▁inalien	-9959
▁indoctr	-9960
▁inescap	-9961
▁inquiry	-9962
▁instant	-9963
▁intends	-9964
▁invaded	-9965
▁jamming	-9966
▁jianguo	-9967
▁jichuan	-9968
▁jinding	-9969
▁karmapa	-9970
▁khatami	-9971
▁knesset	-9972
▁koreans	-9973
▁kuangdi	-9974
▁lancang	-9975
▁largely	-9976
▁lawless	-9977
▁lecture	-9978
▁letting	-9979
▁lifting	-9980
▁listing	-9981
▁loading	-9982
▁logical	-9983
▁lowered	-9984
▁luoyang	-9985
▁manages	-9986
▁manlong	-9987
▁marshal	-9988
▁masters	-9989
▁mastery	-9990
▁maximum	-9991
▁mediate	-9992
▁mergers	-9993
▁merging	-9994
▁michael	-9995
▁mistake	-9996
▁moldova	-9997
▁mounted	-9998
▁multile	-9999
fa	-10000
can	-10001
ceo	-10002
des	-10003
kuo	-10004
qen	-10005
wen	-10006
zed	-10007
▁hc	-10008
cott	-10009
ntly	-10010
umin	-10011
▁242	-10012
▁cat	-10013
▁hao	-10014
▁lip	-10015
▁quo	-10016
▁shr	-10017
after	-10018
mined	-10019
orest	-10020
▁chou	-10021
▁kung	-10022
▁leyi	-10023
▁mall	-10024
▁swor	-10025
forces	-10026
german	-10027
ogical	-10028
▁alter	-10029
▁dispe	-10030
▁harms	-10031
▁singh	-10032
▁swind	-10033
ishness	-10034
▁devils	-10035
▁handan	-10036
▁naught	-10037
▁tongue	-10038
avorable	-10039
▁exceeds	-10040
▁expound	-10041
▁guarded	-10042
▁kicking	-10043
▁musical	-10044
▁nagorno	-10045
▁notable	-10046
▁oddsson	-10047
▁offense	-10048
▁oneself	-10049
▁operate	-10050
▁optimal	-10051
▁orchest	-10052
▁outcome	-10053
▁overlap	-10054
▁package	-10055
▁parades	-10056
▁partial	-10057
▁patient	-10058
▁placing	-10059
▁players	-10060
▁premium	-10061
▁pressed	-10062
▁prevail	-10063
▁priests	-10064
▁propell	-10065
▁qinghua	-10066
▁queries	-10067
▁rebound	-10068
▁rebuild	-10069
▁refusal	-10070
▁refuses	-10071
▁reprint	-10072
▁reshuff	-10073
▁retains	-10074
▁rewards	-10075
▁rigidly	-10076
▁rockets	-10077
▁roundup	-10078
▁sailing	-10079
▁sailors	-10080
▁savings	-10081
▁scenery	-10082
▁screens	-10083
▁seattle	-10084
▁segment	-10085
▁servant	-10086
▁severed	-10087
▁shelton	-10088
▁shenwei	-10089
▁shimbun	-10090
▁shortly	-10091
▁shulong	-10092
▁singing	-10093
▁slavery	-10094
▁slogans	-10095
▁solicit	-10096
▁sounded	-10097
▁stealth	-10098
▁stretch	-10099
▁stroyev	-10100
▁summary	-10101
▁surging	-10102
▁surrend	-10103
▁surveys	-10104
▁survive	-10105
▁taliban	-10106
▁tariffs	-10107
▁teaches	-10108
▁teenage	-10109
▁telecom	-10110
▁telecon	-10111
▁thaksin	-10112
▁tieshan	-10113
▁tonight	-10114
▁topping	-10115
▁torture	-10116
▁tribute	-10117
▁trustee	-10118
▁trustor	-10119
▁typhoon	-10120
▁uniform	-10121
▁upholds	-10122
▁upright	-10123
▁utilize	-10124
▁verdict	-10125
▁version	-10126
▁veteran	-10127
▁vibrant	-10128
▁walking	-10129
▁watched	-10130
▁weather	-10131
▁welfare	-10132
▁whampoa	-10133
▁whereas	-10134
▁whither	-10135
▁windows	-10136
▁wishing	-10137
▁wortzel	-10138
▁wounded	-10139
▁wrongly	-10140
▁xiulian	-10141
▁yanhong	-10142
▁yeltsin	-10143
▁yingfan	-10144
▁zealand	-10145
▁zhongyu	-10146
character	-10147
collision	-10148
committee	-10149
dependent	-10150
fficiency	-10151
haustible	-10152
iferation	-10153
resistant	-10154
smuggling	-10155
sponsored	-10156
unciation	-10157
▁accorded	-10158
▁acronyms	-10159
▁adequacy	-10160
▁adoption	-10161
▁advisory	-10162
▁airports	-10163
▁altitude	-10164
▁ambassad	-10165
▁americas	-10166
▁amounted	-10167
▁analyses	-10168
▁annually	-10169
▁antiship	-10170
▁archways	-10171
▁armenian	-10172
▁armitage	-10173
▁arranged	-10174
▁assuming	-10175
▁bayuquan	-10176
▁beautify	-10177
▁besieged	-10178
▁birthday	-10179
▁borrowed	-10180
▁brussels	-10181
▁buddhism	-10182
▁captured	-10183
▁chapters	-10184
▁chengjia	-10185
▁chretien	-10186
▁claiming	-10187
▁clamored	-10188
▁coatings	-10189
▁cohesion	-10190
▁cohesive	-10191
▁collided	-10192
▁colombia	-10193
▁commence	-10194
▁compiled	-10195
▁comprise	-10196
▁consists	-10197
▁contains	-10198
▁contempt	-10199
▁contrast	-10200
▁convicts	-10201
▁daughter	-10202
▁decadent	-10203
▁dedicate	-10204
▁defeated	-10205
▁definite	-10206
▁deported	-10207
▁deposits	-10208
▁deprived	-10209
▁detained	-10210
▁disabled	-10211
▁disagree	-10212
▁discount	-10213
▁disgrace	-10214
▁disposal	-10215
▁dissolve	-10216
▁distance	-10217
▁dividing	-10218
▁djibouti	-10219
▁dominant	-10220
▁dominate	-10221
▁downfall	-10222
▁drilling	-10223
▁drinking	-10224
▁earliest	-10225
▁eastward	-10226
▁educated	-10227
▁electric	-10228
▁eligible	-10229
▁embarked	-10230
▁emirates	-10231
▁enacting	-10232
▁endanger	-10233
▁enduring	-10234
▁engineer	-10235
▁enticing	-10236
▁escalate	-10237
▁escaping	-10238
▁estimate	-10239
▁eurasian	-10240
▁evaluate	-10241
▁eventual	-10242
▁expedite	-10243
▁expelled	-10244
▁exploits	-10245
▁explored	-10246
▁exported	-10247
▁exposing	-10248
▁failures	-10249
▁farmland	-10250
▁fengshan	-10251
▁finances	-10252
▁forecast	-10253
▁foregone	-10254
▁foremost	-10255
▁formerly	-10256
▁garrison	-10257
▁generous	-10258
▁grateful	-10259
▁guandong	-10260
▁gunboats	-10261
▁guoxiong	-10262
▁handover	-10263
▁heighten	-10264
▁heptulla	-10265
▁heresies	-10266
▁heritage	-10267
▁homeland	-10268
▁honorary	-10269
▁honoring	-10270
▁identify	-10271
▁ignorant	-10272
▁imported	-10273
▁incoming	-10274
▁incurred	-10275
▁insignia	-10276
▁inspects	-10277
▁inspires	-10278
▁interior	-10279
▁ironclad	-10280
▁ishihara	-10281
▁jeffords	-10282
▁kasyanov	-10283
▁kiribati	-10284
▁lawfully	-10285
▁lebanese	-10286
▁lectures	-10287
▁liberate	-10288
▁licenses	-10289
▁lifetime	-10290
▁lobbying	-10291
▁lowering	-10292
▁majestic	-10293
▁markedly	-10294
▁marxists	-10295
▁mastered	-10296
▁meanings	-10297
▁measured	-10298
▁midnight	-10299
▁mistaken	-10300
▁mistakes	-10301
▁mongolia	-10302
▁mountain	-10303
▁mounting	-10304
▁mourning	-10305
▁nanchang	-10306
▁negating	-10307
▁numbered	-10308
▁offshore	-10309
▁optimism	-10310
▁oriented	-10311
▁overturn	-10312
▁partisan	-10313
▁patients	-10314
▁pensions	-10315
▁physical	-10316
▁pioneers	-10317
▁pleasure	-10318
▁pointing	-10319
▁portugal	-10320
▁preclude	-10321
▁premiers	-10322
▁premises	-10323
▁prescott	-10324
▁presence	-10325
▁prisoner	-10326
▁proclaim	-10327
▁promotes	-10328
▁protects	-10329
▁quanzhou	-10330
▁quelling	-10331
▁reaching	-10332
▁recalled	-10333
▁reckless	-10334
▁recorded	-10335
▁referred	-10336
▁refuting	-10337
▁register	-10338
▁relating	-10339
▁renounce	-10340
▁renovate	-10341
▁renowned	-10342
▁reopened	-10343
▁replaced	-10344
▁requests	-10345
▁residing	-10346
▁resigned	-10347
▁resolves	-10348
▁retained	-10349
▁salaries	-10350
▁scenario	-10351
▁searched	-10352
▁secondly	-10353
▁selfless	-10354
▁senators	-10355
▁sergeyev	-10356
▁shackles	-10357
▁shelving	-10358
▁shenyang	-10359
▁shixiang	-10360
▁shooting	-10361
▁shucheng	-10362
▁shuibian	-10363
▁somebody	-10364
▁straight	-10365
▁strained	-10366
▁summoned	-10367
▁supplied	-10368
▁supplies	-10369
▁suppress	-10370
▁surprise	-10371
▁switched	-10372
▁tackling	-10373
▁tangible	-10374
▁tensions	-10375
▁terminal	-10376
▁thankful	-10377
▁thompson	-10378
▁threaten	-10379
▁tolerate	-10380
▁tortuous	-10381
▁tourists	-10382
▁townsman	-10383
▁traveled	-10384
▁treating	-10385
▁umbrella	-10386
▁unaccept	-10387
▁upgraded	-10388
▁uprising	-10389
▁utilized	-10390
▁virtuous	-10391
▁wantonly	-10392
▁watching	-10393
▁wavering	-10394
▁workdays	-10395
▁workshop	-10396
▁worsened	-10397
▁xinsheng	-10398
▁zaldivar	-10399
australian	-10400
curricular	-10401
hanopoulos	-10402
ifications	-10403
ightenment	-10404
increasing	-10405
irectional	-10406
macedonian	-10407
ordinarily	-10408
▁accompany	-10409
▁addresses	-10410
▁admission	-10411
▁alleviate	-10412
▁apologize	-10413
▁argentine	-10414
▁arguments	-10415
▁arranging	-10416
▁arrogance	-10417
▁ascertain	-10418
▁attaching	-10419
▁attendees	-10420
▁attitudes	-10421
▁battalion	-10422
▁blatantly	-10423
▁boundless	-10424
▁buildings	-10425
▁calculate	-10426
▁caribbean	-10427
▁centuries	-10428
▁certainty	-10429
▁changchun	-10430
▁chinaware	-10431
▁civilians	-10432
▁clarified	-10433
▁coalition	-10434
▁cognitive	-10435
▁colluding	-10436
▁collusion	-10437
▁combating	-10438
▁commented	-10439
▁commodity	-10440
▁conceived	-10441
▁concocted	-10442
▁confident	-10443
▁connected	-10444
▁constrain	-10445
▁contained	-10446
▁contracts	-10447
▁cordially	-10448
▁crossroad	-10449
▁cultivate	-10450
▁deception	-10451
▁decorated	-10452
▁decreased	-10453
▁defeating	-10454
▁departure	-10455
▁designing	-10456
▁detention	-10457
▁differing	-10458
▁discarded	-10459
▁disintegr	-10460
▁diversity	-10461
▁dominance	-10462
▁dominican	-10463
▁dongcheng	-10464
▁duplicate	-10465
▁electoral	-10466
▁emergency	-10467
▁empirical	-10468
▁employing	-10469
▁enactment	-10470
▁endorsing	-10471
▁enforcing	-10472
▁enlarging	-10473
▁espionage	-10474
▁estimated	-10475
▁estimates	-10476
▁evolution	-10477
▁exceeding	-10478
▁excerpted	-10479
▁exemption	-10480
▁exercised	-10481
▁expecting	-10482
▁exploited	-10483
▁explosion	-10484
▁extension	-10485
▁extorting	-10486
▁extremism	-10487
▁extricate	-10488
▁factories	-10489
▁fireworks	-10490
▁flaunting	-10491
▁fluctuate	-10492
▁forgotten	-10493
▁generator	-10494
▁genuinely	-10495
▁greenspan	-10496
▁guanzheng	-10497
▁gunpowder	-10498
▁happening	-10499
▁hardships	-10500
▁healthily	-10501
▁himalayas	-10502
▁hopefully	-10503
▁hutchison	-10504
▁impressed	-10505
▁indelible	-10506
▁indignant	-10507
▁inflicted	-10508
▁infringed	-10509
▁initiated	-10510
▁initiator	-10511
▁injustice	-10512
▁inquiries	-10513
▁intensive	-10514
▁inundated	-10515
▁investing	-10516
▁irregular	-10517
▁irrespons	-10518
▁isolation	-10519
▁launchers	-10520
▁liancheng	-10521
▁liberated	-10522
▁locations	-10523
▁loopholes	-10524
▁maintains	-10525
▁maldivian	-10526
▁mechanics	-10527
▁mediation	-10528
▁millenium	-10529
▁neglected	-10530
▁obsessive	-10531
▁occurring	-10532
▁offspring	-10533
▁operators	-10534
▁opponents	-10535
▁overnight	-10536
▁overthrow	-10537
▁panmunjon	-10538
▁paramount	-10539
▁persuaded	-10540
▁petitions	-10541
▁platforms	-10542
▁poisoning	-10543
▁pondering	-10544
▁preserved	-10545
▁prohibits	-10546
▁promising	-10547
▁propagate	-10548
▁pyongyang	-10549
▁quickened	-10550
▁recipient	-10551
▁recovered	-10552
▁recruited	-10553
▁recycling	-10554
▁reenacted	-10555
▁regretted	-10556
▁reimburse	-10557
▁rejection	-10558
▁relocated	-10559
▁repayment	-10560
▁replenish	-10561
▁requested	-10562
▁requiring	-10563
▁reserving	-10564
▁responded	-10565
▁righteous	-10566
▁seleznyov	-10567
▁sensation	-10568
▁simulated	-10569
▁slightest	-10570
▁solutions	-10571
▁sometimes	-10572
▁spreading	-10573
▁streamers	-10574
▁summarize	-10575
▁supplying	-10576
▁suspected	-10577
▁suspicion	-10578
▁teachings	-10579
▁terrorist	-10580
▁textbooks	-10581
▁threatens	-10582
▁threshold	-10583
▁tokujitsu	-10584
▁tolerance	-10585
▁tolerated	-10586
▁trademark	-10587
▁trampling	-10588
▁treasured	-10589
▁unbridled	-10590
▁uncertain	-10591
▁undertake	-10592
▁underwent	-10593
▁unpopular	-10594
▁unsettled	-10595
▁uruguayan	-10596
▁vacancies	-10597
▁variables	-10598
▁voluntary	-10599
▁warplanes	-10600
▁wholesale	-10601
▁willfully	-10602
▁willingly	-10603
▁withdraws	-10604
▁witnesses	-10605
▁xianglong	-10606
cultivation	-10607
improvement	-10608
performance	-10609
▁addressing	-10610
▁admiration	-10611
▁admonitory	-10612
▁affiliated	-10613
▁aggravated	-10614
▁alleviated	-10615
▁ammunition	-10616
▁amphibious	-10617
▁apparently	-10618
▁appearance	-10619
▁applicable	-10620
▁approached	-10621
▁assurances	-10622
▁astronauts	-10623
▁asymmetric	-10624
▁attainment	-10625
▁attempting	-10626
▁attractive	-10627
▁bargaining	-10628
▁biological	-10629
▁borderline	-10630
▁brilliance	-10631
▁california	-10632
▁candidates	-10633
▁cautiously	-10634
▁challenged	-10635
▁characters	-10636
▁cheerfully	-10637
▁classrooms	-10638
▁commentary	-10639
▁committing	-10640
▁compensate	-10641
▁complaints	-10642
▁compulsory	-10643
▁conceptual	-10644
▁concluding	-10645
▁condemning	-10646
▁controlled	-10647
▁conversion	-10648
▁countering	-10649
▁currencies	-10650
▁dedicating	-10651
▁definition	-10652
▁delivering	-10653
▁descendant	-10654
▁despicable	-10655
▁disastrous	-10656
▁dispirited	-10657
▁downloaded	-10658
▁economical	-10659
▁electrical	-10660
▁eloquently	-10661
▁emphasizes	-10662
▁encroached	-10663
▁endangered	-10664
▁equivalent	-10665
▁escalation	-10666
▁evaluating	-10667
▁evaluation	-10668
▁explosions	-10669
▁explosives	-10670
▁extinction	-10671
▁extremists	-10672
▁farsighted	-10673
▁formidable	-10674
▁frameworks	-10675
▁fraudulent	-10676
▁graduating	-10677
▁grasslands	-10678
▁harvesting	-10679
▁henceforth	-10680
▁hinterland	-10681
▁humanistic	-10682
▁indefinite	-10683
▁indicators	-10684
▁indonesian	-10685
▁inherently	-10686
▁innumerous	-10687
▁insistence	-10688
▁instigated	-10689
▁instructed	-10690
▁invincible	-10691
▁limitation	-10692
▁litigation	-10693
▁locomotive	-10694
▁membership	-10695
▁memorandum	-10696
▁mobilizing	-10697
▁montevideo	-10698
▁multilevel	-10699
▁noticeable	-10700
▁obstructed	-10701
▁occurrence	-10702
▁overlooked	-10703
▁parachuted	-10704
▁performing	-10705
▁permitting	-10706
▁persisting	-10707
▁pilgrimage	-10708
▁popularize	-10709
▁portuguese	-10710
▁prescribed	-10711
▁preventing	-10712
▁privileges	-10713
▁procedural	-10714
▁propagated	-10715
▁proponents	-10716
▁prosecutor	-10717
▁protestant	-10718
▁protesters	-10719
▁punishable	-10720
▁rationally	-10721
▁reaffirmed	-10722
▁reasonably	-10723
▁regimental	-10724
▁regulating	-10725
▁relaxation	-10726
▁researcher	-10727
▁resistance	-10728
▁restraints	-10729
▁resumption	-10730
▁sacrifices	-10731
▁satisfying	-10732
▁scriptures	-10733
▁sentiments	-10734
▁serviceman	-10735
▁snakeheads	-10736
▁solidarity	-10737
▁sovremenny	-10738
▁spacecraft	-10739
▁stationing	-10740
▁stipulates	-10741
▁structures	-10742
▁struggling	-10743
▁subsequent	-10744
▁supporters	-10745
▁surpassing	-10746
▁suspicious	-10747
▁systematic	-10748
▁tactically	-10749
▁tendencies	-10750
▁thereafter	-10751
▁traditions	-10752
▁truthfully	-10753
▁turnaround	-10754
▁undergoing	-10755
▁underlying	-10756
▁undertakes	-10757
▁underworld	-10758
▁unofficial	-10759
▁unshakable	-10760
▁vandenberg	-10761
▁victorious	-10762
▁volunteers	-10763
independence	-10764
▁absurdities	-10765
▁advancement	-10766
▁antimissile	-10767
▁appearances	-10768
▁arduousness	-10769
▁astonishing	-10770
▁baluyevskiy	-10771
▁bureaucracy	-10772
▁camouflaged	-10773
▁ceaselessly	-10774
▁ceremonious	-10775
▁coefficient	-10776
▁commentator	-10777
▁communities	-10778
▁comparisons	-10779
▁conclusions	-10780
▁condolences	-10781
▁confessions	-10782
▁consciously	-10783
▁considering	-10784
▁constitutes	-10785
▁constraints	-10786
▁constructed	-10787
▁contingents	-10788
▁controversy	-10789
▁convenience	-10790
▁convertible	-10791
▁convocation	-10792
▁cornerstone	-10793
▁credentials	-10794
▁degenerated	-10795
▁devaluating	-10796
▁dialectical	-10797
▁disappeared	-10798
▁discovering	-10799
▁disparities	-10800
▁distinguish	-10801
▁domineering	-10802
▁eliminating	-10803
▁emphasizing	-10804
▁encouraging	-10805
▁equilibrium	-10806
▁eradicating	-10807
▁eradication	-10808
▁exceptional	-10809
▁excessively	-10810
▁expectation	-10811
▁flexibility	-10812
▁forgiveness	-10813
▁frantically	-10814
▁immigration	-10815
▁implication	-10816
▁inalienable	-10817
▁inaugurated	-10818
▁industrious	-10819
▁inescapable	-10820
▁instituting	-10821
▁instruction	-10822
▁intentional	-10823
▁interactive	-10824
▁interesting	-10825
▁interrupted	-10826
▁involvement	-10827
▁meritorious	-10828
▁modernizing	-10829
▁negotiating	-10830
▁netherlands	-10831
▁objectively	-10832
▁overbearing	-10833
▁personality	-10834
▁politicized	-10835
▁proceedings	-10836
▁prohibition	-10837
▁proletariat	-10838
▁prosecution	-10839
▁qualitative	-10840
▁reactionary	-10841
▁recommended	-10842
▁resentments	-10843
▁residential	-10844
▁restriction	-10845
▁restrictive	-10846
▁selfishness	-10847
▁separatists	-10848
▁shouldering	-10849
▁situational	-10850
▁stabilizing	-10851
▁standardize	-10852
▁steadfastly	-10853
▁subdivision	-10854
▁subsistence	-10855
▁supervising	-10856
▁technicians	-10857
▁televisions	-10858
▁termination	-10859
▁threatening	-10860
▁tranquility	-10861
▁trustworthy	-10862
▁uncondition	-10863
▁undesirable	-10864
▁unfavorable	-10865
▁unfortunate	-10866
▁unshirkable	-10867
determination	-10868
▁academicians	-10869
▁accumulation	-10870
▁backwardness	-10871
▁celebrations	-10872
▁certificates	-10873
▁christianity	-10874
▁collectivism	-10875
▁commendation	-10876
▁commissioner	-10877
▁consolidated	-10878
▁constituting	-10879
▁constraining	-10880
▁deficiencies	-10881
▁deliberation	-10882
▁deteriorated	-10883
▁domestically	-10884
▁earthshaking	-10885
▁emancipation	-10886
▁experimental	-10887
▁fundamentals	-10888
▁imperialists	-10889
▁implications	-10890
▁incompatible	-10891
▁incorporated	-10892
▁intermediate	-10893
▁irreversible	-10894
▁jurisdiction	-10895
▁longstanding	-10896
▁malpractices	-10897
▁mathematical	-10898
▁missionaries	-10899
▁northwestern	-10900
▁optimization	-10901
▁performances	-10902
▁polarization	-10903
▁predecessors	-10904
▁programmatic	-10905
▁registration	-10906
▁reinvigorate	-10907
▁rejuvenating	-10908
▁replacements	-10909
▁representing	-10910
▁reservations	-10911
▁resoluteness	-10912
▁scrupulously	-10913
▁similarities	-10914
▁southeastern	-10915
▁stubbornness	-10916
▁tranquillity	-10917
▁transactions	-10918
▁truthfulness	-10919
▁turkmenistan	-10920
▁unacceptable	-10921
▁universality	-10922
▁verification	-10923
▁vicissitudes	-10924
▁antiballistic	-10925
▁antismuggling	-10926
▁antisubmarine	-10927
▁authorization	-10928
▁beneficiaries	-10929
▁characterized	-10930
▁congratulated	-10931
▁determination	-10932
▁differentiate	-10933
▁disappearance	-10934
▁enlightenment	-10935
▁inexhaustible	-10936
▁investigative	-10937
▁multipolarity	-10938
▁penetratingly	-10939
▁philosophical	-10940
▁reconsidering	-10941
▁rectification	-10942
▁reimbursement	-10943
▁reinforcement	-10944
▁repercussions	-10945
▁retrogression	-10946
▁significantly	-10947
▁socialization	-10948
▁sportsmanship	-10949
▁standardizing	-10950
▁confrontations	-10951
▁convertibility	-10952
▁correspondence	-10953
▁counterfeiting	-10954
▁differentiated	-10955
▁identification	-10956
▁indiscriminate	-10957
▁indoctrination	-10958
▁liberalization	-10959
▁meteorological	-10960
▁neighborliness	-10961
▁stephanopoulos	-10962
▁teleconference	-10963
▁uncompromising	-10964
▁understandings	-10965
▁correspondingly	-10966
▁diversification	-10967
▁extracurricular	-10968
▁extraordinarily	-10969
▁humanitarianism	-10970
▁nationalization	-10971
▁noninterference	-10972
▁unipolarization	-10973
,64	-10974
104	-10975
130	-10976
144	-10977
197	-10978
fiq	-10979
mmo	-10980
rpk	-10981
tcr	-10982
,300	-10983
,648	-10984
-124	-10985
0045	-10986
8.76	-10987
ahud	-10988
coal	-10989
drop	-10990
drpk	-10991
irah	-10992
niko	-10993
nson	-10994
otti	-10995
sino	-10996
skir	-10997
uiqi	-10998
wana	-10999
cued	-11000
▁...	-11001
▁093	-11002
▁35-	-11003
▁350	-11004
▁478	-11005
▁5.6	-11006
▁523	-11007
▁705	-11008
▁727	-11009
▁755	-11010
▁882	-11011
▁944	-11012
▁ctc	-11013
▁cwc	-11014
▁uae	-11015
-1980	-11016
144.4	-11017
18.76	-11018
accur	-11019
agoda	-11020
aguay	-11021
aguol	-11022
ahara	-11023
ahudd	-11024
allah	-11025
ambia	-11026
anuts	-11027
aojun	-11028
ariny	-11029
awang	-11030
basis	-11031
bergi	-11032
bijan	-11033
canad	-11034
coons	-11035
daohe	-11036
emoch	-11037
ertil	-11038
etbeg	-11039
hunpo	-11040
igley	-11041
ihari	-11042
ihito	-11043
inyao	-11044
inyin	-11045
irens	-11046
iyoda	-11047
kovic	-11048
ksuck	-11049
leezz	-11050
looks	-11051
madan	-11052
niger	-11053
ogmat	-11054
olker	-11055
oofed	-11056
outef	-11057
patit	-11058
polit	-11059
posts	-11060
qiong	-11061
rique	-11062
topic	-11063
trust	-11064
uelan	-11065
uffed	-11066
ullah	-11067
uncan	-11068
untly	-11069
witch	-11070
woman	-11071
▁0900	-11072
▁0932	-11073
▁1,33	-11074
▁1.01	-11075
▁1.04	-11076
▁1.15	-11077
▁1.65	-11078
▁14.6	-11079
▁1619	-11080
▁1907	-11081
▁1946	-11082
▁2019	-11083
▁262,	-11084
▁4104	-11085
▁4783	-11086
▁49.3	-11087
▁49.7	-11088
▁52.5	-11089
▁64.8	-11090
▁69.2	-11091
▁7555	-11092
▁8.1-	-11093
▁9.58	-11094
▁96.3	-11095
▁bosn	-11096
▁bulk	-11097
▁cmte	-11098
▁coco	-11099
,99	-11100
999	-11101
gta	-11102
,995	-11103
aoka	-11104
bott	-11105
eeze	-11106
flop	-11107
flow	-11108
lika	-11109
saka	-11110
▁sdi	-11111
-1999	-11112
ardze	-11113
ayaka	-11114
reeze	-11115
vania	-11116
▁dafa	-11117
▁dedu	-11118
▁duen	-11119
▁eyeb	-11120
▁fitt	-11121
▁flaw	-11122
▁gama	-11123
▁gamb	-11124
▁garr	-11125
▁guel	-11126
▁heyd	-11127
▁hurt	-11128
▁jump	-11129
▁kidn	-11130
▁levy	-11131
▁liby	-11132
▁msar	-11133
▁mtcr	-11134
▁ngap	-11135
▁nuts	-11136
▁okay	-11137
▁plug	-11138
▁qizh	-11139
▁rome	-11140
▁siem	-11141
▁skew	-11142
▁ssic	-11143
▁tiny	-11144
▁tune	-11145
▁unsa	-11146
▁webp	-11147
▁woes	-11148
▁xias	-11149
▁xihu	-11150
144.40	-11151
acards	-11152
aguola	-11153
ainqen	-11154
alimar	-11155
baping	-11156
bergis	-11157
capita	-11158
caucas	-11159
charge	-11160
consin	-11161
cuffed	-11162
desert	-11163
design	-11164
effect	-11165
esburg	-11166
escrib	-11167
estyle	-11168
horted	-11169
iangzi	-11170
igeria	-11171
igrate	-11172
iqiong	-11173
ischer	-11174
lvania	-11175
moldov	-11176
munist	-11177
namara	-11178
nardze	-11179
ocaust	-11180
oleezz	-11181
omeito	-11182
opolit	-11183
petual	-11184
phasis	-11185
rapped	-11186
rusion	-11187
scapes	-11188
skirts	-11189
solete	-11190
ucasus	-11191
ulishi	-11192
ultane	-11193
umbled	-11194
usibly	-11195
veiled	-11196
witted	-11197
yinbeg	-11198
▁1,338	-11199
.3-	-11200
mob	-11201
disp	-11202
fasc	-11203
▁2.9	-11204
▁3.3	-11205
▁cmt	-11206
▁qiu	-11207
ascal	-11208
gener	-11209
ilson	-11210
imoto	-11211
ovasc	-11212
▁11.9	-11213
▁13.9	-11214
▁16.9	-11215
▁8.3-	-11216
▁jeep	-11217
▁jeop	-11218
▁jewe	-11219
himoto	-11220
iovasc	-11221
payers	-11222
▁1.145	-11223
▁105.9	-11224
▁15-26	-11225
▁2,300	-11226
▁21-26	-11227
▁3,100	-11228
▁3,463	-11229
▁3,500	-11230
▁5,500	-11231
▁523.3	-11232
▁9,300	-11233
▁abdul	-11234
▁abdur	-11235
▁adamk	-11236
▁aiguo	-11237
▁benxi	-11238
▁brazz	-11239
▁brink	-11240
▁bully	-11241
▁buyer	-11242
▁campb	-11243
▁claus	-11244
▁clgta	-11245
▁cloth	-11246
▁cmtte	-11247
▁daomu	-11248
▁datab	-11249
▁datan	-11250
▁dishe	-11251
▁drown	-11252
▁engel	-11253
▁fanat	-11254
▁frost	-11255
▁ghost	-11256
▁gifts	-11257
▁guofa	-11258
▁hawks	-11259
▁horiz	-11260
▁huban	-11261
▁hurry	-11262
▁ionic	-11263
▁jewel	-11264
▁jiafu	-11265
▁kalim	-11266
▁kelly	-11267
▁kirch	-11268
▁kitty	-11269
▁kudan	-11270
▁loser	-11271
▁mammo	-11272
▁masse	-11273
▁melod	-11274
▁milky	-11275
▁muray	-11276
▁muzhi	-11277
▁namib	-11278
▁nanqi	-11279
▁neutr	-11280
▁ngapo	-11281
▁nobel	-11282
▁nomin	-11283
▁omnid	-11284
▁osaka	-11285
▁ought	-11286
▁pairs	-11287
▁pingt	-11288
▁pisen	-11289
▁pitak	-11290
▁pragm	-11291
▁prize	-11292
▁qiuan	-11293
▁rabin	-11294
▁racan	-11295
▁rafiq	-11296
▁randt	-11297
▁shana	-11298
▁sizes	-11299
tax	-11300
zeg	-11301
burn	-11302
ewit	-11303
jiao	-11304
leys	-11305
lims	-11306
news	-11307
nony	-11308
qiao	-11309
twin	-11310
urdy	-11311
▁jew	-11312
▁mik	-11313
nonym	-11314
zegov	-11315
▁16.8	-11316
▁anew	-11317
▁biao	-11318
▁cims	-11319
▁hike	-11320
▁mikh	-11321
▁yaob	-11322
angjie	-11323
burton	-11324
firing	-11325
ouqiao	-11326
utiful	-11327
ysical	-11328
▁ambit	-11329
▁baihe	-11330
▁beida	-11331
▁caihe	-11332
▁clark	-11333
▁horse	-11334
▁irref	-11335
▁sofia	-11336
▁somal	-11337
▁spike	-11338
▁sweep	-11339
▁sword	-11340
▁tajik	-11341
▁torch	-11342
▁troik	-11343
▁tsuen	-11344
▁tsung	-11345
▁tunis	-11346
▁turvy	-11347
▁unacc	-11348
▁unsal	-11349
▁unspe	-11350
▁unwar	-11351
▁video	-11352
▁woods	-11353
▁wuchi	-11354
▁xishi	-11355
▁yasir	-11356
▁yujun	-11357
▁yukun	-11358
▁zehun	-11359
8000045	-11360
agantly	-11361
ahuddin	-11362
aphones	-11363
breaker	-11364
curtain	-11365
deeming	-11366
erkovic	-11367
ersonic	-11368
ertiliz	-11369
fascist	-11370
general	-11371
givable	-11372
gouqiao	-11373
ighterd	-11374
ilhunpo	-11375
iperson	-11376
ittling	-11377
jiagang	-11378
leaping	-11379
lithuan	-11380
looking	-11381
maltese	-11382
nesburg	-11383
oleezza	-11384
opelled	-11385
oreseen	-11386
oscopic	-11387
patitis	-11388
phariny	-11389
pingcuo	-11390
rauding	-11391
scurity	-11392
seeking	-11393
spiring	-11394
stander	-11395
strikes	-11396
thermal	-11397
tongued	-11398
uanchun	-11399
-22	-11400
.44	-11401
8.4	-11402
▁0.4	-11403
▁3.1	-11404
▁4.1	-11405
▁4.4	-11406
▁5.1	-11407
arers	-11408
ubsid	-11409
▁20-2	-11410
▁20.1	-11411
▁21.9	-11412
▁28.4	-11413
▁40.4	-11414
▁5.15	-11415
▁68.4	-11416
▁thug	-11417
▁yunx	-11418
alanch	-11419
allows	-11420
ippine	-11421
issipp	-11422
subsid	-11423
▁20-25	-11424
▁25.44	-11425
▁28.42	-11426
▁films	-11427
▁thugs	-11428
▁uneas	-11429
▁widen	-11430
▁windy	-11431
alanche	-11432
anchise	-11433
issippi	-11434
subsidy	-11435
ueliang	-11436
uttered	-11437
uzhuang	-11438
vergent	-11439
vietnam	-11440
▁acquis	-11441
▁alumin	-11442
▁animal	-11443
▁antiso	-11444
▁ascend	-11445
▁assert	-11446
▁bandar	-11447
▁baojun	-11448
▁barrie	-11449
▁bathed	-11450
▁berlin	-11451
▁berths	-11452
▁bihari	-11453
▁bishop	-11454
▁bitten	-11455
▁blasts	-11456
▁bosnia	-11457
▁botich	-11458
▁boutef	-11459
▁brands	-11460
▁bribes	-11461
▁buddha	-11462
▁buffer	-11463
▁buffet	-11464
▁bumper	-11465
▁causal	-11466
▁cheeks	-11467
▁chunan	-11468
▁conjun	-11469
▁copies	-11470
▁copper	-11471
▁cowork	-11472
▁crafty	-11473
▁dagger	-11474
▁dashed	-11475
▁defray	-11476
▁deshun	-11477
▁detect	-11478
▁disadv	-11479
▁dispel	-11480
▁dragon	-11481
▁elders	-11482
▁endeav	-11483
▁envoys	-11484
▁extrav	-11485
▁eyewit	-11486
▁feeble	-11487
▁figaro	-11488
▁filter	-11489
▁flawed	-11490
▁flowed	-11491
▁gannan	-11492
▁greeks	-11493
▁guelle	-11494
▁gujiao	-11495
▁hacker	-11496
▁heydar	-11497
▁holker	-11498
▁hoofed	-11499
,50	-11500
-13	-11501
,509	-11502
-135	-11503
-300	-11504
cycl	-11505
link	-11506
▁0.3	-11507
▁1-3	-11508
prime	-11509
rases	-11510
uangh	-11511
upted	-11512
▁0.33	-11513
▁28-3	-11514
▁dioc	-11515
▁foot	-11516
cyclop	-11517
oguang	-11518
remlin	-11519
▁28-30	-11520
▁7,509	-11521
▁dykes	-11522
▁hangs	-11523
▁homem	-11524
▁homet	-11525
▁hsien	-11526
▁kitan	-11527
▁misle	-11528
▁roman	-11529
▁tanin	-11530
▁teams	-11531
product	-11532
rolling	-11533
uanghsi	-11534
▁divert	-11535
▁fleets	-11536
▁horgos	-11537
▁hsinch	-11538
▁imagin	-11539
▁invari	-11540
▁jinchi	-11541
▁jingan	-11542
▁jingyu	-11543
▁jurors	-11544
▁lankan	-11545
▁lequan	-11546
▁libyan	-11547
▁licens	-11548
▁lixian	-11549
▁looser	-11550
▁luquan	-11551
▁machin	-11552
▁malays	-11553
▁maomin	-11554
▁memoir	-11555
▁merger	-11556
▁mingyi	-11557
▁misjud	-11558
▁mitter	-11559
▁mouths	-11560
▁muddle	-11561
▁myster	-11562
▁nearer	-11563
▁offset	-11564
▁outset	-11565
▁packed	-11566
▁pagoda	-11567
▁penghu	-11568
▁plague	-11569
▁plainc	-11570
▁primer	-11571
▁proxim	-11572
▁pulled	-11573
▁qilian	-11574
▁qishan	-11575
▁quotas	-11576
▁ranged	-11577
▁rascal	-11578
▁rebell	-11579
▁rebels	-11580
▁rebuff	-11581
▁reluct	-11582
▁render	-11583
▁reopen	-11584
▁repaid	-11585
▁ringle	-11586
▁robots	-11587
▁romano	-11588
▁rushes	-11589
▁sabote	-11590
▁sancai	-11591
▁secede	-11592
▁seemed	-11593
▁sequel	-11594
▁shaoji	-11595
▁shells	-11596
▁shouts	-11597
▁shrink	-11598
▁silver	-11599
crew	-11600
frog	-11601
prem	-11602
▁1,2	-11603
▁1,6	-11604
▁gps	-11605
evalu	-11606
hyang	-11607
langu	-11608
rempt	-11609
▁1,22	-11610
▁bull	-11611
▁null	-11612
▁qiyu	-11613
▁xuet	-11614
▁yanc	-11615
ehyang	-11616
romulg	-11617
rorism	-11618
ushita	-11619
▁1,227	-11620
▁1,630	-11621
▁50-70	-11622
▁qiyua	-11623
▁straw	-11624
▁unreg	-11625
▁yanan	-11626
estonia	-11627
ography	-11628
premier	-11629
sushita	-11630
▁andrew	-11631
▁embold	-11632
▁huaren	-11633
▁nanhai	-11634
▁onlook	-11635
▁retrog	-11636
▁shuwen	-11637
▁siying	-11638
▁skewed	-11639
▁slowed	-11640
▁sorrow	-11641
▁stalem	-11642
▁strand	-11643
▁strobe	-11644
▁stroll	-11645
▁sturdy	-11646
▁subson	-11647
▁sweden	-11648
▁tanino	-11649
▁tatami	-11650
▁toasts	-11651
▁topped	-11652
▁tracks	-11653
▁triads	-11654
▁turbul	-11655
▁ukrain	-11656
▁unreal	-11657
▁unsink	-11658
▁uproot	-11659
▁vacant	-11660
▁vacill	-11661
▁versat	-11662
▁vulgar	-11663
▁weiguo	-11664
▁weilan	-11665
▁wenrui	-11666
▁window	-11667
▁wooden	-11668
▁worsen	-11669
▁wuchiu	-11670
▁yancun	-11671
▁yangba	-11672
▁yanxin	-11673
▁yaohui	-11674
▁yeping	-11675
▁yingbi	-11676
▁zambia	-11677
▁zhengg	-11678
28000045	-11679
accurate	-11680
advanced	-11681
armenian	-11682
assisted	-11683
avorotti	-11684
bergiene	-11685
breakers	-11686
cambodia	-11687
canadian	-11688
capacity	-11689
cycloped	-11690
district	-11691
dropping	-11692
escended	-11693
evaluate	-11694
financed	-11695
gangshan	-11696
gaphones	-11697
herzegov	-11698
hilhunpo	-11699
haf	-11700
liu	-11701
mpi	-11702
hafi	-11703
iggy	-11704
ttes	-11705
umsy	-11706
▁264	-11707
▁yeh	-11708
alded	-11709
icago	-11710
raphy	-11711
▁10.7	-11712
▁15.8	-11713
▁2245	-11714
▁23.7	-11715
▁dreg	-11716
▁khal	-11717
▁lieg	-11718
▁rati	-11719
adhafi	-11720
anshan	-11721
izstan	-11722
letion	-11723
ophile	-11724
regate	-11725
uelong	-11726
ursors	-11727
▁15.89	-11728
▁audio	-11729
▁dregs	-11730
▁enliv	-11731
▁irrad	-11732
▁knees	-11733
▁mitre	-11734
▁panam	-11735
▁piggy	-11736
▁tseng	-11737
▁yeare	-11738
arettes	-11739
gregate	-11740
igraphy	-11741
ingshan	-11742
juelong	-11743
▁ciampi	-11744
▁clumsy	-11745
▁embarr	-11746
▁forthw	-11747
▁huangp	-11748
▁khalif	-11749
▁liegui	-11750
▁mitrev	-11751
▁prince	-11752
▁ratify	-11753
▁ratios	-11754
▁titled	-11755
▁trailb	-11756
defining	-11757
ghizstan	-11758
ibearing	-11759
idumping	-11760
iguangge	-11761
imidated	-11762
imulated	-11763
industry	-11764
interest	-11765
isterial	-11766
language	-11767
lawfully	-11768
nections	-11769
neighbor	-11770
nigerian	-11771
ogmatist	-11772
ographed	-11773
ominable	-11774
ommunist	-11775
passable	-11776
pearance	-11777
queathed	-11778
stripped	-11779
sylvania	-11780
training	-11781
vertibly	-11782
▁130,000	-11783
▁2,500-3	-11784
▁242,600	-11785
▁262,100	-11786
▁300,000	-11787
▁400,000	-11788
▁450,000	-11789
▁5,000-6	-11790
▁640,000	-11791
▁720,000	-11792
▁800,000	-11793
▁884,200	-11794
▁abolish	-11795
▁abusing	-11796
▁accumul	-11797
▁acquain	-11798
▁adapted	-11799
uoj	-11800
azov	-11801
iduo	-11802
oguo	-11803
▁144	-11804
▁250	-11805
▁7.5	-11806
aoguo	-11807
apses	-11808
azing	-11809
uojic	-11810
▁1.13	-11811
▁1400	-11812
▁1972	-11813
▁1975	-11814
▁hank	-11815
▁kuwa	-11816
contin	-11817
iyazov	-11818
lazing	-11819
rypted	-11820
▁1.137	-11821
▁blank	-11822
▁digit	-11823
▁gflop	-11824
▁mocks	-11825
▁swaps	-11826
▁yiduo	-11827
itivity	-11828
▁1.1377	-11829
▁14,000	-11830
▁dissan	-11831
▁duojic	-11832
▁escort	-11833
▁exclud	-11834
▁exclus	-11835
▁grasps	-11836
▁kinder	-11837
▁kuwait	-11838
▁lunnan	-11839
▁mercil	-11840
▁pollut	-11841
▁agendas	-11842
▁aircrew	-11843
▁akihito	-11844
▁alleged	-11845
▁altered	-11846
▁analyze	-11847
▁anthony	-11848
▁anthrop	-11849
▁arsenal	-11850
▁arsenic	-11851
▁atalash	-11852
▁austria	-11853
▁automob	-11854
▁backing	-11855
▁bainqen	-11856
▁batches	-11857
▁bearers	-11858
▁begging	-11859
▁bewitch	-11860
▁bingcai	-11861
▁bingyin	-11862
▁bishops	-11863
▁bluntly	-11864
▁boarded	-11865
▁bolkiar	-11866
▁bravely	-11867
▁brazzav	-11868
▁brushed	-11869
▁bullied	-11870
▁burmese	-11871
▁busiest	-11872
▁chengfu	-11873
▁chiyoda	-11874
▁clarify	-11875
▁clauses	-11876
▁coerced	-11877
▁coexist	-11878
▁conceal	-11879
▁conceiv	-11880
▁confirm	-11881
▁convene	-11882
▁cotents	-11883
▁crewmen	-11884
▁custody	-11885
▁cutting	-11886
▁decrees	-11887
▁derided	-11888
▁destiny	-11889
▁deviate	-11890
▁devotes	-11891
▁diction	-11892
▁drastic	-11893
▁elapsed	-11894
▁embargo	-11895
▁erdaohe	-11896
▁erupted	-11897
▁escaped	-11898
▁escapes	-11899
mma	-11900
amma	-11901
fees	-11902
they	-11903
▁138	-11904
▁2-3	-11905
▁278	-11906
▁ott	-11907
accum	-11908
feres	-11909
oresh	-11910
▁jius	-11911
▁opec	-11912
▁otta	-11913
▁porn	-11914
▁unfe	-11915
ilemma	-11916
▁chunl	-11917
▁firew	-11918
▁fujim	-11919
▁gamma	-11920
▁insec	-11921
▁navig	-11922
▁squab	-11923
▁squad	-11924
▁virus	-11925
▁yinhe	-11926
▁youde	-11927
accumul	-11928
charged	-11929
fection	-11930
ightsee	-11931
pancies	-11932
putulla	-11933
▁afores	-11934
▁chengk	-11935
▁chengs	-11936
▁gangst	-11937
▁jewish	-11938
▁jiusan	-11939
▁keming	-11940
▁koresh	-11941
▁ottawa	-11942
▁scores	-11943
▁unpaid	-11944
▁unpred	-11945
▁yongbo	-11946
▁zhiqin	-11947
ordinary	-11948
▁138,000	-11949
▁adamkus	-11950
▁changde	-11951
▁chunlan	-11952
▁curtain	-11953
▁debtors	-11954
▁desires	-11955
▁dilemma	-11956
▁enacted	-11957
▁estonia	-11958
▁estrang	-11959
▁exploit	-11960
▁fanning	-11961
▁fascism	-11962
▁fascist	-11963
▁fastest	-11964
▁fittest	-11965
▁forbids	-11966
▁fortune	-11967
▁fraught	-11968
▁fujimor	-11969
▁granite	-11970
▁gratina	-11971
▁greeted	-11972
▁guelleh	-11973
▁guoxian	-11974
▁harshly	-11975
▁healing	-11976
▁hitting	-11977
▁holkeri	-11978
▁hongbin	-11979
▁hsinchu	-11980
▁huangbi	-11981
▁impeded	-11982
▁inherit	-11983
▁ireland	-11984
▁jamyang	-11985
▁jeopard	-11986
▁jewelry	-11987
▁jingxin	-11988
▁johnson	-11989
▁jumping	-11990
▁keqiang	-11991
▁khalifa	-11992
▁kirchir	-11993
▁komeito	-11994
▁kremlin	-11995
▁kunming	-11996
▁kunshan	-11997
▁lacking	-11998
▁leaping	-11999
-24	-12000
7.7	-12001
bbs	-12002
siu	-12003
umbr	-12004
▁118	-12005
▁172	-12006
▁220	-12007
▁246	-12008
blood	-12009
ospin	-12010
phalt	-12011
▁11.2	-12012
▁citc	-12013
▁cosp	-12014
▁ebbs	-12015
▁ecos	-12016
▁ecst	-12017
▁hsiu	-12018
▁sunk	-12019
uggish	-12020
uggled	-12021
urring	-12022
zuelan	-12023
▁187.7	-12024
▁citcf	-12025
▁ferre	-12026
▁hague	-12027
▁james	-12028
▁names	-12029
▁orbit	-12030
▁seeds	-12031
▁sheds	-12032
▁yihui	-12033
estuous	-12034
▁blames	-12035
▁bomber	-12036
▁custom	-12037
▁daming	-12038
▁detent	-12039
▁doubly	-12040
▁ecosoc	-12041
▁glance	-12042
▁jospin	-12043
▁mindse	-12044
▁penalt	-12045
▁portra	-12046
▁superl	-12047
▁unsafe	-12048
election	-12049
reathing	-12050
uangqing	-12051
umbrance	-12052
▁514,200	-12053
▁asphalt	-12054
▁barring	-12055
▁confuse	-12056
▁cospons	-12057
▁detente	-12058
▁ecology	-12059
▁ecstasy	-12060
▁expedit	-12061
▁lecheng	-12062
▁lengthy	-12063
▁liangyu	-12064
▁lieuten	-12065
▁lifesty	-12066
▁lighter	-12067
▁lightly	-12068
▁lingeng	-12069
▁lodging	-12070
▁loyalty	-12071
▁luckily	-12072
▁luoyuan	-12073
▁magical	-12074
▁mammoth	-12075
▁margins	-12076
▁migrate	-12077
▁mikhail	-12078
▁miscell	-12079
▁murdere	-12080
▁mystery	-12081
▁namibia	-12082
▁nanzhao	-12083
▁nigeria	-12084
▁niyazov	-12085
▁painful	-12086
▁permits	-12087
▁phrases	-12088
▁pinning	-12089
▁platoon	-12090
▁plunder	-12091
▁praises	-12092
▁prelude	-12093
▁prisons	-12094
▁probing	-12095
▁pulling	-12096
▁qiangzi	-12097
▁qingdao	-12098
▁qingtai	-12099
.29	-12100
beat	-12101
byes	-12102
ihon	-12103
▁117	-12104
▁2.2	-12105
▁27-	-12106
▁3.8	-12107
▁309	-12108
▁6.2	-12109
▁bio	-12110
giers	-12111
imper	-12112
mming	-12113
oneym	-12114
riger	-12115
valry	-12116
▁1172	-12117
▁15.2	-12118
▁6.21	-12119
▁barb	-12120
▁brag	-12121
▁hamb	-12122
▁oval	-12123
gacity	-12124
irming	-12125
kindle	-12126
perate	-12127
▁36.29	-12128
▁annih	-12129
▁bangk	-12130
▁besot	-12131
▁brags	-12132
▁dares	-12133
▁maybe	-12134
▁nihon	-12135
▁barbar	-12136
▁bioeng	-12137
▁calend	-12138
▁frivol	-12139
▁hambur	-12140
▁honeym	-12141
▁sealed	-12142
▁upbeat	-12143
▁writer	-12144
▁yangce	-12145
imperial	-12146
mingling	-12147
▁aimless	-12148
▁algiers	-12149
▁annihil	-12150
▁bangkok	-12151
▁dajiang	-12152
▁hamburg	-12153
▁matured	-12154
▁quicker	-12155
▁quigley	-12156
▁recipro	-12157
▁rectify	-12158
▁referee	-12159
▁regimes	-12160
▁regrets	-12161
▁reining	-12162
▁relaxed	-12163
▁remorse	-12164
▁repairs	-12165
▁rescued	-12166
▁revenge	-12167
▁revoked	-12168
▁rigging	-12169
▁rivalry	-12170
▁ruining	-12171
▁ruinous	-12172
▁rumbled	-12173
▁samples	-12174
▁sandbag	-12175
▁scalded	-12176
▁scaling	-12177
▁seasons	-12178
▁sellers	-12179
▁shaojie	-12180
▁sharper	-12181
▁sharply	-12182
▁shelter	-12183
▁slacken	-12184
▁slashed	-12185
▁slowing	-12186
▁somalia	-12187
▁sorting	-12188
▁soviets	-12189
▁spectac	-12190
▁spelled	-12191
▁stamina	-12192
▁sternly	-12193
▁subunit	-12194
▁suicide	-12195
▁summits	-12196
▁sunburn	-12197
▁superim	-12198
▁superso	-12199
ufe	-12200
cisc	-12201
▁180	-12202
▁752	-12203
▁puf	-12204
cisco	-12205
fired	-12206
ouges	-12207
▁1982	-12208
▁1983	-12209
▁1985	-12210
▁woke	-12211
ituted	-12212
▁arufe	-12213
▁bloom	-12214
▁frail	-12215
▁guosh	-12216
▁hired	-12217
▁jianz	-12218
▁maceo	-12219
▁raidi	-12220
▁sonar	-12221
▁sweat	-12222
▁waish	-12223
▁waves	-12224
▁wired	-12225
ancisco	-12226
eniency	-12227
izhuang	-12228
▁3,000-	-12229
▁beidou	-12230
▁bestir	-12231
▁digest	-12232
▁gouges	-12233
▁jinmen	-12234
▁masire	-12235
▁pufang	-12236
▁qingke	-12237
iscating	-12238
pointing	-12239
▁arabian	-12240
▁circums	-12241
▁designs	-12242
▁jianhui	-12243
▁jianzan	-12244
▁jinping	-12245
▁potable	-12246
▁refuted	-12247
▁selects	-12248
▁soundly	-12249
▁swedish	-12250
▁sympath	-12251
▁tackled	-12252
▁takeoff	-12253
▁talbott	-12254
▁tanjung	-12255
▁teacher	-12256
▁temples	-12257
▁tianbao	-12258
▁tracker	-12259
▁trapped	-12260
▁troikas	-12261
▁unavoid	-12262
▁unclear	-12263
▁unspeak	-12264
▁upwards	-12265
▁vacancy	-12266
▁valleys	-12267
▁vehicle	-12268
▁virtues	-12269
▁voyages	-12270
▁warders	-12271
▁weekend	-12272
▁weighed	-12273
▁wenming	-12274
▁wenyuan	-12275
▁withdra	-12276
▁wittily	-12277
▁writers	-12278
▁xiaohua	-12279
▁xinyang	-12280
▁xizhong	-12281
▁yanbiao	-12282
▁yanshan	-12283
▁yaobang	-12284
▁yearend	-12285
▁yongjun	-12286
▁yuanche	-12287
▁yusheng	-12288
▁yuzhang	-12289
▁zaixing	-12290
▁zhaobin	-12291
▁zhennan	-12292
▁zhihuai	-12293
▁zhiping	-12294
▁zhiqing	-12295
airstrike	-12296
antamount	-12297
aphysical	-12298
appointed	-12299
waj	-12300
royd	-12301
▁163	-12302
▁40-	-12303
▁ipr	-12304
azhou	-12305
ggars	-12306
lined	-12307
rined	-12308
▁1600	-12309
▁diet	-12310
▁kwaj	-12311
▁logs	-12312
hrined	-12313
iators	-12314
master	-12315
palest	-12316
ranted	-12317
scopic	-12318
throyd	-12319
▁congo	-12320
▁cubic	-12321
▁dengj	-12322
▁hawai	-12323
▁motiv	-12324
▁motor	-12325
▁nears	-12326
▁rumin	-12327
▁swoll	-12328
▁yimin	-12329
asterly	-12330
othroyd	-12331
▁classm	-12332
▁dengju	-12333
▁peimin	-12334
▁swings	-12335
asteries	-12336
pakistan	-12337
palestin	-12338
piration	-12339
ublished	-12340
▁assigns	-12341
▁beggars	-12342
▁chronic	-12343
▁classes	-12344
▁conquer	-12345
▁consumm	-12346
▁debates	-12347
▁editing	-12348
▁employs	-12349
▁farming	-12350
▁guoping	-12351
▁indians	-12352
▁kwajale	-12353
▁qadhafi	-12354
▁replies	-12355
▁swollen	-12356
▁tycoons	-12357
ardnardze	-12358
cambodian	-12359
designate	-12360
dominated	-12361
emocratic	-12362
eneficial	-12363
enezuelan	-12364
ertilizer	-12365
etbegovic	-12366
geniously	-12367
ibilities	-12368
iguzhuang	-12369
ihilation	-12370
immolator	-12371
inclusive	-12372
nsylvania	-12373
opolitics	-12374
pakistani	-12375
paredness	-12376
renchment	-12377
riumphant	-12378
rological	-12379
submarine	-12380
supported	-12381
terminate	-12382
terrorism	-12383
▁1,144.40	-12384
▁1984-198	-12385
▁abdallah	-12386
▁abdullah	-12387
▁absentee	-12388
▁absorbed	-12389
▁accuracy	-12390
▁advisers	-12391
▁airbases	-12392
▁allocate	-12393
▁aluminum	-12394
▁appoints	-12395
▁ardently	-12396
▁arguably	-12397
▁arsenals	-12398
▁aspiring	-12399
bash	-12400
iyun	-12401
poon	-12402
▁biy	-12403
affai	-12404
exile	-12405
upula	-12406
▁1969	-12407
▁2030	-12408
▁cats	-12409
▁kash	-12410
▁pedd	-12411
▁runs	-12412
▁skud	-12413
bashir	-12414
edient	-12415
filled	-12416
flying	-12417
incher	-12418
irator	-12419
lusion	-12420
tician	-12421
▁annex	-12422
▁appla	-12423
▁cecil	-12424
▁dread	-12425
▁excel	-12426
▁falla	-12427
▁flash	-12428
▁geost	-12429
▁huash	-12430
▁jiyun	-12431
▁slash	-12432
▁trash	-12433
andator	-12434
atories	-12435
earsome	-12436
iwupula	-12437
▁biyang	-12438
▁denies	-12439
▁geostr	-12440
▁grains	-12441
▁grasss	-12442
▁kashig	-12443
▁landsl	-12444
▁warmth	-12445
affaires	-12446
▁applaud	-12447
▁assumes	-12448
▁balking	-12449
▁cecilia	-12450
▁dancing	-12451
▁fallacy	-12452
▁formats	-12453
▁harpoon	-12454
▁hostage	-12455
▁stepped	-12456
fulfilled	-12457
righteous	-12458
▁assaults	-12459
▁asserted	-12460
▁astronom	-12461
▁audience	-12462
▁austrian	-12463
▁averages	-12464
▁aversion	-12465
▁banquets	-12466
▁bearings	-12467
▁benefici	-12468
▁besotted	-12469
▁betrayed	-12470
▁blessing	-12471
▁blocking	-12472
▁blurring	-12473
▁boosters	-12474
▁breakout	-12475
▁buddhist	-12476
▁bullying	-12477
▁calendar	-12478
▁calmness	-12479
▁campbell	-12480
▁capitals	-12481
▁caucasus	-12482
▁cemetery	-12483
▁charcoal	-12484
▁choosing	-12485
▁classics	-12486
▁clincher	-12487
▁clothing	-12488
▁coercive	-12489
▁collater	-12490
▁colorful	-12491
▁complain	-12492
▁complies	-12493
▁condemns	-12494
▁conquers	-12495
▁contests	-12496
▁converge	-12497
▁covertly	-12498
▁crystals	-12499
ozed	-12500
umpy	-12501
▁75,	-12502
▁ild	-12503
▁xna	-12504
banov	-12505
conna	-12506
iquen	-12507
named	-12508
uezhi	-12509
▁mild	-12510
▁nonp	-12511
▁tarn	-12512
atched	-12513
runner	-12514
thirds	-12515
▁bumpy	-12516
▁carna	-12517
▁gregg	-12518
▁inexp	-12519
▁kilog	-12520
▁limel	-12521
▁oozed	-12522
▁siber	-12523
▁stein	-12524
▁tarar	-12525
▁triad	-12526
lebanov	-12527
reconna	-12528
redging	-12529
rooming	-12530
▁75,700	-12531
▁cataly	-12532
▁collud	-12533
▁divine	-12534
▁multid	-12535
▁recons	-12536
▁symmet	-12537
▁trials	-12538
▁xuezhi	-12539
disputed	-12540
iplomacy	-12541
iqueness	-12542
ossoming	-12543
▁appeals	-12544
▁bravery	-12545
▁brewing	-12546
▁collude	-12547
▁hatched	-12548
▁intensf	-12549
▁kilogra	-12550
▁manners	-12551
▁mothers	-12552
▁nonprol	-12553
▁reconst	-12554
▁soaring	-12555
▁squeeze	-12556
▁steiner	-12557
▁tenghui	-12558
cientific	-12559
diplomacy	-12560
inspiring	-12561
▁broadest	-12562
▁carnahan	-12563
▁catalyst	-12564
▁culprits	-12565
▁dampened	-12566
▁daunting	-12567
▁dazzling	-12568
▁deceived	-12569
▁decrease	-12570
▁defenses	-12571
▁deficits	-12572
▁denounce	-12573
▁deserted	-12574
▁designer	-12575
▁devalued	-12576
▁devotion	-12577
▁diehards	-12578
▁disclose	-12579
▁dishevel	-12580
▁dislikes	-12581
▁dissemin	-12582
▁distorts	-12583
▁divorced	-12584
▁divorces	-12585
▁doorstep	-12586
▁dredging	-12587
▁dynamism	-12588
▁educator	-12589
▁efficacy	-12590
▁elephant	-12591
▁eloquent	-12592
▁embraces	-12593
▁encircle	-12594
▁enforces	-12595
▁escorted	-12596
▁estrange	-12597
▁exhibits	-12598
▁exhorted	-12599
koo	-12600
nev	-12601
▁78	-12602
▁97	-12603
upon	-12604
▁156	-12605
▁hoo	-12606
▁iup	-12607
▁koo	-12608
▁ruz	-12609
▁sne	-12610
cades	-12611
cored	-12612
ickup	-12613
insky	-12614
iqing	-12615
phemy	-12616
▁frid	-12617
▁gets	-12618
▁lieu	-12619
▁ruil	-12620
▁ruth	-12621
▁slab	-12622
▁slau	-12623
▁slim	-12624
▁slip	-12625
aiqing	-12626
quency	-12627
zinsky	-12628
▁9,000	-12629
▁anger	-12630
▁breed	-12631
▁clock	-12632
▁crude	-12633
▁jiaxi	-12634
▁ruili	-12635
▁slide	-12636
▁sneak	-12637
asphemy	-12638
passing	-12639
pleased	-12640
ructing	-12641
▁fences	-12642
▁friday	-12643
▁heqing	-12644
▁makeup	-12645
▁pernic	-12646
▁pickup	-12647
▁prades	-12648
▁slaugh	-12649
▁stored	-12650
▁ziqing	-12651
erscored	-12652
inquency	-12653
▁arcades	-12654
▁arrests	-12655
▁gaiqing	-12656
▁healthc	-12657
▁hooking	-12658
▁immense	-12659
▁imposes	-12660
▁kinderg	-12661
▁posture	-12662
▁pradesh	-12663
▁sliding	-12664
▁sneaked	-12665
▁streets	-12666
▁youqing	-12667
overished	-12668
▁destruct	-12669
▁explains	-12670
▁eyeblink	-12671
▁fairness	-12672
▁fanatics	-12673
▁fangshan	-12674
▁fearless	-12675
▁feyinbeg	-12676
▁fiercely	-12677
▁figuring	-12678
▁finished	-12679
▁firewall	-12680
▁flagging	-12681
▁floating	-12682
▁foreseen	-12683
▁forestry	-12684
▁frigates	-12685
▁fujimori	-12686
▁gambling	-12687
▁gangster	-12688
▁graduate	-12689
▁guanghua	-12690
▁guangxia	-12691
▁guardian	-12692
▁guoqiang	-12693
▁guosheng	-12694
▁guoxiang	-12695
▁hallmark	-12696
▁hankuang	-12697
▁harmless	-12698
▁hawaiian	-12699
gium	-12700
▁310	-12701
▁ert	-12702
▁lux	-12703
joyed	-12704
stood	-12705
▁crad	-12706
▁eros	-12707
▁erpc	-12708
▁ethn	-12709
▁fatt	-12710
▁gaut	-12711
▁hoax	-12712
▁rash	-12713
▁shev	-12714
▁squa	-12715
boding	-12716
forter	-12717
strong	-12718
▁drops	-12719
▁ertan	-12720
▁luxem	-12721
▁penal	-12722
▁pengh	-12723
▁sheer	-12724
▁sheet	-12725
▁stops	-12726
▁unfor	-12727
▁unlim	-12728
forward	-12729
ickness	-12730
inances	-12731
ireless	-12732
▁census	-12733
▁cradle	-12734
▁crates	-12735
▁dances	-12736
▁dining	-12737
▁gaoyou	-12738
▁graves	-12739
▁guangk	-12740
▁layers	-12741
▁liters	-12742
▁luxemb	-12743
▁panama	-12744
▁repeal	-12745
▁saints	-12746
▁speeds	-12747
▁wentai	-12748
allowing	-12749
▁belgium	-12750
▁capitol	-12751
▁erosion	-12752
▁gauteng	-12753
▁leather	-12754
▁lending	-12755
▁moments	-12756
▁passeng	-12757
▁penalty	-12758
▁regrett	-12759
▁yinglin	-12760
▁yongzhi	-12761
▁ethnical	-12762
▁fattened	-12763
▁gangland	-12764
▁guangkai	-12765
▁hesitant	-12766
▁hesitate	-12767
▁hillside	-12768
▁hongbiao	-12769
▁huaiqing	-12770
▁husbands	-12771
▁imagined	-12772
▁impelled	-12773
▁impotent	-12774
▁incontro	-12775
▁interpol	-12776
▁isolated	-12777
▁israelis	-12778
▁jiangcuo	-12779
▁jianping	-12780
▁jinzhong	-12781
▁journals	-12782
▁joyfully	-12783
▁keypoint	-12784
▁killings	-12785
▁kimchang	-12786
▁klebanov	-12787
▁landmark	-12788
▁leapfrog	-12789
▁lessened	-12790
▁licensed	-12791
▁lifeless	-12792
▁liulishi	-12793
▁liwupula	-12794
▁machines	-12795
▁maehyang	-12796
▁magazine	-12797
▁malaysia	-12798
▁maldives	-12799
avez	-12800
kins	-12801
ools	-12802
shim	-12803
shin	-12804
▁7.8	-12805
▁csh	-12806
chool	-12807
efine	-12808
graft	-12809
icraf	-12810
itpic	-12811
shang	-12812
shima	-12813
shinu	-12814
ureng	-12815
uspic	-12816
▁cake	-12817
▁cape	-12818
▁cave	-12819
▁gaps	-12820
▁hool	-12821
▁john	-12822
▁kick	-12823
▁shaw	-12824
apping	-12825
aptrap	-12826
niving	-12827
rowave	-12828
school	-12829
▁amway	-12830
▁cshrs	-12831
▁lends	-12832
▁myong	-12833
▁sarin	-12834
alified	-12835
atified	-12836
contact	-12837
icrafts	-12838
imistic	-12839
mapping	-12840
roshima	-12841
shinuij	-12842
thought	-12843
uristic	-12844
▁anyway	-12845
▁auspic	-12846
▁basins	-12847
▁caveat	-12848
▁chavez	-12849
▁daring	-12850
▁diving	-12851
▁fureng	-12852
▁grades	-12853
▁heping	-12854
▁hoolig	-12855
▁nitpic	-12856
▁stools	-12857
▁taught	-12858
▁trusts	-12859
▁zhenli	-12860
grafting	-12861
ilippine	-12862
ritorial	-12863
shinuiju	-12864
▁absence	-12865
▁expands	-12866
▁freight	-12867
▁hopkins	-12868
▁lichuan	-12869
▁prosper	-12870
▁refined	-12871
▁valuing	-12872
qualified	-12873
▁blackout	-12874
▁chunwang	-12875
▁claptrap	-12876
▁displays	-12877
▁managers	-12878
▁mandator	-12879
▁marshall	-12880
▁masterly	-12881
▁matching	-12882
▁messages	-12883
▁mindsets	-12884
▁mingling	-12885
▁mingqing	-12886
▁mingshan	-12887
▁minimize	-12888
▁mitigate	-12889
▁mitterra	-12890
▁murayama	-12891
▁murdered	-12892
▁murderer	-12893
▁mystical	-12894
▁neglects	-12895
▁nineties	-12896
▁nurtured	-12897
▁obedient	-12898
▁obsolete	-12899
ailo	-12900
ceco	-12901
▁122	-12902
▁67-	-12903
9,000	-12904
anoun	-12905
emerg	-12906
ergen	-12907
oceco	-12908
ounge	-12909
stock	-12910
▁200-	-12911
▁metz	-12912
▁palm	-12913
▁popl	-12914
▁salv	-12915
▁wool	-12916
inghua	-12917
losing	-12918
satisf	-12919
▁aiwen	-12920
▁camel	-12921
▁camer	-12922
▁delib	-12923
▁delim	-12924
▁kailo	-12925
▁lagos	-12926
▁metal	-12927
▁palad	-12928
▁salin	-12929
▁shann	-12930
▁untie	-12931
▁39,000	-12932
▁cheers	-12933
▁chinma	-12934
▁delays	-12935
▁inputs	-12936
▁linhua	-12937
▁lounge	-12938
▁salary	-12939
▁shumin	-12940
▁xoceco	-12941
▁zanoun	-12942
▁zhangy	-12943
ishables	-12944
sections	-12945
▁cameram	-12946
▁condemn	-12947
▁dejiang	-12948
▁juergen	-12949
▁kejiang	-12950
▁majesty	-12951
▁mending	-12952
▁metzger	-12953
▁paladin	-12954
▁poplars	-12955
▁shannxi	-12956
▁undeter	-12957
▁zhangye	-12958
emergence	-12959
readiness	-12960
repancies	-12961
satisfied	-12962
▁assessed	-12963
▁convince	-12964
▁electron	-12965
▁emphases	-12966
▁impacted	-12967
▁offenses	-12968
▁outbreak	-12969
▁outgoing	-12970
▁outlines	-12971
▁outlooks	-12972
▁overload	-12973
▁painting	-12974
▁pastoral	-12975
▁peiqiong	-12976
▁penghang	-12977
▁persuade	-12978
▁pharmacy	-12979
▁pingtung	-12980
▁pipeline	-12981
▁placards	-12982
▁plainclo	-12983
▁planners	-12984
▁plotters	-12985
▁polished	-12986
▁pondered	-12987
▁portrays	-12988
▁possibly	-12989
▁postpone	-12990
▁pounding	-12991
▁premiums	-12992
▁princess	-12993
▁printing	-12994
▁probable	-12995
▁proceeds	-12996
▁producer	-12997
▁puzzling	-12998
▁qianxian	-12999
daq	-13000
fix	-13001
▁62	-13002
rude	-13003
▁570	-13004
armar	-13005
asdaq	-13006
broad	-13007
ongee	-13008
thodo	-13009
ushan	-13010
▁cows	-13011
▁guix	-13012
▁padd	-13013
▁paro	-13014
▁pave	-13015
▁pawn	-13016
▁pole	-13017
▁xuch	-13018
ambian	-13019
fixing	-13020
ocused	-13021
opping	-13022
thodox	-13023
▁anhui	-13024
▁dared	-13025
▁doesn	-13026
▁ezhou	-13027
▁paral	-13028
▁raped	-13029
▁sonor	-13030
▁tends	-13031
▁truce	-13032
▁xiaow	-13033
▁xuchu	-13034
antages	-13035
focused	-13036
nerable	-13037
onizing	-13038
thouses	-13039
ushanbe	-13040
zambian	-13041
▁blacks	-13042
▁earmar	-13043
▁hurdle	-13044
▁morals	-13045
▁nasdaq	-13046
▁offers	-13047
▁parame	-13048
▁parole	-13049
▁pongee	-13050
▁qinyao	-13051
▁retire	-13052
▁richer	-13053
tersburg	-13054
thousand	-13055
▁amiable	-13056
▁berthed	-13057
▁fullest	-13058
▁guixian	-13059
▁intrude	-13060
▁paralle	-13061
▁peiding	-13062
▁ranging	-13063
▁stained	-13064
▁suffice	-13065
▁xiaowen	-13066
▁zhukang	-13067
broadcast	-13068
esthouses	-13069
political	-13070
ulnerable	-13071
▁complied	-13072
▁deciding	-13073
▁dushanbe	-13074
▁inviting	-13075
▁orthodox	-13076
▁paddling	-13077
▁parallel	-13078
▁patriots	-13079
▁qianyuan	-13080
▁radishes	-13081
▁railroad	-13082
▁rainfall	-13083
▁rankings	-13084
▁ratified	-13085
▁reassess	-13086
▁rebuffed	-13087
▁receipts	-13088
▁reciproc	-13089
▁reckoned	-13090
▁recycled	-13091
▁redefine	-13092
▁refriger	-13093
▁reinvest	-13094
▁remarked	-13095
▁rendered	-13096
▁resisted	-13097
▁reticent	-13098
▁retiring	-13099
abby	-13100
aley	-13101
ells	-13102
suff	-13103
▁28-	-13104
armed	-13105
emale	-13106
fying	-13107
iamen	-13108
ogged	-13109
ulged	-13110
ummed	-13111
▁0130	-13112
▁1862	-13113
▁1987	-13114
▁2007	-13115
▁cell	-13116
▁ensu	-13117
▁flor	-13118
▁flot	-13119
▁keys	-13120
▁khai	-13121
▁plea	-13122
▁solo	-13123
fogged	-13124
member	-13125
raying	-13126
ricell	-13127
▁boats	-13128
▁daley	-13129
▁dying	-13130
▁flame	-13131
▁flies	-13132
▁flown	-13133
▁skept	-13134
▁solic	-13135
ricelli	-13136
rifying	-13137
uncheng	-13138
▁domain	-13139
▁engend	-13140
▁female	-13141
▁florid	-13142
▁shabby	-13143
▁smells	-13144
▁termed	-13145
▁zhuhai	-13146
divulged	-13147
equality	-13148
▁alarmed	-13149
▁attends	-13150
▁chaired	-13151
▁civilly	-13152
▁defying	-13153
▁ensuing	-13154
▁florida	-13155
▁flotill	-13156
▁ramadan	-13157
▁restart	-13158
▁runping	-13159
▁tendent	-13160
intensive	-13161
suffering	-13162
▁befogged	-13163
▁brazenly	-13164
▁collabor	-13165
▁delegate	-13166
▁kindness	-13167
▁reversed	-13168
▁reverses	-13169
▁reviving	-13170
▁ridicule	-13171
▁ruthless	-13172
▁saboteur	-13173
▁salvador	-13174
▁scrapped	-13175
▁searches	-13176
▁sections	-13177
▁sectoral	-13178
▁segments	-13179
▁seleznev	-13180
▁seminars	-13181
▁sensible	-13182
▁sentence	-13183
▁sequence	-13184
▁shackled	-13185
▁shalimar	-13186
▁shameful	-13187
▁shedding	-13188
▁shengdao	-13189
▁shenzhou	-13190
▁shipyard	-13191
▁shopping	-13192
▁shouting	-13193
▁siberian	-13194
▁sideline	-13195
▁sightsee	-13196
▁simplest	-13197
▁sluggish	-13198
▁smashing	-13199
apha	-13200
ilty	-13201
pels	-13202
▁20-	-13203
▁phn	-13204
▁phu	-13205
iates	-13206
rates	-13207
vents	-13208
verem	-13209
worth	-13210
▁45.4	-13211
▁eric	-13212
▁phot	-13213
▁surf	-13214
▁surn	-13215
▁tien	-13216
▁trap	-13217
▁urge	-13218
arried	-13219
getary	-13220
icates	-13221
meates	-13222
saking	-13223
stapha	-13224
ualien	-13225
▁blues	-13226
▁cried	-13227
▁fiery	-13228
▁hates	-13229
▁islom	-13230
▁phnom	-13231
▁surve	-13232
▁vient	-13233
▁yuanz	-13234
carried	-13235
cedents	-13236
eliness	-13237
erately	-13238
ureates	-13239
▁bering	-13240
▁guangx	-13241
▁guilty	-13242
▁impels	-13243
▁jirong	-13244
▁overem	-13245
▁starts	-13246
▁zaobao	-13247
andering	-13248
balanced	-13249
caucasia	-13250
ilometer	-13251
minately	-13252
ndicates	-13253
oustapha	-13254
reaction	-13255
udgetary	-13256
▁advised	-13257
▁asahara	-13258
▁examine	-13259
▁helpful	-13260
▁hualien	-13261
▁monarch	-13262
▁nanning	-13263
▁profile	-13264
▁recount	-13265
▁surfers	-13266
▁surname	-13267
▁tienong	-13268
▁treated	-13269
▁yuanzhe	-13270
▁zhirong	-13271
budgetary	-13272
iculously	-13273
kilometer	-13274
resources	-13275
▁airworth	-13276
▁clearing	-13277
▁crumbled	-13278
▁diminish	-13279
▁enlarges	-13280
▁ericsson	-13281
▁guangxun	-13282
▁hydrates	-13283
▁recounts	-13284
▁smuggled	-13285
▁sonorous	-13286
▁spelling	-13287
▁splitism	-13288
▁sponsors	-13289
▁squabble	-13290
▁squadron	-13291
▁stagnant	-13292
▁stamping	-13293
▁statutes	-13294
▁stopping	-13295
▁stranded	-13296
▁strummed	-13297
▁subsonic	-13298
▁suffices	-13299
.74	-13300
guy	-13301
.742	-13302
eher	-13303
hots	-13304
lien	-13305
rack	-13306
avily	-13307
chien	-13308
guise	-13309
guish	-13310
guyen	-13311
notch	-13312
▁2100	-13313
▁begs	-13314
▁bots	-13315
▁dien	-13316
▁frat	-13317
▁hots	-13318
▁rack	-13319
▁reaw	-13320
▁schw	-13321
apting	-13322
assals	-13323
notice	-13324
▁carbr	-13325
▁grids	-13326
▁infat	-13327
▁refin	-13328
▁riots	-13329
▁roots	-13330
▁seals	-13331
economy	-13332
stained	-13333
▁11.742	-13334
▁denial	-13335
▁eldest	-13336
▁equals	-13337
▁infant	-13338
▁infatu	-13339
▁infers	-13340
▁nguyen	-13341
▁reawak	-13342
▁refers	-13343
▁refine	-13344
▁refund	-13345
▁schwab	-13346
▁wooded	-13347
▁yasser	-13348
apidated	-13349
ifferent	-13350
▁anguish	-13351
▁barrack	-13352
▁carbris	-13353
▁debated	-13354
▁drowned	-13355
▁fratern	-13356
▁heavily	-13357
▁prueher	-13358
▁sitting	-13359
▁vassals	-13360
▁warrant	-13361
existence	-13362
▁adapting	-13363
▁assisted	-13364
▁botswana	-13365
▁disguise	-13366
▁hotshots	-13367
▁mentally	-13368
▁prevails	-13369
▁produces	-13370
▁specters	-13371
▁suitably	-13372
▁superimp	-13373
▁swimming	-13374
▁symmetry	-13375
▁sympathy	-13376
▁tangibly	-13377
▁teamwork	-13378
▁teleconf	-13379
▁tianhong	-13380
▁toppling	-13381
▁tracking	-13382
▁traction	-13383
▁tranquil	-13384
▁transgen	-13385
▁tricking	-13386
▁troubled	-13387
▁trustors	-13388
▁tsinghua	-13389
▁tunisian	-13390
▁ultimate	-13391
▁unevenly	-13392
▁unipolar	-13393
▁unjustif	-13394
▁unsolved	-13395
▁unworthy	-13396
▁vacation	-13397
▁variable	-13398
▁versions	-13399
oji	-13400
▁34	-13401
▁37	-13402
▁44	-13403
▁48	-13404
2000	-13405
feed	-13406
heav	-13407
zhak	-13408
▁irr	-13409
20001	-13410
archy	-13411
grade	-13412
tibet	-13413
uanji	-13414
▁angr	-13415
▁biot	-13416
▁desk	-13417
▁harb	-13418
200011	-13419
heaval	-13420
itzhak	-13421
soviet	-13422
uanjiu	-13423
▁anten	-13424
▁antic	-13425
▁anton	-13426
▁assad	-13427
▁bosom	-13428
▁deser	-13429
▁fanuc	-13430
▁farms	-13431
▁farth	-13432
▁intol	-13433
▁paris	-13434
▁tians	-13435
▁xiaol	-13436
▁37,000	-13437
▁addict	-13438
▁amidst	-13439
▁bochun	-13440
▁bolkia	-13441
▁deserv	-13442
▁downed	-13443
▁exerts	-13444
▁harbor	-13445
▁hotels	-13446
▁intend	-13447
▁intent	-13448
▁liling	-13449
▁locust	-13450
▁opined	-13451
▁protru	-13452
▁zhuoji	-13453
ierarchy	-13454
pectives	-13455
▁angrily	-13456
▁antenna	-13457
▁antonio	-13458
▁applies	-13459
▁biotech	-13460
▁bolkiah	-13461
▁charism	-13462
▁deserts	-13463
▁fielded	-13464
▁secured	-13465
▁transpl	-13466
▁yitzhak	-13467
agonistic	-13468
essionist	-13469
forcement	-13470
propelled	-13471
▁charisma	-13472
▁deserves	-13473
▁farthest	-13474
▁intensfy	-13475
▁launches	-13476
▁maturing	-13477
▁reverted	-13478
▁thinkers	-13479
▁tianshui	-13480
▁upheaval	-13481
▁vientian	-13482
▁wasteful	-13483
▁webpages	-13484
▁weekends	-13485
▁wenchang	-13486
▁wireless	-13487
▁xiaoming	-13488
▁xinzhang	-13489
▁xueliang	-13490
▁yanhuang	-13491
▁yonghong	-13492
▁yongping	-13493
▁zhenqian	-13494
▁zhenzhou	-13495
▁zhongliu	-13496
▁zhuanjiu	-13497
affiliated	-13498
ammunition	-13499
nedy	-13500
upil	-13501
▁104	-13502
▁jov	-13503
arpar	-13504
athir	-13505
echel	-13506
emned	-13507
exist	-13508
ierra	-13509
iromu	-13510
▁36.1	-13511
▁fath	-13512
▁huij	-13513
▁huog	-13514
▁kath	-13515
▁knit	-13516
▁knot	-13517
▁load	-13518
▁natl	-13519
▁scal	-13520
▁scud	-13521
ennedy	-13522
hathir	-13523
manned	-13524
thrust	-13525
▁104.6	-13526
▁haier	-13527
▁kathm	-13528
▁loves	-13529
▁pupil	-13530
▁purse	-13531
▁remov	-13532
▁scand	-13533
▁yalta	-13534
akarpar	-13535
echelon	-13536
ightier	-13537
parable	-13538
redible	-13539
▁cering	-13540
▁defame	-13541
▁equate	-13542
▁equity	-13543
▁hiromu	-13544
▁huijun	-13545
▁huogui	-13546
▁purity	-13547
▁reader	-13548
▁revive	-13549
▁scales	-13550
▁sierra	-13551
▁confine	-13552
▁fathers	-13553
▁kennedy	-13554
▁maltese	-13555
▁removal	-13556
▁scandal	-13557
▁warming	-13558
▁yunyang	-13559
▁fascists	-13560
▁invaders	-13561
▁kathmand	-13562
▁mahathir	-13563
▁memories	-13564
▁necessit	-13565
▁persists	-13566
▁pitiable	-13567
▁precipit	-13568
▁richardo	-13569
▁sonarmen	-13570
▁unmanned	-13571
akarparian	-13572
beneficial	-13573
collection	-13574
commercial	-13575
conditions	-13576
conductive	-13577
cyclopedia	-13578
determined	-13579
effaceable	-13580
efficiency	-13581
employment	-13582
entication	-13583
ereoscopic	-13584
escribable	-13585
essimistic	-13586
forwarding	-13587
ightedness	-13588
iovascular	-13589
ipersonnel	-13590
itarianism	-13591
nomination	-13592
onetheless	-13593
orestation	-13594
philippine	-13595
portuguese	-13596
regulation	-13597
resistible	-13598
respective	-13599
▁56	-13600
▁58	-13601
aves	-13602
enma	-13603
phan	-13604
rode	-13605
▁56-	-13606
cular	-13607
ields	-13608
wield	-13609
▁15.7	-13610
▁curs	-13611
▁ends	-13612
▁mudd	-13613
▁smok	-13614
▁subd	-13615
▁subl	-13616
▁subt	-13617
encing	-13618
istrib	-13619
oughly	-13620
▁eaves	-13621
▁groom	-13622
▁insan	-13623
▁larry	-13624
▁mistr	-13625
▁muddy	-13626
▁quint	-13627
▁revol	-13628
▁shots	-13629
▁subur	-13630
ictable	-13631
lecular	-13632
racting	-13633
western	-13634
▁calair	-13635
▁cursed	-13636
▁debate	-13637
▁disper	-13638
▁easing	-13639
▁insult	-13640
▁legend	-13641
▁mostly	-13642
▁orphan	-13643
▁revolt	-13644
▁smokes	-13645
▁subdue	-13646
▁subtly	-13647
▁wields	-13648
wielding	-13649
▁admired	-13650
▁copying	-13651
▁corrode	-13652
▁futenma	-13653
▁futures	-13654
▁insurre	-13655
▁legally	-13656
▁roughly	-13657
▁strings	-13658
▁sublate	-13659
▁suburbs	-13660
▁subvers	-13661
▁achieves	-13662
▁activism	-13663
▁commoner	-13664
▁commonwe	-13665
▁disperse	-13666
▁henrique	-13667
▁insanity	-13668
▁insulted	-13669
▁leninism	-13670
▁mistrust	-13671
▁mohammad	-13672
▁quintess	-13673
▁sticking	-13674
rementally	-13675
rochemical	-13676
standstill	-13677
▁1,144.408	-13678
▁1998-1999	-13679
▁abandoned	-13680
▁absurdity	-13681
▁abundance	-13682
▁actuality	-13683
▁adaptable	-13684
▁addressed	-13685
▁admitting	-13686
▁adversary	-13687
▁advertise	-13688
▁affection	-13689
▁affirming	-13690
▁afflicted	-13691
▁aforesaid	-13692
▁aggravate	-13693
▁aggregate	-13694
▁airplanes	-13695
▁alignment	-13696
▁allocated	-13697
▁ambitions	-13698
▁ancestors	-13699
pg	-13700
cham	-13701
fied	-13702
indh	-13703
okan	-13704
perv	-13705
sack	-13706
shui	-13707
size	-13708
sons	-13709
▁lpg	-13710
▁oem	-13711
▁rog	-13712
▁sie	-13713
iably	-13714
india	-13715
inges	-13716
▁1900	-13717
▁extr	-13718
▁falk	-13719
▁vied	-13720
▁youn	-13721
icated	-13722
irindh	-13723
izsack	-13724
ombian	-13725
pervas	-13726
racept	-13727
refied	-13728
▁anniv	-13729
▁discs	-13730
▁liked	-13731
▁nowad	-13732
▁putai	-13733
▁recol	-13734
▁remit	-13735
▁silic	-13736
▁smack	-13737
▁tours	-13738
▁zhend	-13739
sighted	-13740
ssified	-13741
usually	-13742
▁amcham	-13743
▁bailed	-13744
▁biased	-13745
▁frozen	-13746
▁hinges	-13747
▁indire	-13748
▁intert	-13749
▁midair	-13750
▁noting	-13751
▁rogues	-13752
izsacker	-13753
unitions	-13754
▁budokan	-13755
▁intertw	-13756
▁preserv	-13757
▁realist	-13758
▁sharpen	-13759
▁shengde	-13760
▁silicon	-13761
▁sirindh	-13762
▁stating	-13763
▁viewing	-13764
▁younian	-13765
pervasive	-13766
raceptive	-13767
▁crossing	-13768
▁exposure	-13769
▁extrater	-13770
▁faithful	-13771
▁falkland	-13772
▁highways	-13773
▁indirect	-13774
▁justices	-13775
▁nowadays	-13776
▁ordering	-13777
▁ossified	-13778
▁slanders	-13779
▁zhendong	-13780
vernmental	-13781
▁applauded	-13782
▁appraised	-13783
▁approving	-13784
▁assessing	-13785
▁assurance	-13786
▁automatic	-13787
▁avalanche	-13788
▁azerbijan	-13789
▁balancing	-13790
▁balangjie	-13791
▁barefaced	-13792
▁benchmark	-13793
▁betraying	-13794
▁blasphemy	-13795
▁blessings	-13796
▁blueprint	-13797
▁bombarded	-13798
▁boothroyd	-13799
blo	-13800
irl	-13801
mil	-13802
sai	-13803
sci	-13804
cost	-13805
emoy	-13806
epts	-13807
iaoy	-13808
lets	-13809
mila	-13810
oyut	-13811
thai	-13812
tsai	-13813
▁631	-13814
▁bai	-13815
▁obj	-13816
▁qam	-13817
▁qin	-13818
▁qun	-13819
▁qus	-13820
akart	-13821
angle	-13822
antai	-13823
bloid	-13824
grain	-13825
ifted	-13826
▁bite	-13827
▁bore	-13828
▁duly	-13829
▁girl	-13830
▁lady	-13831
▁lite	-13832
▁qire	-13833
▁rear	-13834
akarta	-13835
alyzed	-13836
artite	-13837
consci	-13838
isible	-13839
oyutai	-13840
stores	-13841
udmila	-13842
▁1,200	-13843
▁2,100	-13844
▁3,648	-13845
▁atoll	-13846
▁fatig	-13847
▁inhib	-13848
▁leone	-13849
▁miaoy	-13850
▁qamdo	-13851
▁qiren	-13852
▁qunay	-13853
▁qusay	-13854
▁stone	-13855
▁zhuog	-13856
causing	-13857
vention	-13858
▁adepts	-13859
▁dearly	-13860
▁elicit	-13861
▁hotbed	-13862
▁invite	-13863
▁postal	-13864
▁quemoy	-13865
▁qunayt	-13866
▁yantai	-13867
▁zhuoga	-13868
ivisible	-13869
lyudmila	-13870
▁anybody	-13871
▁factory	-13872
▁fatigue	-13873
▁implies	-13874
▁jakarta	-13875
▁kangsai	-13876
▁outlets	-13877
▁shifted	-13878
▁sounder	-13879
▁tabloid	-13880
ventional	-13881
▁dropping	-13882
▁lyudmila	-13883
▁miaoying	-13884
▁qinzheng	-13885
▁surnamed	-13886
▁triangle	-13887
▁augmented	-13888
▁brazzavil	-13889
▁breakdown	-13890
▁breakfast	-13891
▁breathing	-13892
▁brezinsky	-13893
▁briberies	-13894
▁briefings	-13895
▁bypassing	-13896
▁bystander	-13897
▁cameramen	-13898
▁capturing	-13899
urk	-13900
yss	-13901
ijie	-13902
ijin	-13903
ilya	-13904
kuan	-13905
lesh	-13906
lung	-13907
opez	-13908
turk	-13909
▁iow	-13910
▁lax	-13911
▁obe	-13912
acles	-13913
lomer	-13914
▁huan	-13915
▁ilya	-13916
▁iowa	-13917
▁kuan	-13918
▁verb	-13919
▁viii	-13920
derous	-13921
embers	-13922
ichung	-13923
itally	-13924
unning	-13925
▁abyss	-13926
▁acfic	-13927
▁aired	-13928
▁flesh	-13929
▁lopez	-13930
▁obeid	-13931
▁plung	-13932
▁stake	-13933
▁tired	-13934
members	-13935
onghuai	-13936
turkish	-13937
verance	-13938
▁33,600	-13939
▁pinyin	-13940
▁premar	-13941
▁shijin	-13942
▁zhijie	-13943
ablished	-13944
entacles	-13945
guanchun	-13946
kability	-13947
maldives	-13948
ricating	-13949
▁brushes	-13950
▁casting	-13951
▁colored	-13952
▁cunning	-13953
▁deliver	-13954
▁hoisted	-13955
▁plunged	-13956
▁relayed	-13957
▁taizhou	-13958
▁vitally	-13959
igarettes	-13960
lomerates	-13961
olability	-13962
▁cultures	-13963
▁kungkuan	-13964
▁taichung	-13965
▁verbally	-13966
▁zonghuai	-13967
iolability	-13968
▁cardboard	-13969
▁carriages	-13970
▁catalysis	-13971
▁centering	-13972
▁certified	-13973
▁cherished	-13974
▁cherishes	-13975
▁chieftain	-13976
▁cognition	-13977
▁collapsed	-13978
▁colombian	-13979
▁colorings	-13980
▁compelled	-13981
▁competing	-13982
▁complains	-13983
▁composure	-13984
▁conceding	-13985
▁conniving	-13986
▁consisted	-13987
▁constancy	-13988
▁consulted	-13989
▁contemned	-13990
▁contested	-13991
▁convenant	-13992
▁converted	-13993
▁cosponsor	-13994
▁creations	-13995
▁dampening	-13996
▁databases	-13997
▁dedicated	-13998
▁deepgoing	-13999
15	-14000
ouz	-14001
bago	-14002
bted	-14003
bues	-14004
crit	-14005
▁320	-14006
▁nur	-14007
▁raw	-14008
ebted	-14009
estim	-14010
hsuan	-14011
leted	-14012
oseki	-14013
uesen	-14014
veted	-14015
▁2015	-14016
▁bric	-14017
▁pads	-14018
▁rais	-14019
▁xian	-14020
asmine	-14021
ategic	-14022
cision	-14023
critic	-14024
dating	-14025
ilitar	-14026
ouzeng	-14027
roduct	-14028
tating	-14029
tobago	-14030
▁brick	-14031
▁fairy	-14032
▁lords	-14033
▁modic	-14034
▁nurse	-14035
▁refit	-14036
▁tritt	-14037
▁villa	-14038
central	-14039
fangled	-14040
ighting	-14041
onoseki	-14042
ralized	-14043
▁50,000	-14044
▁breeze	-14045
▁imbues	-14046
▁issuan	-14047
▁rating	-14048
▁shocks	-14049
▁unrest	-14050
▁xuesen	-14051
lighting	-14052
recision	-14053
romanian	-14054
▁auction	-14055
▁deleted	-14056
▁derives	-14057
▁drivers	-14058
▁inestim	-14059
▁jasmine	-14060
▁modicum	-14061
▁officer	-14062
▁riveted	-14063
▁trittin	-14064
▁tungyin	-14065
criticism	-14066
imonoseki	-14067
precision	-14068
roductive	-14069
▁arranges	-14070
▁assailed	-14071
▁greening	-14072
▁indebted	-14073
▁packaged	-14074
▁refitted	-14075
▁rotating	-14076
▁semester	-14077
▁shouzeng	-14078
▁tsuishan	-14079
▁updating	-14080
emperature	-14081
ilitarized	-14082
▁considers	-14083
▁defection	-14084
▁deflating	-14085
▁delegated	-14086
▁delimited	-14087
▁depletion	-14088
▁depriving	-14089
▁describes	-14090
▁desirable	-14091
▁desperate	-14092
▁detailing	-14093
▁detecting	-14094
▁detection	-14095
▁deviating	-14096
▁digesting	-14097
▁diligence	-14098
▁directors	-14099
tg	-14100
dad	-14101
pur	-14102
▁ry	-14103
areh	-14104
cium	-14105
ials	-14106
ihai	-14107
omao	-14108
purp	-14109
▁mtg	-14110
▁ngo	-14111
▁vow	-14112
ghdad	-14113
ieved	-14114
▁impr	-14115
▁ryut	-14116
▁sown	-14117
▁wald	-14118
▁weep	-14119
▁zhip	-14120
abited	-14121
aution	-14122
strata	-14123
unduan	-14124
▁3,462	-14125
▁dross	-14126
▁duenm	-14127
▁elite	-14128
▁fines	-14129
▁gases	-14130
▁greas	-14131
▁hints	-14132
▁integ	-14133
▁longg	-14134
▁moses	-14135
▁rises	-14136
▁sells	-14137
▁tally	-14138
▁vowed	-14139
▁wareh	-14140
habited	-14141
purpose	-14142
▁beihai	-14143
▁duenmu	-14144
▁edited	-14145
▁faulty	-14146
▁greasy	-14147
▁longga	-14148
▁maomao	-14149
▁massac	-14150
▁stalin	-14151
▁traces	-14152
▁waldor	-14153
▁zhipan	-14154
▁accuses	-14155
▁baghdad	-14156
▁burning	-14157
▁calcium	-14158
▁clarion	-14159
▁glinted	-14160
▁ignomin	-14161
▁ryutaro	-14162
▁sophism	-14163
▁staging	-14164
▁turkish	-14165
▁waldorf	-14166
▁wealthy	-14167
▁yizhong	-14168
▁yunduan	-14169
resisting	-14170
▁athletic	-14171
▁improper	-14172
▁integral	-14173
▁longgaot	-14174
▁massacre	-14175
▁relieved	-14176
▁afterward	-14177
▁disallows	-14178
▁disappear	-14179
▁discharge	-14180
▁discontin	-14181
▁discrimin	-14182
▁disguised	-14183
▁dismantle	-14184
▁disparate	-14185
▁disturbed	-14186
▁divergent	-14187
▁diversion	-14188
▁doctorate	-14189
▁dogmatist	-14190
▁dominated	-14191
▁donations	-14192
▁dongliang	-14193
▁doubtless	-14194
▁dynasties	-14195
▁earmarked	-14196
▁economize	-14197
▁educators	-14198
▁elaborate	-14199
agg	-14200
ags	-14201
cul	-14202
esy	-14203
tot	-14204
ucy	-14205
▁id	-14206
adru	-14207
[...]
